{
  "version": "1.0",
  "truncation": null,
  "padding": null,
  "added_tokens": [
    {
      "id": 0,
      "content": "<PAD>",
      "single_word": false,
      "lstrip": false,
      "rstrip": false,
      "normalized": false,
      "special": true
    },
    {
      "id": 1,
      "content": "<BOS>",
      "single_word": false,
      "lstrip": false,
      "rstrip": false,
      "normalized": false,
      "special": true
    },
    {
      "id": 2,
      "content": "<EOS>",
      "single_word": false,
      "lstrip": false,
      "rstrip": false,
      "normalized": false,
      "special": true
    }
  ],
  "normalizer": null,
  "pre_tokenizer": {
    "type": "ByteLevel",
    "add_prefix_space": false,
    "trim_offsets": true,
    "use_regex": true
  },
  "post_processor": null,
  "decoder": null,
  "model": {
    "type": "BPE",
    "dropout": null,
    "unk_token": null,
    "continuing_subword_prefix": null,
    "end_of_word_suffix": null,
    "fuse_unk": false,
    "byte_fallback": false,
    "ignore_merges": false,
    "vocab": {
      "<PAD>": 0,
      "<BOS>": 1,
      "<EOS>": 2,
      "!": 3,
      "\"": 4,
      "#": 5,
      "$": 6,
      "%": 7,
      "&": 8,
      "'": 9,
      "(": 10,
      ")": 11,
      "*": 12,
      "+": 13,
      ",": 14,
      "-": 15,
      ".": 16,
      "/": 17,
      "0": 18,
      "1": 19,
      "2": 20,
      "3": 21,
      "4": 22,
      "5": 23,
      "6": 24,
      "7": 25,
      "8": 26,
      "9": 27,
      ":": 28,
      ";": 29,
      "<": 30,
      "=": 31,
      ">": 32,
      "?": 33,
      "@": 34,
      "A": 35,
      "B": 36,
      "C": 37,
      "D": 38,
      "E": 39,
      "F": 40,
      "G": 41,
      "H": 42,
      "I": 43,
      "J": 44,
      "K": 45,
      "L": 46,
      "M": 47,
      "N": 48,
      "O": 49,
      "P": 50,
      "Q": 51,
      "R": 52,
      "S": 53,
      "T": 54,
      "U": 55,
      "V": 56,
      "W": 57,
      "X": 58,
      "Y": 59,
      "Z": 60,
      "[": 61,
      "\\": 62,
      "]": 63,
      "^": 64,
      "_": 65,
      "`": 66,
      "a": 67,
      "b": 68,
      "c": 69,
      "d": 70,
      "e": 71,
      "f": 72,
      "g": 73,
      "h": 74,
      "i": 75,
      "j": 76,
      "k": 77,
      "l": 78,
      "m": 79,
      "n": 80,
      "o": 81,
      "p": 82,
      "q": 83,
      "r": 84,
      "s": 85,
      "t": 86,
      "u": 87,
      "v": 88,
      "w": 89,
      "x": 90,
      "y": 91,
      "z": 92,
      "{": 93,
      "|": 94,
      "}": 95,
      "~": 96,
      "¡": 97,
      "¢": 98,
      "£": 99,
      "¤": 100,
      "¥": 101,
      "¦": 102,
      "§": 103,
      "¨": 104,
      "©": 105,
      "ª": 106,
      "«": 107,
      "¬": 108,
      "®": 109,
      "¯": 110,
      "°": 111,
      "±": 112,
      "²": 113,
      "³": 114,
      "´": 115,
      "µ": 116,
      "¶": 117,
      "·": 118,
      "¸": 119,
      "¹": 120,
      "º": 121,
      "»": 122,
      "¼": 123,
      "½": 124,
      "¾": 125,
      "¿": 126,
      "Â": 127,
      "Ã": 128,
      "Ä": 129,
      "Å": 130,
      "Æ": 131,
      "Ç": 132,
      "È": 133,
      "É": 134,
      "Ê": 135,
      "Ë": 136,
      "Ì": 137,
      "Í": 138,
      "Î": 139,
      "Ï": 140,
      "Ð": 141,
      "Ñ": 142,
      "Ò": 143,
      "Ó": 144,
      "Ô": 145,
      "Õ": 146,
      "Ö": 147,
      "×": 148,
      "Ø": 149,
      "Ù": 150,
      "Ú": 151,
      "Û": 152,
      "Ü": 153,
      "Ý": 154,
      "Þ": 155,
      "ß": 156,
      "à": 157,
      "á": 158,
      "â": 159,
      "ã": 160,
      "ä": 161,
      "å": 162,
      "æ": 163,
      "ç": 164,
      "è": 165,
      "é": 166,
      "ê": 167,
      "ë": 168,
      "ì": 169,
      "í": 170,
      "ï": 171,
      "ð": 172,
      "Ċ": 173,
      "Ġ": 174,
      "Ģ": 175,
      "ģ": 176,
      "Ĥ": 177,
      "ĥ": 178,
      "Ħ": 179,
      "ħ": 180,
      "Ĩ": 181,
      "ĩ": 182,
      "Ī": 183,
      "ī": 184,
      "Ĭ": 185,
      "ĭ": 186,
      "Į": 187,
      "į": 188,
      "İ": 189,
      "ı": 190,
      "Ĳ": 191,
      "ĳ": 192,
      "Ĵ": 193,
      "ĵ": 194,
      "Ķ": 195,
      "ķ": 196,
      "ĸ": 197,
      "Ĺ": 198,
      "ĺ": 199,
      "Ļ": 200,
      "ļ": 201,
      "Ľ": 202,
      "ľ": 203,
      "Ŀ": 204,
      "ŀ": 205,
      "Ł": 206,
      "ł": 207,
      "Ń": 208,
      "Ø§": 209,
      "ÙĦ": 210,
      "ÙĬ": 211,
      "ĠØ": 212,
      "ĠÙ": 213,
      "Ø§ÙĦ": 214,
      "ĠØ§ÙĦ": 215,
      "ÙĨ": 216,
      "Ø±": 217,
      "Ùħ": 218,
      "ÙĪ": 219,
      "Øª": 220,
      "Ø©": 221,
      "Ø¯": 222,
      "ĠØ§ÙĦØ": 223,
      "Ø¨": 224,
      "Ø³": 225,
      "Ùĩ": 226,
      "ĠÙĪ": 227,
      "Ø¹": 228,
      "ĠÙħ": 229,
      "ÙĤ": 230,
      "Ùĥ": 231,
      "Ø§Ø": 232,
      "Ùģ": 233,
      "ĠÙģ": 234,
      "ĠØ¨": 235,
      "ĠØ£": 236,
      "ÙĬØ©": 237,
      "ØĮ": 238,
      "ĠØ¹": 239,
      "ØŃ": 240,
      "Ø§ÙĨ": 241,
      "ĠÙģÙĬ": 242,
      "Ùī": 243,
      "ĠÙĦ": 244,
      "Ø¬": 245,
      "ĠØª": 246,
      "ĠØ§ÙĦÙħ": 247,
      "Ø§Øª": 248,
      "ĠÙħÙĨ": 249,
      "ÙĬÙĨ": 250,
      "Ø·": 251,
      "Øµ": 252,
      "Ø§Ø±": 253,
      "ÙĦÙī": 254,
      "Ø´": 255,
      "Ø§Ùħ": 256,
      "ĠÙĬ": 257,
      "ĠØ¥": 258,
      "ĠÙĥ": 259,
      "Ø²": 260,
      "Ø®": 261,
      "ÙĩØ§": 262,
      "ĠØ§ÙĦØ£": 263,
      "Ø«": 264,
      "Ø£": 265,
      "Ø¶": 266,
      "ÙĪÙĦ": 267,
      "ÙĬØ±": 268,
      "ĠÙĪØ§ÙĦ": 269,
      "ÙĪÙĨ": 270,
      "ĠØŃ": 271,
      "Ø±ÙĬ": 272,
      "Ø°": 273,
      "Ø§Ø³": 274,
      "Ø§Ø¯": 275,
      "Øº": 276,
      "ĠØ§ÙĦØ¹": 277,
      "ĠØ§ÙĦØª": 278,
      "ĠØ³": 279,
      "ĠÙĩ": 280,
      "ÙĪØ±": 281,
      "Ø§Ø¨": 282,
      "ĠÙĤ": 283,
      "ĠÙĨ": 284,
      "ĠØ¹ÙĦÙī": 285,
      "ÙĦÙĬ": 286,
      "ÙħØ§": 287,
      "Ø§Ø¡": 288,
      "Ø¯ÙĬ": 289,
      "ĠØ¬": 290,
      "Ø§Ø¦": 291,
      "Ġ1": 292,
      "ĠØ£ÙĨ": 293,
      "ÙĦÙĥ": 294,
      "ĠØ¥ÙĦÙī": 295,
      "ĠØ§ÙĦØŃ": 296,
      "ĠØ§ÙĦØ³": 297,
      "ĠÙĦÙĦ": 298,
      "ĠØ§ÙĦÙĤ": 299,
      "ĠØ§ÙĦØ¨": 300,
      "Ø§Ø¹": 301,
      "ĠØ¯": 302,
      "ÙĬØ§": 303,
      "Ø±Ø¨": 304,
      "ÙĬÙĦ": 305,
      "Ø§Ùģ": 306,
      "ĠØ´": 307,
      "ĠØ±": 308,
      "ÙĪÙħ": 309,
      "Ø¨Ø±": 310,
      "Ø¸": 311,
      "ĠØ§ÙĦÙĨ": 312,
      "ĠØ§ÙĦØ¬": 313,
      "Ġ(": 314,
      "Ø³Øª": 315,
      "Ø¯Ø©": 316,
      "Ø§ØŃ": 317,
      "ĠØ§ÙĦØ¥": 318,
      "Ø±Ø©": 319,
      "Ø¹Ø¯": 320,
      "ÙĩÙħ": 321,
      "ĠØ¨Ø§ÙĦ": 322,
      "ĠÙħØ¹": 323,
      "ĠØ®": 324,
      "Ø§ÙĤ": 325,
      "ĠØ§ÙĦØ´": 326,
      "ĠØ§ÙĦÙģ": 327,
      "ĠØ¹ÙĨ": 328,
      "ÙĪØ³": 329,
      "ĠØ§ÙĦÙĥ": 330,
      "Ø¨ÙĬ": 331,
      "ÙĦÙħ": 332,
      "ĠØ§ÙĦØ¯": 333,
      "ĠÙĥØ§ÙĨ": 334,
      "Ġ2": 335,
      "Ø¥": 336,
      "ĠØ¹Ø§Ùħ": 337,
      "ÙĤØ¯": 338,
      "ĠØ£ÙĪ": 339,
      "ĠØ§ÙĦØ±": 340,
      "Ø¹Ø©": 341,
      "Ø§Ø³Øª": 342,
      "ÙĬØ³": 343,
      "ĠÙĪØª": 344,
      "ÙĬÙħ": 345,
      "Ø±Ùĥ": 346,
      "Ø¦": 347,
      "ÙģÙĬ": 348,
      "ÙĪØ¯": 349,
      "ÙĦØ§": 350,
      "Ġ19": 351,
      "ÙħÙĨ": 352,
      "Ø§Ø¬": 353,
      "ÙĬØ¯": 354,
      "ÙħÙĦ": 355,
      "ĠÙĩØ°": 356,
      "ĠÂ": 357,
      "ÙĪØ¨": 358,
      "Ø§Ø·": 359,
      "ÙĬØª": 360,
      "ĠØ§ÙĦØªÙĬ": 361,
      "ÙħØ±": 362,
      "Â»": 363,
      "ĠØ¨ÙĨ": 364,
      "ĠÂ«": 365,
      "ÙĥÙĨ": 366,
      "ÙħØ©": 367,
      "ĠØ°": 368,
      "00": 369,
      "ĠØ§ÙĦØ°": 370,
      "ĠØ§ÙĦØ®": 371,
      "ĠØ·": 372,
      "ÙĤØ©": 373,
      "ĠÙĪØ£": 374,
      "Ø¨ÙĦ": 375,
      "Ø³Ø¨": 376,
      "ÙĪØ§": 377,
      "ÙĥØ§ÙĨ": 378,
      "ØªØ±": 379,
      "ĠØ§ÙĦÙĦ": 380,
      "ÙĦØ©": 381,
      "ĠØµ": 382,
      "Ø§Ùĥ": 383,
      "ĠØº": 384,
      "ĠØ§ÙĦØµ": 385,
      "Ø§Øµ": 386,
      "Ø´Ø±": 387,
      "ÙĪØ¬": 388,
      "ÙĬÙĥ": 389,
      "ĠÙĪÙĩ": 390,
      "ĠØ«": 391,
      "Ø®Ø±": 392,
      "ØªÙħ": 393,
      "Ø§Ø²": 394,
      "ÙĩØ±": 395,
      "ØªÙĬ": 396,
      "ÙĪÙĬ": 397,
      "ĠØ§ÙĦØ«": 398,
      "ĠØ¨ÙĬÙĨ": 399,
      "Ø§ÙĨÙĬ": 400,
      "Ø³Ùħ": 401,
      "Ø¤": 402,
      "ÙĨØ©": 403,
      "ĠØ¨Ø¹Ø¯": 404,
      "ØŃØ¯": 405,
      "ĠØ§ÙĦÙĪ": 406,
      "ØªÙĩ": 407,
      "ÙĥÙĦ": 408,
      "ÙĬÙĪ": 409,
      "ĠÙħØ§": 410,
      "Ø§Ø¶": 411,
      "ÙĤÙĬ": 412,
      "ÙĬØ§Øª": 413,
      "ÙĦÙģ": 414,
      "ÙħÙĪ": 415,
      "ØªØ¨": 416,
      "ÙĪÙģ": 417,
      "ĠØ£ÙĬ": 418,
      "Ø±ÙĨ": 419,
      "Ø¯Ùħ": 420,
      "ÙĬØ«": 421,
      "Ø§ÙĨÙĬØ©": 422,
      "Ø¯Ø±": 423,
      "ĠÙĪØ¨": 424,
      "Ø¯ÙĬÙĨ": 425,
      "ĠØ§ÙĦØ·": 426,
      "Ø§ÙĦÙĬ": 427,
      "Ø³ÙĦ": 428,
      "Ø³ÙĬ": 429,
      "ĠØ§ÙĦÙħÙĨ": 430,
      "ØµÙĦ": 431,
      "ÙĦØ§ÙĦ": 432,
      "ØµØ±": 433,
      "Ø§Ø«": 434,
      "ĠÙĪÙħ": 435,
      "Ø§Ùĩ": 436,
      "ĠØ§ÙĨ": 437,
      "ØŃØª": 438,
      "Ø§Ø±Ø©": 439,
      "Ø§ÙĦÙħ": 440,
      "ĠØ§Ø³Øª": 441,
      "ĠØªÙħ": 442,
      "Ø¯Ø§": 443,
      "ÙĬØ±Ø©": 444,
      "Ø§Ø®": 445,
      "ĠÙĦÙħ": 446,
      "ØªØŃ": 447,
      "ĠØ§ÙĦØ°ÙĬ": 448,
      "ÙĬØ¹": 449,
      "Ø«Ø±": 450,
      "ĠØ£Ùĥ": 451,
      "Ø¹Ø±": 452,
      "Ø¹ÙĦ": 453,
      "ĠÙĩØ°Ùĩ": 454,
      "ĠÙħØŃ": 455,
      "ĠÙĩÙĪ": 456,
      "ÙħØ§ÙĦ": 457,
      "Ø¹Ø¶": 458,
      "ÙĥØ±": 459,
      "ĠØ°ÙĦÙĥ": 460,
      "Ø«ÙĦ": 461,
      "ÙĥÙĪÙĨ": 462,
      "Ø§Ø±ÙĬ": 463,
      "Ø§Ø¯Ø©": 464,
      "ĠØ¢": 465,
      "Ø¨Ø¯": 466,
      "ÙĨÙĬ": 467,
      "Ø¬ÙĦ": 468,
      "ÙĪÙĤ": 469,
      "ĠØŃÙĬØ«": 470,
      "Ø§Ø´": 471,
      "ÙĪÙĦØ©": 472,
      "ĠÙĩÙĬ": 473,
      "ÙĤÙĦ": 474,
      "Ø¯ÙĬÙĨØ©": 475,
      "ÙĬØ²": 476,
      "ØµØ¨": 477,
      "ĠØ§ÙĦÙĩ": 478,
      "Ø±ÙĤ": 479,
      "ĠØ§ÙĦØº": 480,
      "ÙĨØ¯": 481,
      "ĠÙĩØ°Ø§": 482,
      "Ø·ÙĦ": 483,
      "ĠÙĥØ§ÙĨØª": 484,
      "Ø¯ÙĬØ¯": 485,
      "ÙĪØª": 486,
      "ĠØªØ¹": 487,
      "ĠØ²": 488,
      "Ø§Ø³Ùħ": 489,
      "Ø¨Ø©": 490,
      "ÙĪØ¹": 491,
      "ĠØ¹ÙĦÙĬ": 492,
      "Ø³Ø±": 493,
      "Ø·Ø©": 494,
      "Ø£ÙĨ": 495,
      "Ġ20": 496,
      "ĠØ¶": 497,
      "ĠÙĥÙĦ": 498,
      "ĠÙĪÙģÙĬ": 499,
      "ÙĪØ±ÙĬ": 500,
      "ØŃØ±": 501,
      "Ø±ÙĬÙĤ": 502,
      "ÙĬÙģ": 503,
      "ĠÙĪÙĤ": 504,
      "ĠØ¥ÙĨ": 505,
      "Ø±Ø¶": 506,
      "âĢ": 507,
      "ĠÙĥÙħØ§": 508,
      "ĠÙĪØ¬": 509,
      "ĠØ§ÙĦØ£Ùħ": 510,
      "Ø§Ø¯ÙĬ": 511,
      "ĠØªÙĤ": 512,
      "ÙĩØ¯": 513,
      "ĠÙĪÙĤØ¯": 514,
      "ÙĪÙĬØ©": 515,
      "ĠÙĪØ¹": 516,
      "ĠÙĦØ§": 517,
      "Ø°ÙĦÙĥ": 518,
      "ĠÙħØª": 519,
      "ÙħØ¯": 520,
      "ĠÙĤØ¨ÙĦ": 521,
      "ĠÙĪÙĥØ§ÙĨ": 522,
      "ĠØ¨ÙĦ": 523,
      "Ø±Ø¬": 524,
      "ÙĪØ§Øª": 525,
      "ĠÙĬØ¹": 526,
      "Ø¹Ø¨": 527,
      "Ø¥ÙĨ": 528,
      "ĠÙĪÙĬ": 529,
      "ĠÙĪÙĦ": 530,
      "Ø¶Ø§": 531,
      "ØŃÙĬ": 532,
      "ÙģØ±": 533,
      "ØªÙī": 534,
      "ĠØ¹ÙĨØ¯": 535,
      "Ø£Ø³": 536,
      "ĠØ§ÙĦØ¹Ø§ÙĦÙħ": 537,
      "ĠÙħÙĤ": 538,
      "Ø§ÙģØ©": 539,
      "ÙĪØ²": 540,
      "ĠÙħØ¬": 541,
      "Ġ200": 542,
      "ĠÙĪØ§ÙĦÙħ": 543,
      "ÙģØ³": 544,
      "Ø¦ÙĬØ³": 545,
      "Ø±ÙĥØ©": 546,
      "ĠØ®ÙĦØ§ÙĦ": 547,
      "ÙĨØ§": 548,
      "Ø¯Ø¯": 549,
      "Ø³Ø©": 550,
      "ĠÙĬÙħ": 551,
      "ÙģØ©": 552,
      "Ø¡": 553,
      "ĠØ¨Ø¯": 554,
      "ĠØ³ÙĨØ©": 555,
      "ĠÙĦÙĩ": 556,
      "ĠØ§ÙĦÙĬ": 557,
      "Ġ201": 558,
      "ÙĪÙĥ": 559,
      "Ø°Ø§": 560,
      "Ø±Ø¨ÙĬØ©": 561,
      "Ø®Ø±Ùī": 562,
      "ÙĪØ±Ø©": 563,
      "Ø´ÙĥÙĦ": 564,
      "ĠØ£Ùħ": 565,
      "ØªÙĦ": 566,
      "Ø³Ø·": 567,
      "ØªÙĩØ§": 568,
      "ĠØ§ÙĦØ²": 569,
      "ĠØŃØªÙī": 570,
      "ĠÙĪÙħÙĨ": 571,
      "ĠÙħØ±": 572,
      "ØªØµ": 573,
      "ĠØ«Ùħ": 574,
      "ÙĦØ¨": 575,
      "ĠØ§ÙĦØ¥ÙĨ": 576,
      "ĠØªØŃ": 577,
      "Ø¬Ùħ": 578,
      "ÙĥÙħ": 579,
      "Ø®Øµ": 580,
      "ĠØ¬Ùħ": 581,
      "ĠØ¨Ø¹Ø¶": 582,
      "ĠÙĬØª": 583,
      "ÙĬØ´": 584,
      "Ġ3": 585,
      "ĠØ§ÙĦÙħØ¹": 586,
      "ÙĪÙĦØ§": 587,
      "ĠØ§ÙĦÙħØª": 588,
      "ĠÙħØ«ÙĦ": 589,
      "ÙĨÙĬØ©": 590,
      "ÙĤØ±": 591,
      "ĠÙħØ³": 592,
      "ĠÙĪÙĩÙĪ": 593,
      "ĠØ£Ø¨": 594,
      "ĠÙĤØ¯": 595,
      "Ø±ÙĬÙĥ": 596,
      ")ØĮ": 597,
      "Ø·Ø±": 598,
      "ÙĪØ±ÙĬØ©": 599,
      "Ġ-": 600,
      "Ø§ÙĦØ©": 601,
      "ĠØ§ÙĦÙĦÙĩ": 602,
      "ĠØ§ÙĦØ¢": 603,
      "ĠØ¨Ùħ": 604,
      "ÙĪØŃ": 605,
      ").": 606,
      "Ø·ÙĤØ©": 607,
      "ĠØ£Ø³": 608,
      "ĠØ§ÙĦÙħØ³": 609,
      "ĠâĢ": 610,
      "ĠÙĬÙĤ": 611,
      "ĠØºÙĬØ±": 612,
      "ĠÙĬÙĨ": 613,
      "Ø§ÙĦÙĬØ©": 614,
      "ĠØ£ÙĬØ¶Ø§": 615,
      "ĠØªÙĨ": 616,
      "Ø®ÙĦ": 617,
      "ØºØ©": 618,
      "ĠØ¨Ø±": 619,
      "Ø¨Ø§": 620,
      "ĠÙĦØª": 621,
      "Ø¬Ø©": 622,
      "Ø«ÙĬØ±": 623,
      "ĠÙĪÙģ": 624,
      "ÙĬÙĬÙĨ": 625,
      "ĠØªØ´": 626,
      "Ø¸Ùħ": 627,
      "ĠÙĥØ¨": 628,
      "ØĽ": 629,
      "ĠÙĪÙĨ": 630,
      "Ġ18": 631,
      "ĠÙĪÙĩÙĬ": 632,
      "Ø®Øª": 633,
      "Ø§Ø¦ÙĬØ©": 634,
      "Ø§Ø±ÙĬØ®": 635,
      "Ø¬Ø±": 636,
      "ĠØ£ÙĪÙĦ": 637,
      "ĠÙĪØŃ": 638,
      "Ø§Ø¦ÙĦ": 639,
      "ĠÙħØ³Øª": 640,
      "ÙĤØ§": 641,
      "ÙħØ¨Ø±": 642,
      "ÙĪÙī": 643,
      "Ø¹ÙĬØ©": 644,
      "ØªÙģ": 645,
      "ØªØ§Ø¨": 646,
      "ĠØ£ÙĥØ«Ø±": 647,
      "Ø§Ø±Ùĥ": 648,
      "ĠØ£ÙĨÙĩ": 649,
      "ÙĬØ¨": 650,
      "ĠØ§ÙĦÙĤØ±ÙĨ": 651,
      "ĠØ¹Ø¨Ø¯": 652,
      "ĠÙĪØ§ÙĦØ£": 653,
      "ĠØ§ÙĦÙħØŃ": 654,
      "ĠØ§ÙĦØ£ÙĪÙĦ": 655,
      "ĠØ£Ø¹": 656,
      "ĠØ§ÙĦØ¬ÙĨ": 657,
      "Ø¯ÙĬØ§": 658,
      "Ø³ÙĦØ§Ùħ": 659,
      "ĠØªØª": 660,
      "ĠØ§ÙĦØ¨ÙĦ": 661,
      "ÙĦÙĬÙħ": 662,
      "ÙģØ¶": 663,
      "ĠØ¹Ø¯Ø¯": 664,
      "ÙĪØ©": 665,
      "ĠÙĦÙĦÙħ": 666,
      "ÙĦÙĬØ©": 667,
      "ĠØ§ÙĦÙħØªØŃ": 668,
      "ĠÙĪÙĦÙĥ": 669,
      "ÙĬÙĥÙĬ": 670,
      "ĠÙĪÙĥ": 671,
      "Ø²ÙĬ": 672,
      "ĠÙĬÙħÙĥÙĨ": 673,
      "ĠØ§ÙĦÙħØ±": 674,
      "Ø®Ø¯Ùħ": 675,
      "ĠØ¨ØŃ": 676,
      "ØµÙģ": 677,
      "ÙĤØª": 678,
      "ÙĬØ§Ø³": 679,
      "ĠØ§ÙĦØ³ÙĦ": 680,
      "ĠÙĦØ£": 681,
      "Ø§Ø±Ø§Øª": 682,
      "Ø±ÙĬØ©": 683,
      "Ø§Ø¦ÙĬ": 684,
      "ÙĥØ³": 685,
      "ĠØ§ÙĦØ£Ø³": 686,
      "ĠÙĪÙĦÙĥÙĨ": 687,
      "ÙĪØ§ÙĨ": 688,
      "ĠØ¹Ø´Ø±": 689,
      "Ø§Ø©": 690,
      "ÙĪØ¶": 691,
      "Ø±Ø¯": 692,
      "ĠØ³Ø¨": 693,
      "ĠØ§ÙĦØ§ÙĨ": 694,
      "ĠØ§ÙĦØ¹Ø§Ùħ": 695,
      "ÙĨØ§Ø¡": 696,
      "ØŃØ©": 697,
      "ĠØªØŃØª": 698,
      "Ø¹Ùħ": 699,
      "ÙĤØ·": 700,
      "ÙĪÙĦÙī": 701,
      "Ø¢": 702,
      "ØºÙĬØ±": 703,
      "ĠØ§ÙĦÙħØ¬": 704,
      "ĠØ§ÙĦÙħØ³Øª": 705,
      "ĠØ¨Ùĩ": 706,
      "ĠÙħØ¨": 707,
      "ØªØ´": 708,
      "ØªÙĬÙĨ": 709,
      "Ø§ÙĨÙĬØ§": 710,
      "Ø®Ø¯": 711,
      "ĠØ§Ø¨": 712,
      "Ø³Ø§": 713,
      "Ø¨ÙĬØ©": 714,
      "Ø¹ÙĬ": 715,
      "ĠÙħØ¯ÙĬÙĨØ©": 716,
      "ØªØ¨Ø±": 717,
      "Â».": 718,
      "Ø§Ø¹Ø©": 719,
      "ĠØ§ÙĦÙħØªØŃØ¯Ø©": 720,
      "ĠÙĪØ§ØŃ": 721,
      "ØªØ±Ø©": 722,
      "ÙĦØ§Ø«": 723,
      "Ø³Ø¨Ø¨": 724,
      "ÙĬØ·": 725,
      "ÙĪÙħØ©": 726,
      "Ø±ÙĥØ²": 727,
      "ĠÙģÙĬÙĩØ§": 728,
      "Ø¸Ø§Ùħ": 729,
      "ĠØ¥ÙĦØ§": 730,
      "ÙĪØ·": 731,
      "Ø±Ùģ": 732,
      "ĠØ§ÙĦØ¨Ø±": 733,
      "ĠØ¬ÙĨ": 734,
      "ÙĪØ³Ø·": 735,
      "Ø¨Ø§Øª": 736,
      "Ġ4": 737,
      "ØµØ¨ØŃ": 738,
      "ĠÙħØ¯": 739,
      "ÙĨØ§Ùĥ": 740,
      "ĠÙĪÙĦØ§": 741,
      "ØªØ¯": 742,
      "ØŃÙĪ": 743,
      "ĠÙĪØ¥": 744,
      "Ø³Ø¨Ø©": 745,
      "ÙĬÙĨÙĬØ©": 746,
      "ĠØ§ÙĦÙħØ¯ÙĬÙĨØ©": 747,
      "ĠÙĪØ³": 748,
      "Ø¨ÙĬØ¯ÙĬØ§": 749,
      "Ø¹Ø§Øª": 750,
      "ÙĬÙĥÙĬØ¨ÙĬØ¯ÙĬØ§": 751,
      "ĠÙĪØ§ÙĦØªÙĬ": 752,
      "ØªØ®": 753,
      "ĠØ³ÙĨ": 754,
      "Ø§Øº": 755,
      "Ø®ØªÙĦÙģ": 756,
      "ĠØ§ÙĦÙħÙĦÙĥ": 757,
      "ĠØ§ÙĦØ§Ø³Øª": 758,
      "Ø³ÙĬØ©": 759,
      "ĠØ¨Ø´ÙĥÙĦ": 760,
      "Ø¹Ø§": 761,
      "ĠØ£Ø®Ø±Ùī": 762,
      "ĠØ¨Ø£": 763,
      "ĠØ¸": 764,
      "Ø¨Ùĩ": 765,
      "ØªÙĤ": 766,
      "ĠØ£ØŃØ¯": 767,
      "Ø§Ø¨Ø©": 768,
      "ĠØ¬ÙħÙĬØ¹": 769,
      "ÙĬÙĦØ©": 770,
      "ØºÙħ": 771,
      "ĠØ§ÙĦØ¥Ø³ÙĦØ§Ùħ": 772,
      "ĠØ§ÙĦØ¬Ø²": 773,
      "ĠÙĨÙģØ³": 774,
      "ĠÙħØŃÙħØ¯": 775,
      "ĠØ§ÙĦØ¶": 776,
      "ĠØ¨Ø£ÙĨ": 777,
      "ĠØ£Ø¯": 778,
      "ĠÙĦÙĥÙĨ": 779,
      "ĠØªØ±": 780,
      "ĠÙĪÙĬÙĥÙĬØ¨ÙĬØ¯ÙĬØ§": 781,
      "Ġ.": 782,
      "ĠÙĪØ±": 783,
      "Ø¦Ø©": 784,
      "Ġ5": 785,
      "ÙģÙĦ": 786,
      "ĠÙģØ¥ÙĨ": 787,
      "ĠØ§ÙĦÙħÙĪ": 788,
      "ĠØ¬Ø²": 789,
      "ÙħØ§ÙĨ": 790,
      "Ġ199": 791,
      "ĠÙħØ´": 792,
      "ØªØ¬": 793,
      "ØºØ±": 794,
      "ĠØ¨ÙĩØ§": 795,
      "ĠÙģØ±": 796,
      "ĠØ§ÙĦÙħØ¯": 797,
      "ĠØ¹ÙħÙĦ": 798,
      "Ø§ÙħÙĦ": 799,
      "ØŃØ§Ø¯": 800,
      "ĠØ§ÙĦØ¯ÙĪÙĦ": 801,
      "Ø¯ÙĬØ¯Ø©": 802,
      "Ø±Ø¨ÙĬ": 803,
      "ÙĬÙĨÙĬ": 804,
      "ÙĪÙģÙĬ": 805,
      "ĠØ§ÙĦØ¹Ø¯ÙĬØ¯": 806,
      "ĠØªÙĦÙĥ": 807,
      "ĠØ§Ø³Ùħ": 808,
      "Ø§ØµØ©": 809,
      "Ø§Ø±ÙĬØ©": 810,
      "Ø§ÙĦØ§Øª": 811,
      "Ø®Ø¯Ø§Ùħ": 812,
      "Ø§Ø±Ø³": 813,
      "ĠØ£Ø´": 814,
      "ĠØ§ÙĦØ¹Ø±Ø¨ÙĬØ©": 815,
      "ÙĤØ¨": 816,
      "ÙĦÙĩ": 817,
      "ĠØ§ÙĦÙħØµ": 818,
      "ĠÙĦÙĬ": 819,
      "ĠÙĬØªÙħ": 820,
      "ĠÙħÙĪ": 821,
      "ĠØ§Øª": 822,
      "ĠÙģÙĤØ¯": 823,
      "ØµÙĪÙĦ": 824,
      "ĠÙħÙĨÙĩØ§": 825,
      "ÙĨÙī": 826,
      "Ø°Ùĩ": 827,
      "ĠØ§ÙĦØ°ÙĬÙĨ": 828,
      "ĠÙħÙĨØ°": 829,
      "ÙĪØ±ÙĪØ¨": 830,
      "Ø±ÙĬØ·": 831,
      "ÙĪØ¬Ø¯": 832,
      "ĠØĮ": 833,
      "Ġ7": 834,
      "Ø¯Ùĩ": 835,
      "ØªÙĪ": 836,
      "ĠØ¹ÙĦÙĬÙĩ": 837,
      "Ø¯ÙĬØ«": 838,
      "ĠÙĤØ§Ùħ": 839,
      "Ø¯ÙĬØ©": 840,
      "ĠØ§ÙĦØ§Øª": 841,
      "ÙĦØ§Øª": 842,
      "ĠÙħØµ": 843,
      "ĠØ¨ÙĪ": 844,
      "ĠÙħØ¤": 845,
      "Ø¬ÙĦÙĬ": 846,
      "ĠØ§ÙĦØ£ÙĨ": 847,
      "Ø¹Øª": 848,
      "ÙħÙĪØ¹Ø©": 849,
      "ÙĬÙĤ": 850,
      "Ø²Ø©": 851,
      "ÙĪØ§ÙĦÙĬ": 852,
      "Ø±Ø§": 853,
      "Ø¶Ø§ÙģØ©": 854,
      "Â»ØĮ": 855,
      "ĠØ³ÙĦ": 856,
      "Ø¨ÙĦØº": 857,
      "ĠØ¹ÙĨØ¯ÙħØ§": 858,
      "ĠØ§Ø¹": 859,
      "ĠØ¨Ø¯Ø£": 860,
      "ĠØ§ÙĦØ£ÙĪÙĦÙī": 861,
      "Ġ6": 862,
      "ĠÙĥÙħ": 863,
      "ĠØ£ÙħØ§": 864,
      "ĠØ§Ø¨ÙĨ": 865,
      "ĠØ±Ø¦ÙĬØ³": 866,
      "Ø§Ø¶ÙĬ": 867,
      "ĠØ§ÙĦØ±Ø¦ÙĬØ³": 868,
      "ĠÙĩÙĨØ§Ùĥ": 869,
      "ĠØ¨Øª": 870,
      "ĠØ³ÙĬ": 871,
      "ĠØ£Ø±": 872,
      "ĠØ§ÙĦÙħØ¤": 873,
      "ÙĬØ§ÙĨ": 874,
      "ĠØ§ÙĦÙħÙħ": 875,
      "ĠØŃØ¯": 876,
      "19": 877,
      "ĠØ§ÙĦÙĪÙĦØ§": 878,
      "ĠÙĬØ³Øª": 879,
      "ÙĪØ§Ø±": 880,
      "Ø¶Ùħ": 881,
      "ĠØ§ÙĦØ¹ÙĦÙħ": 882,
      "ĠØ§ÙĦÙħØ´": 883,
      "ĠØ¥ÙĦÙĬ": 884,
      "Ø¹Ø±Ùģ": 885,
      "ĠÙĬÙĥÙĪÙĨ": 886,
      "ĠØ§ÙĦÙħØ¨": 887,
      "ĠØ§ÙĦØ¹Ø±": 888,
      "ĠÙħØµØ±": 889,
      "ĠÙĦÙĩØ§": 890,
      "ĠØªØ¬": 891,
      "ĠØ§ÙĦØŃØ±Ø¨": 892,
      "Ø¯Ùģ": 893,
      "Ø°ÙĬ": 894,
      "ĠÙħÙħØ§": 895,
      "Ø§ØŃØ©": 896,
      "ÙĩÙħØ§": 897,
      "ĠØ§ÙĦØ«Ø§ÙĨÙĬ": 898,
      "ĠØªØ£": 899,
      "Ø§ÙĬØ±": 900,
      "ÙĥØª": 901,
      "Ø¬ÙĦØ³": 902,
      "ÙĨØª": 903,
      "Ø§ÙĤØ©": 904,
      "Ø§ÙħØ©": 905,
      "Ø§Ø·ÙĤ": 906,
      "ÙĥÙĪÙħØ©": 907,
      "ÙĪØ§Ø¹": 908,
      "ĠÙħÙħ": 909,
      "ĠÙĪØ§ÙĦØ¹": 910,
      "ĠØ£Øº": 911,
      "ĠØ«ÙĦØ§Ø«": 912,
      "Ø§ÙĦÙĬØ§": 913,
      "ÙĤØ¯Ùħ": 914,
      "ĠØ¨Ø·": 915,
      "ÙĦÙĤ": 916,
      "Ø¶Ø¹": 917,
      "ĠØ§ÙĦÙĤØ¯ÙĬ": 918,
      "Ø§Ø¨Ø¹": 919,
      "ĠØ§Ø®": 920,
      "ÙħØ³": 921,
      "Ø§Ø¦Ø±": 922,
      "ĠØ§ÙĦØ¯ÙĪÙĦØ©": 923,
      "ĠØ§ÙĦÙħÙĤ": 924,
      "ĠÙĥØ¨ÙĬØ±": 925,
      "Ø§ÙĦØ«": 926,
      "ĠØ§ÙĦØ£ÙħØ±ÙĬÙĥ": 927,
      "ÙĩÙĦ": 928,
      "Ø³Ø§ÙĨ": 929,
      "ĠÙĪØ§ÙĦØª": 930,
      "ØŃØ¯Ø«": 931,
      "ĠØªØµ": 932,
      "ĠØªÙĥÙĪÙĨ": 933,
      "ĠØ§ÙĦØªÙĤ": 934,
      "ĠØ§ÙĦÙĤØ±": 935,
      "Ø§Ø³Ø©": 936,
      "Ø§ÙĤØªØµ": 937,
      "Ø³Ùĥ": 938,
      "ĠÙĤØ±": 939,
      "ÙĦÙĥØ©": 940,
      "Ġ\"": 941,
      "Ø³ÙĨ": 942,
      "Ø§Ø±Ø¬": 943,
      "ĠØ§ÙĦØ¨ØŃØ±": 944,
      "ĠØ¨Ø§Ø³Ùħ": 945,
      "Ø²ÙĬØ©": 946,
      "ÙģØª": 947,
      "ĠØ§ÙĦÙħØº": 948,
      "Ø§ÙĦØª": 949,
      "ĠÙĦÙĦØ£": 950,
      "ĠÙĬØ¯": 951,
      "ÙĬÙĩ": 952,
      "Ø§Ø°": 953,
      "ĠØ§ÙĦØ¹ÙĦ": 954,
      "000": 955,
      "ÙĦÙĬÙĪÙĨ": 956,
      "ĠØ°Ø§Øª": 957,
      "ĠÙģÙĬÙĩ": 958,
      "ĠØ§ÙĦØ±ÙĬ": 959,
      "ĠØ¨Ø³Ø¨Ø¨": 960,
      "ÙĬÙĪÙĨ": 961,
      "ĠØ£ÙĥØ¨Ø±": 962,
      "Ø²Ø¨": 963,
      "ĠÙħÙĨØ·ÙĤØ©": 964,
      "ĠØ§ØŃ": 965,
      "ÙĪÙĩ": 966,
      "ĠÙħÙĦ": 967,
      "ĠÙĬØŃ": 968,
      "ĠÙĪØ²": 969,
      "ĠØ¨Ø§ÙĦØ¥": 970,
      "Ø§Ø¨Ø§Øª": 971,
      "ĠÙĨØ³": 972,
      "ĠÙĪØ´": 973,
      "ÙħØ¨Ø±Ø§Ø·": 974,
      "Ø§ÙĨÙĪÙĨ": 975,
      "ÙĪØ¯Ø©": 976,
      "ÙĪØ¨ÙĬ": 977,
      "Ø®Ø°": 978,
      "ĠØ¨Ø§ÙĦÙħ": 979,
      "ĠØŃÙĪÙĦ": 980,
      "ÙĥØ±Ø©": 981,
      "ĠØ§ÙĦØŃØ±": 982,
      "Ġ198": 983,
      "Ø§ÙĬ": 984,
      "ĠØ¨Ø¹": 985,
      "ĠÙģÙĦ": 986,
      "ĠØ£ØŃ": 987,
      "ĠØªØ³Øª": 988,
      "Ø¬Ø¯": 989,
      "ĠØ¯ÙĪÙĦ": 990,
      "Ø§ÙģØ¸": 991,
      "ĠØ¹ÙĦÙħ": 992,
      "ĠÙĬÙĪÙħ": 993,
      "ĠØ³Ùħ": 994,
      "ĠØ§ÙĦØ¬Ùħ": 995,
      "ĠÙħÙĪØ³": 996,
      "ĠÙĪÙĥØ§ÙĨØª": 997,
      "ĠØ§ÙĦØ£Ø®Ø±Ùī": 998,
      "ØŃÙĬØ©": 999,
      "ĠØ£Ø«": 1000,
      "Ø¬Ø²": 1001,
      "ÙĩØ©": 1002,
      "Ø§ÙħØ¹Ø©": 1003,
      "ĠØªØ·": 1004,
      "ĠØ§ÙĦØ´Ø±ÙĤ": 1005,
      "ĠÙĤØ§ÙĦ": 1006,
      "Ġ197": 1007,
      "ĠØªØ¯": 1008,
      "ĠØ§ÙĦØ¹ÙħÙĦ": 1009,
      "Ø¬ÙĨ": 1010,
      "ĠØ£ÙĤ": 1011,
      "ĠÙĪØ®": 1012,
      "ĠØ·Ø±ÙĬÙĤ": 1013,
      "ĠÙĦØ£ÙĨ": 1014,
      "ÙĨØ§ÙĨ": 1015,
      "Ġ8": 1016,
      "Ø¸ÙĩØ±": 1017,
      "ĠÙĥØªØ§Ø¨": 1018,
      "ĠØ£ÙĨÙĩØ§": 1019,
      "Ø§ÙĦØ¨": 1020,
      "ĠØŃÙĪØ§ÙĦÙĬ": 1021,
      "ĠÙĪØ°ÙĦÙĥ": 1022,
      "ĠØ§ÙĦÙĪØ·": 1023,
      "ĠØ§ÙĦÙĪÙĦØ§ÙĬØ§Øª": 1024,
      "ĠØªØ§Ø±ÙĬØ®": 1025,
      "Ø§Ø¬Øª": 1026,
      "ĠÙĪØ§Ø³Øª": 1027,
      "ÙĬØ®": 1028,
      "ÙĤÙĬÙĤ": 1029,
      "ÙĦØª": 1030,
      "ÙĪØ¯ÙĬØ©": 1031,
      "ÙģØ±ÙĬÙĤ": 1032,
      "ØµØ¯": 1033,
      "ĠØ§ÙĦÙĦØºØ©": 1034,
      "ĠØ¢Ø®Ø±": 1035,
      "Ø§ØµØ±": 1036,
      "Ġ196": 1037,
      "ĠÙĪÙħØ¹": 1038,
      "ĠØ¹ÙĦÙĬÙĩØ§": 1039,
      "Ø·Ø¨": 1040,
      "ĠØ§ÙĦÙģØ±ÙĨ": 1041,
      "ĠØ§ÙĦØ¥ÙĨØ¬ÙĦÙĬ": 1042,
      "ĠØ§ÙĦØ£Ø±": 1043,
      "ĠÙĬØ´": 1044,
      "ĠØ¯Ø±": 1045,
      "ĠØ§ÙĦØ´ÙħØ§ÙĦ": 1046,
      "ĠØŃÙĬÙĨ": 1047,
      "ĠâĢı": 1048,
      "ĠØ§ÙĦØ³ÙĬØ§Ø³": 1049,
      "ĠØ¹ÙĦ": 1050,
      "ĠØ´Ø®Øµ": 1051,
      "ĠØ³ÙĥØ§ÙĨ": 1052,
      "ĠØ§ÙĦØªØ¹": 1053,
      "ĠØ¹Ø¯Ø©": 1054,
      "Ø¶Ø±": 1055,
      "ÙĩØ§ÙĬØ©": 1056,
      "ÙĦÙĬÙĦ": 1057,
      "ĠØªØ³": 1058,
      "Ø·ÙĦÙĤ": 1059,
      "ĠØ§ÙĦØ£Ùĥ": 1060,
      "ĠØ®Ø·": 1061,
      "Ø§ØªÙĩ": 1062,
      "Ø§Ø¯ÙĬØ©": 1063,
      "ĠØ§ÙĦÙħÙĨØ·ÙĤØ©": 1064,
      "ÙĪØµ": 1065,
      "ĠØ§ÙĦØ¹Ø±Ø§ÙĤ": 1066,
      "Ø³ÙĬÙĨ": 1067,
      "ĠÙĪØ£ÙĨ": 1068,
      "Ø±Ø¨Ø¹": 1069,
      "Ø³ÙħÙī": 1070,
      "ÙĪØ±ÙĪØ¨Ø§": 1071,
      "ĠØ¹Ø¨Ø±": 1072,
      "Ġ10": 1073,
      "ÙĨØ¯Ø§": 1074,
      "ÙĥØ©": 1075,
      "ĠØ§ÙĦØªØ¬": 1076,
      "Ø«Ùħ": 1077,
      "ĠÙĦØ¹": 1078,
      "ĠÙĪØ§ÙĦØ°ÙĬ": 1079,
      "ĠØ§ÙĦØªÙĨ": 1080,
      "ÙĪØ§Ø¡": 1081,
      "Ø§Ø¬ØªÙħØ§": 1082,
      "Ø¨Ø·": 1083,
      "ĠÙĦØ¥": 1084,
      "ĠØ§ÙĦØªØŃ": 1085,
      "Ø¨Øª": 1086,
      "ĠØ§ÙĦØ£Ø®": 1087,
      "ĠØ§ÙĦØ£Ø±Ø¶": 1088,
      "ĠÙĪØ§ÙĦØŃ": 1089,
      "ĠØ§ÙĦØ´Ø±": 1090,
      "ĠØ¹Ùħ": 1091,
      "ĠØ¨Ø¥": 1092,
      "Ġ15": 1093,
      "Ø§Ø¨ÙĦ": 1094,
      "Ø±Ø¬Ø©": 1095,
      "ĠØ£Øµ": 1096,
      "Ø§ÙĨØ¨": 1097,
      "ØªØ§Ø¬": 1098,
      "Ġ9": 1099,
      "Ø§Ø³ÙĬØ©": 1100,
      "ĠÙĨØ¸": 1101,
      "Ø§Ø¦ÙĬÙĦ": 1102,
      "Ø¨Ø¹": 1103,
      "Ø¸ÙħØ©": 1104,
      "ĠØ§ÙĦÙģÙĦ": 1105,
      "Ø·Ø§ÙĨ": 1106,
      "ØµØ©": 1107,
      "ĠØ¨ÙĬ": 1108,
      "ĠØ§ÙĦÙĪÙĤØª": 1109,
      "ÙĩÙĬ": 1110,
      "ĠØ¹ÙħØ±": 1111,
      "ØªØ±Ø§": 1112,
      "ĠØ§ÙĦØ¯ÙĬÙĨ": 1113,
      "ĠØ¶Ø¯": 1114,
      "ÙĦÙħØ©": 1115,
      "ĠÙħØ¬ÙħÙĪØ¹Ø©": 1116,
      "ÙĪÙĬØ±": 1117,
      "ĠÙĬØ¬": 1118,
      "Ø³ÙħÙĬØ©": 1119,
      "ĠØ§ÙĦÙģØ±": 1120,
      "ĠÙģÙĤØ·": 1121,
      "ØªÙĬØ¬Ø©": 1122,
      "ĠØ§ÙĦØ«Ø§ÙĦØ«": 1123,
      "ĠØ§ÙĦØ¬ÙĨÙĪØ¨": 1124,
      "ĠÙĪØ¨Ø¹Ø¯": 1125,
      "ĠÙĦØŃ": 1126,
      "ĠÙħØ®ØªÙĦÙģ": 1127,
      "Ø§Ø±Ø§": 1128,
      "ĠØ§ÙĦÙħØ³ÙĬ": 1129,
      "ĠØ§ÙĦØ§ØªØŃØ§Ø¯": 1130,
      "ÙĬØ§Ø©": 1131,
      "ĠÙħØ¹Ø¸Ùħ": 1132,
      "ĠØ¨ÙĤ": 1133,
      "ĠØ£ÙĩÙħ": 1134,
      "Ġ194": 1135,
      "ĠØ§ÙĦØŃØ¯ÙĬØ«": 1136,
      "ĠÙĪØ§ÙĦÙĨ": 1137,
      "ĠØ§ÙĦÙħÙĬÙĦ": 1138,
      "Ġ12": 1139,
      "ĠÙĦØ¨": 1140,
      "ĠØ¯ÙĪØ±": 1141,
      "ĠØ§ÙĦØ¨ÙĦØ§Ø¯": 1142,
      "ÙģØ§Ø¹": 1143,
      "ĠÙħØ±Ø©": 1144,
      "Ġ195": 1145,
      "ĠÙĬØ±": 1146,
      "Ø§Ø³ÙĬ": 1147,
      "Ø§ÙħØ§": 1148,
      "ĠØ£ÙĪØ±ÙĪØ¨Ø§": 1149,
      "ĠØ£ØµØ¨ØŃ": 1150,
      "Ø¯ÙĬÙħ": 1151,
      "ÙĪÙĬÙĦ": 1152,
      "Ø´Ø±ÙĬÙĨ": 1153,
      "ĠØ§ÙĦÙĬÙĪÙħ": 1154,
      "ØªÙĨ": 1155,
      "Ġ17": 1156,
      "ÙĬÙħØ©": 1157,
      "Ø²ÙĦ": 1158,
      "ĠØ§ÙĦÙħÙĦ": 1159,
      "Ø±ÙĬØ¯": 1160,
      "Ø§Ø®ÙĦ": 1161,
      "ĠÙĨÙĪØ¹": 1162,
      "ĠÙĪØ§ÙĨ": 1163,
      "ĠØ§ÙĦØ«Ø§ÙĨÙĬØ©": 1164,
      "Ġ16": 1165,
      "ĠØ§ÙĦÙħÙĪØ³": 1166,
      "ĠÙĦÙĨ": 1167,
      "ÙĪØ§Ø¬": 1168,
      "Ø¯Ø§ÙĬØ©": 1169,
      "ÙģØ§": 1170,
      "Ø¬Ùĩ": 1171,
      "Ø¨ÙĬØ±": 1172,
      "ĠØ§ÙĦØ³ÙĥØ§ÙĨ": 1173,
      "ĠÙĪØ¬ÙĪØ¯": 1174,
      "ĠØ§ÙĦØ±ÙĪÙħ": 1175,
      "Ø³ØªØ§ÙĨ": 1176,
      "Ø³Ø±Ø§Ø¦ÙĬÙĦ": 1177,
      "ÙĥÙĪ": 1178,
      "Ø¹Ø±Ø¶": 1179,
      "ĠØªØ¹Ø¯": 1180,
      "ĠØ§Ø±": 1181,
      "ĠÙĨØ§Ø¯ÙĬ": 1182,
      "ÙģØ¶ÙĦ": 1183,
      "ĠØ£Ø¨ÙĬ": 1184,
      "ÙĨØ§Ø¹": 1185,
      "ĠØ³Øª": 1186,
      "ÙĩÙĪØ±ÙĬØ©": 1187,
      "ĠÙĬÙĪÙĨ": 1188,
      "ØºÙĦ": 1189,
      "Ø´Ø§Ø¡": 1190,
      "Ø±Ø§Ø¡": 1191,
      "Ø§Ø¦Ø¯": 1192,
      "ĠØ¯ÙĪÙĨ": 1193,
      "ÙĬØ³Ø©": 1194,
      "ĠÙĦÙĦØŃ": 1195,
      "ÙĬÙħÙĬ": 1196,
      "ÙĩÙĪØ±": 1197,
      "ĠØ§ÙĦÙħØ³ÙĦÙħ": 1198,
      "ĠÙĪØ¯": 1199,
      "Ø³ÙĥØ±": 1200,
      "ĠØ¨ÙĬÙĨÙħØ§": 1201,
      "Ø´ÙĬ": 1202,
      "Ø³ØªØ±": 1203,
      "ĠÙĪÙĦÙħ": 1204,
      "ĠØ§Ø³ØªØ®Ø¯Ø§Ùħ": 1205,
      "ĠØ´ÙħØ§ÙĦ": 1206,
      "ĠÙĪÙĬØª": 1207,
      "ØµØ¨ØŃØª": 1208,
      "ĠÙģÙĬÙħØ§": 1209,
      "Ø§Ø±Ø¯": 1210,
      "ĠØ£Ø¨ÙĪ": 1211,
      "Ø§ÙģÙĬØ©": 1212,
      "ÙĬØ±Ø§ÙĨ": 1213,
      "ĠØ£ÙĦ": 1214,
      "ĠÙĨØŃÙĪ": 1215,
      "ØŃÙĦØ©": 1216,
      "ĠØ¥Ø°": 1217,
      "ĠØªØ²": 1218,
      "ĠØ§ÙĦØ£ÙĪØ±": 1219,
      "Ø§ØµÙħØ©": 1220,
      "ĠÙħÙĦÙĬÙĪÙĨ": 1221,
      "ĠØ§ÙĦØ±ØºÙħ": 1222,
      "Ø¶Ø©": 1223,
      "ĠÙĨÙĤ": 1224,
      "ĠÙĥØ¨ÙĬØ±Ø©": 1225,
      "ÙħÙĬ": 1226,
      "ÙĪÙĤØ¹": 1227,
      "ÙĬÙĨØ©": 1228,
      "ÙĪÙĨÙĬ": 1229,
      "ĠØ§ÙĦØ¯Ùħ": 1230,
      "ĠØ¨Ø§ÙĦØ¥Ø¶Ø§ÙģØ©": 1231,
      "ĠØªØ¨": 1232,
      "ĠÙĪØ§ÙĦØ¥": 1233,
      "Ø§ÙĦØŃ": 1234,
      "ĠØ§ÙĦÙĥÙĨ": 1235,
      "ĠØŃÙĤ": 1236,
      "ĠØ§ÙĦØ¥ÙħØ¨Ø±Ø§Ø·": 1237,
      "ÙĪÙĬØª": 1238,
      "ĠØ£Ø®": 1239,
      "ĠÙĦØ¯": 1240,
      "ĠØ§ÙĦÙĤØ¯Ùħ": 1241,
      "ĠØ¬ÙĨÙĪØ¨": 1242,
      "ÙħØª": 1243,
      "Ø§ÙĨØ§Øª": 1244,
      "Ø§Ø¹Ø¯": 1245,
      "Ø§ÙħØ¬": 1246,
      "ĠØ¨ÙħØ§": 1247,
      "ĠØ§ÙĦØ¨Ø±ÙĬØ·": 1248,
      "ØºØ·": 1249,
      "ĠØ§ÙĦØ£Ø¯": 1250,
      "Ġ13": 1251,
      "ÙģØ§ÙĤ": 1252,
      "ĠØ§ÙĦØ·Ø¨ÙĬ": 1253,
      "ÙĦØ§Ùģ": 1254,
      "ĠØ§ÙĦØ£ÙħØ±": 1255,
      "ÙĬÙĨØ§": 1256,
      "ÙĪØ§ÙĦ": 1257,
      "Ø¸Ø±": 1258,
      "Ø·Ùģ": 1259,
      "ĠÙģØªØ±Ø©": 1260,
      "ĠØ§Ùħ": 1261,
      "Ø·Ø§Ø±": 1262,
      "Ø´Ø£": 1263,
      "ĠÙĨØ³Ø¨Ø©": 1264,
      "Ø¶Ø§Ø¡": 1265,
      "ÙģØ¹": 1266,
      "ĠÙĪØºÙĬØ±": 1267,
      "ĠØ§ÙĦÙĩÙĨØ¯": 1268,
      "ĠØ´ÙĥÙĦ": 1269,
      "ĠÙģØ±ÙĨ": 1270,
      "ØµÙĪØ±": 1271,
      "Ø±ÙĬØ¨Ø§": 1272,
      "ĠØ§ÙĦØ£Ø¹": 1273,
      "ĠÙģØ£": 1274,
      "ĠØ§ÙĦØªØ§Ø±ÙĬØ®": 1275,
      "ĠÙģÙĤ": 1276,
      "Ø·Ø§Ø¹": 1277,
      "ÙĩÙĪ": 1278,
      "20": 1279,
      "ĠØªØ±Ùĥ": 1280,
      "ÙĦÙĬØ§Øª": 1281,
      "ĠÙĤØ¯Ùħ": 1282,
      "Ø§Ø¨ÙĤ": 1283,
      "ØªÙĤØ¯": 1284,
      "ĠØ§ÙĦØŃÙĥÙĪÙħØ©": 1285,
      "ÙĬØ±Ø§": 1286,
      "ĠÙĪØ§ØŃØ¯": 1287,
      "ĠØ§ÙĦÙģØªØ±Ø©": 1288,
      "Ø¨Ø§ÙĦ": 1289,
      "ĠÙĨØ¸Ø§Ùħ": 1290,
      "ĠØŃÙĥÙħ": 1291,
      "Ø§Ø±Ø§Ø©": 1292,
      "ĠØ¥Ø°Ø§": 1293,
      "Ø§ÙħÙĬØ©": 1294,
      "Ø§Ø¨Ø¹Ø©": 1295,
      "ĠØ¥Ø¯": 1296,
      "Ø§Ø³Ø¹": 1297,
      "Ġ14": 1298,
      "ĠÙħÙĨÙĩ": 1299,
      "Ø§ÙĨØ§": 1300,
      "ĠØ§ÙĦØ¥ÙĨØ¬ÙĦÙĬØ²ÙĬØ©": 1301,
      "ĠØ§ÙĦØ®Ø§Ùħ": 1302,
      "ĠÙĪÙĬØ¹": 1303,
      "ÙĪØ«": 1304,
      "Ø§Ø¹Ø¨": 1305,
      "ÙĪØ±ÙĬØ§": 1306,
      "ĠÙĨØ¬": 1307,
      "ØºÙĬ": 1308,
      "ÙĬØ§Ø¯Ø©": 1309,
      "ĠÙĨÙĩØ§ÙĬØ©": 1310,
      "ĠØªÙĤØ¹": 1311,
      "ĠÙĪØ§ØŃØ¯Ø©": 1312,
      "Ø°ÙĥØ±": 1313,
      "ĠØ¨Ø§Ø³Øª": 1314,
      "ĠØ§ÙĦØ³ÙĨ": 1315,
      "Ø²Ùħ": 1316,
      "ĠØ§ÙĦØ¬ÙĬØ´": 1317,
      "Ø±Ø§Øª": 1318,
      "âĢĵ": 1319,
      "ØªÙĤÙĦ": 1320,
      "ĠØ§ÙĦØ£ØŃ": 1321,
      "ĠØ¨Ø§Ø±": 1322,
      "ÙĪÙħØ§": 1323,
      "ĠÙĪØµ": 1324,
      "ÙĬÙĨØ§Øª": 1325,
      "ĠØ§ÙĦÙĤØ¯ÙĬÙħØ©": 1326,
      "ĠØ¶ÙħÙĨ": 1327,
      "ĠØ¨Ø§ÙĦÙĨ": 1328,
      "ĠØ¹Ø¨": 1329,
      "ĠÙĦÙĬØ³": 1330,
      "ØªØ¨Ø©": 1331,
      "Ø«Ø§ÙĦ": 1332,
      "Ø§ÙĪÙĦ": 1333,
      "ØºØ§Øª": 1334,
      "ĠØ§ÙĦØ¹Ùħ": 1335,
      "ĠÙħØ±ÙĥØ²": 1336,
      "ĠÙĪØ§ÙĦØ¨": 1337,
      "ØªØ®Ø¨": 1338,
      "Ø¹Ø§Ø¯Ø©": 1339,
      "Ø§ÙĤØ¹": 1340,
      "Ø¯Ø§Ø¯": 1341,
      "ĠÙħØ¬ÙĦØ³": 1342,
      "ĠØ¯Ø±Ø¬Ø©": 1343,
      "Ø®Ø·": 1344,
      "ÙĬØ¬": 1345,
      "ĠØŃØ±": 1346,
      "ĠØ£Ø«ÙĨØ§Ø¡": 1347,
      "ĠØ£ÙĦÙģ": 1348,
      "Ø§ØŃÙĦ": 1349,
      "Ø±ÙĬÙĦ": 1350,
      "ĠÙĦØ§ØŃ": 1351,
      "Ø§Ø¹Ø¯Ø©": 1352,
      "Ø¯Ø±Ø³Ø©": 1353,
      "ĠÙĦÙĦØ¹": 1354,
      "ĠØ§ÙĦÙħÙĩ": 1355,
      "ÙĤÙĬÙĤØ©": 1356,
      "Ø±ÙĬÙģ": 1357,
      "ÙĦÙĬØ§": 1358,
      "ÙĥÙĬ": 1359,
      "ĠÙĬØ³": 1360,
      "ĠØ¨ÙĦØº": 1361,
      "ĠÙĪØªÙħ": 1362,
      "Ø±ÙĬÙĤØ©": 1363,
      "ĠØ§ÙĦØ¹Ø§ÙĦÙħÙĬØ©": 1364,
      "ĠØ§ÙĦØ¨ÙĬ": 1365,
      "ĠÙħÙĬÙĦ": 1366,
      "ØŃØ¯Ùī": 1367,
      "ĠØ§ÙĦØ§ÙĤØªØµ": 1368,
      "Ø¨Ø¯Ø£": 1369,
      "ÙĦØ§ÙĬØ§": 1370,
      "ĠÙĪØ¹ÙĦÙī": 1371,
      "Ø®Ø±Ø¬": 1372,
      "ĠØªÙĤØ±ÙĬØ¨Ø§": 1373,
      "ÙĪØ´": 1374,
      "ĠÙĬÙĪÙĦ": 1375,
      "ĠÙĦØ¯ÙĬ": 1376,
      "ĠÙĪØ§ÙĦÙģ": 1377,
      "Ø§ØŃÙĬØ©": 1378,
      "ĠØ§ÙĦØ£ÙĦÙħ": 1379,
      "ĠÙĥØ£Ø³": 1380,
      "ĠØ§ÙĦØ¹ÙĨ": 1381,
      "ĠØ¹ÙĩØ¯": 1382,
      "ĠØ¨Ùĥ": 1383,
      "ÙĪØ¨Ø©": 1384,
      "ĠØ§ÙĦØ£ÙħØ±ÙĬÙĥÙĬØ©": 1385,
      "Ġ193": 1386,
      "ÙĬØ§Ùĩ": 1387,
      "ĠØ§ÙĦØ¯Ø±": 1388,
      "ĠÙĪØªØ¹": 1389,
      "ĠØ§ÙĦØ¨Ø·": 1390,
      "ĠØ§ÙĦØ³Ø¹": 1391,
      "ĠØ§Ùĥ": 1392,
      "Ø§Ø¨Ø§": 1393,
      "ĠÙĪØ§ÙĦØ¯": 1394,
      "er": 1395,
      "ĠØ¯ÙĪÙĦØ©": 1396,
      "ĠØ£ÙĦÙħ": 1397,
      "ØªØ²": 1398,
      "ĠØ¯ÙĬ": 1399,
      "Ø§ÙĨØ¯": 1400,
      "ĠØ³ÙĨÙĪØ§Øª": 1401,
      "18": 1402,
      "ØªØ¹": 1403,
      "Ø§ÙģØ¸Ø©": 1404,
      "ÙħÙĦØ©": 1405,
      "Ø³ÙĪÙĨ": 1406,
      "Ø±Ø§Ø¹": 1407,
      "ÙĨØ·": 1408,
      "ĠØ±Ø³": 1409,
      "ĠØ¬Ø²Ø¡": 1410,
      "ĠÙĥØ«ÙĬØ±": 1411,
      "Ø§Ø¯Ø§Øª": 1412,
      "ĠÙĦÙĦØ¥": 1413,
      "ĠØ§ÙĦØ£Øµ": 1414,
      "Ø§Ø¦ÙĦØ©": 1415,
      "ĠÙĪÙĬÙħ": 1416,
      "Ø§ÙģÙĤ": 1417,
      "ĠÙĬØ²": 1418,
      "ØªÙĪØ¨Ø±": 1419,
      "ĠÙĥØªØ¨": 1420,
      "ĠÙĬØ¤": 1421,
      "ĠÙĤØ¨": 1422,
      "ĠØ¯Ø§Ø®ÙĦ": 1423,
      "ĠÙĪØ§ÙĦÙĤ": 1424,
      "ĠØ§ÙĦØŃÙĥÙħ": 1425,
      "ĠØ´Ø±ÙĥØ©": 1426,
      "Ø·ØŃ": 1427,
      "ĠØ£ÙĨÙĪØ§Ø¹": 1428,
      "ĠØ§ÙĦØ¹Ø«Ùħ": 1429,
      "Ø¹Ùī": 1430,
      "Ø§Ø±Ø¨": 1431,
      "ĠÙĪØ§ÙĦØ´": 1432,
      "Ø¨ÙĤ": 1433,
      "ØªÙħØ¯": 1434,
      "ØªØ§": 1435,
      "ØªÙħØ¹": 1436,
      "ĠÙħÙĥ": 1437,
      "ĠØ¹ÙħÙĦÙĬØ©": 1438,
      "ÙģØ±ÙĬÙĤÙĬØ§": 1439,
      "Ø¸ÙĬÙħ": 1440,
      "ĠØ£ÙħØ±ÙĬÙĥ": 1441,
      "ÙħÙĬÙĨ": 1442,
      "ĠØ´Ø±": 1443,
      "ÙħØ§Ùħ": 1444,
      "ĠØ§ÙĦØ®Ø·": 1445,
      "ÙħÙĬØ©": 1446,
      "ĠØ§ÙĦÙĨØ§Ø³": 1447,
      "ĠØªÙĥ": 1448,
      "ĠØ§ÙĦØ£Ø´": 1449,
      "ĠÙĬÙĪØ¬Ø¯": 1450,
      "Ø²Ø§": 1451,
      "ĠØ¨ÙĬØ±": 1452,
      "ÙĩÙĪØ¯": 1453,
      "ĠÙĪÙĦØ¯": 1454,
      "ĠØ§ÙĦØŃÙĬÙĪ": 1455,
      "ĠØ¨Ø´": 1456,
      "ÙĪÙĦÙĬ": 1457,
      "ĠÙħÙĦÙĥ": 1458,
      "ÙĨÙĬÙĨ": 1459,
      "ÙĪÙĦÙĪØ¬": 1460,
      "ØŃÙĬØ·": 1461,
      "ĠÙĨØ³ÙħØ©": 1462,
      "ĠØ¹Ø¶": 1463,
      "ÙĬØªÙĩ": 1464,
      "Ø±ÙĥØ§Øª": 1465,
      "ĠÙĦÙĦÙĨ": 1466,
      "ĠØ§ÙĦÙĪØ³Ø·": 1467,
      "ÙĪØ¯ÙĬ": 1468,
      "ĠØ¹Ø§ÙħØ§": 1469,
      "ĠØ£Ø´ÙĩØ±": 1470,
      "Ø³ÙĥØ±ÙĬØ©": 1471,
      "ØªÙĩÙħ": 1472,
      "ĠØ§ÙĦÙħÙĨØ§Ø·ÙĤ": 1473,
      "ĠØ§ÙĦÙĥØ«ÙĬØ±": 1474,
      "ÙĪÙĨØ§Øª": 1475,
      "ĠØ§ÙĦØ¹Ø±Ø¨ÙĬ": 1476,
      "ĠØ§ÙĦØ³ÙĨØ©": 1477,
      "ĠØ£ÙĥØªÙĪØ¨Ø±": 1478,
      "ĠØ®Ø§ØµØ©": 1479,
      "ØªÙģØ§Ø¹": 1480,
      "ĠØ¬Ø±": 1481,
      "ÙĪØ°": 1482,
      "ĠÙĪØ§ÙĦØ±": 1483,
      "ĠØ§ÙĦØºØ±Ø¨ÙĬØ©": 1484,
      "ĠØ§ÙĦØªØ´": 1485,
      "ĠØ§ÙĦÙĬÙĪÙĨ": 1486,
      "ĠØ§ÙĦØŃØ¯": 1487,
      "ĠØ§ÙĦØ§ØŃ": 1488,
      "ĠØ§ÙĦÙĥØªØ§Ø¨": 1489,
      "ĠØ³Ø±": 1490,
      "ĠØ¥ØŃØ¯Ùī": 1491,
      "ĠØ§ÙĦØ¥Ø³ÙĦØ§ÙħÙĬØ©": 1492,
      "ĠØ¸ÙĩØ±": 1493,
      "ØºÙĬØ±Ø©": 1494,
      "ĠØ§ÙĦØªØ±": 1495,
      "ĠØ§ÙĦØ¸": 1496,
      "ĠØ°ÙĥØ±": 1497,
      "Ø¬ÙħØ¹": 1498,
      "ĠÙĪØ·": 1499,
      "ĠØ§ÙĦØ£ÙħÙĬØ±": 1500,
      "ĠØªØ£Ø³": 1501,
      "Ø±ÙĬÙħ": 1502,
      "ÙģÙĨ": 1503,
      "Ø±Ø¨Ø¹Ø©": 1504,
      "ÙĪÙĨÙĬØ©": 1505,
      "ĠØ¯ÙĬØ³": 1506,
      "ĠØ£ØµØ¨ØŃØª": 1507,
      "Ø¹Ø±ÙĪÙģ": 1508,
      "ĠÙĬÙĨØ§ÙĬØ±": 1509,
      "ĠØ¥Ø³": 1510,
      "ÙĤÙĬØ©": 1511,
      "ĠÙĥØ±": 1512,
      "ĠÙĪÙĦÙĬ": 1513,
      "ĠØ§ÙĦÙħØ±ÙĥØ²": 1514,
      "Ø§Ø¸": 1515,
      "ĠÙĦÙĤ": 1516,
      "ĠØªÙģ": 1517,
      "Ø³ÙĦØ©": 1518,
      "ĠÙĨÙģØ³Ùĩ": 1519,
      "ĠÙĪÙĤØª": 1520,
      "Ø¨ÙĪ": 1521,
      "Ġ11": 1522,
      "ÙĦÙĪÙĦ": 1523,
      "ĠØ¥Ø³Ø±Ø§Ø¦ÙĬÙĦ": 1524,
      "ĠâĢ¢": 1525,
      "ĠÙĪÙĥØ°ÙĦÙĥ": 1526,
      "Ø²ÙĬØ²": 1527,
      "ĠØ«ÙĦØ§Ø«Ø©": 1528,
      "ĠØ§ÙĦØ¹Ø±Ø¨": 1529,
      "Ø³Ø§Ø¡": 1530,
      "Ø§ÙħÙĬ": 1531,
      "ĠØ§ÙĦÙħÙħÙĦÙĥØ©": 1532,
      "ĠØ¨ÙĨØ§Ø¡": 1533,
      "ĠÙĦÙĪ": 1534,
      "ĠÙĦÙģ": 1535,
      "ĠØŃØ³Ø¨": 1536,
      "ĠÙĬÙĪÙĦÙĬÙĪ": 1537,
      "ĠØ´ÙĩØ±": 1538,
      "ÙĤÙĦÙĬÙħ": 1539,
      "ĠÙĪØ§ÙĦØ³": 1540,
      "ĠØ§ÙĦØ«ÙĦØ§Ø«": 1541,
      "ĠØ¨Ø§ÙĦØ£": 1542,
      "ĠØ¬Ø§ÙħØ¹Ø©": 1543,
      "ĠØ§ÙĦØªØµ": 1544,
      "ĠØ§ÙĦØ¹ØµØ±": 1545,
      "Ø§ÙĩØ±Ø©": 1546,
      "Ø·ÙĦØŃ": 1547,
      "ĠØ£ÙħØ±": 1548,
      "ĠØ§ÙĦØ§Ø¬ØªÙħØ§": 1549,
      "ĠÙģØ±ÙĨØ³Ø§": 1550,
      "ĠØ§ÙĦÙħØ³ÙĦÙħÙĬÙĨ": 1551,
      "Ø§ÙĦÙģ": 1552,
      "ØªØ¨Ø¹": 1553,
      "Ø¨Ø§Ø±": 1554,
      "Ø§Ø¦ÙħØ©": 1555,
      "ÙĬÙģØ©": 1556,
      "ĠØ£Ùģ": 1557,
      "ĠØ¨Ø¬": 1558,
      "ĠØ·ÙĪÙĦ": 1559,
      "ĠØ£ÙĩÙĦ": 1560,
      "ÙĨØ¹": 1561,
      "ĠØ´Ø±ÙĤ": 1562,
      "ĠØªÙĪ": 1563,
      "ĠØ§ÙĦØ´ÙĬØ®": 1564,
      "ĠØ§ÙĦÙħØ²": 1565,
      "ÙħØ¹": 1566,
      "an": 1567,
      "ĠÙĬØ¹ØªØ¨Ø±": 1568,
      "ØµØ±ÙĬØ©": 1569,
      "ÙĬÙĥÙĬØ©": 1570,
      "Ø§Ø¦Ø±Ø©": 1571,
      "ĠØ§ÙĦØ¢ÙĨ": 1572,
      "Ø§Ø¯ÙĦ": 1573,
      "ĠØ§ÙĦÙĨÙĩ": 1574,
      "ĠØ¯ÙĬØ³ÙħØ¨Ø±": 1575,
      "Ø§ÙģÙĬ": 1576,
      "Ø¹Ø§Ø¨": 1577,
      "Ø®Ø©": 1578,
      "Ø§Ø³Ø·Ø©": 1579,
      "ĠØ§ÙĦÙħÙĪØ¬": 1580,
      "ĠØ§ÙĦÙħÙĬÙĦØ§Ø¯": 1581,
      "Ø±Ø¨Ø©": 1582,
      "ĠÙĨØ´Ø±": 1583,
      "ĠØ§ÙĦØ¹Ø§ÙħØ©": 1584,
      "ÙĤØ±Ø§Ø·": 1585,
      "ĠÙĥÙĪÙĨ": 1586,
      "ĠØ§ÙĦØ³ÙĬ": 1587,
      "ĠØªØ³ØªØ®Ø¯Ùħ": 1588,
      "ĠØ§ÙĦØ«ÙĤ": 1589,
      "ÙĪØ¡": 1590,
      "Ø¹Ø¶Ø§Ø¡": 1591,
      "ÙĨØ¯ÙĬØ©": 1592,
      "ĠØ§ÙĦØ¹Ø¨": 1593,
      "ĠÙĪØµÙĦ": 1594,
      "ĠØ¨Ø¯Ø§ÙĬØ©": 1595,
      "ĠÙĬÙĪÙĨÙĬÙĪ": 1596,
      "ĠÙĪØªØŃ": 1597,
      "ĠÙĦØ°ÙĦÙĥ": 1598,
      "ĠØ³Ø¹": 1599,
      "ĠÙĤØµ": 1600,
      "ĠÙĪØ¶Ø¹": 1601,
      "Ø³ÙĬØ§": 1602,
      "Ġ192": 1603,
      "ÙĪÙħÙĬØ©": 1604,
      "ÙĬØ¯Ø±": 1605,
      "ĠØ§ÙĦÙĪØ²": 1606,
      "ÙĬØº": 1607,
      "ĠØ§ÙĦØ®ÙĦÙĬ": 1608,
      "ĠÙģØ¹": 1609,
      "ĠÙĪÙħØ§": 1610,
      "ÙĪØ±Øª": 1611,
      "ĠØ£Ø¹ÙħØ§ÙĦ": 1612,
      "Ø§Ø¯Ø±": 1613,
      "ÙĩØ±Ø¨": 1614,
      "ĠØ¨Ø¯Ø£Øª": 1615,
      "ĠØ§ÙĦÙĨØ¸Ø§Ùħ": 1616,
      "Ø³Ø³": 1617,
      "ØªØ¨Ø§Ø±": 1618,
      "ĠÙĪÙĦØ§ÙĬØ©": 1619,
      "Ø´Ùģ": 1620,
      "Ø±ÙĪÙģ": 1621,
      "ÙĥØ§Ø±": 1622,
      "Ġ/": 1623,
      "in": 1624,
      "ÙĥØ§": 1625,
      "ĠÙħØ®ØªÙĦÙģØ©": 1626,
      "ĠØ¹Ø§Ø¯Ø©": 1627,
      "ĠØ§ÙĦØ´Ø¹Ø¨": 1628,
      "Ø¯Ø§ÙĨ": 1629,
      "ĠÙĦØ¬": 1630,
      "Ø³ÙĬÙħ": 1631,
      "Ø±ÙĬØª": 1632,
      "ĠØ§ÙĦØ´Ø±ÙĤÙĬØ©": 1633,
      "ĠØ£ØŃÙħØ¯": 1634,
      "ĠØ§Ø´": 1635,
      "ĠØŃÙħ": 1636,
      "ĠÙĨÙĩØ±": 1637,
      "Ø§ÙĦØ¨Ø§": 1638,
      "ÙĤØ¨ÙĦ": 1639,
      "ĠØ£Ø¹ÙĦ": 1640,
      "ĠØ¨Ø§ÙĦÙĤ": 1641,
      "Ø³Ø§Ø¨": 1642,
      "ĠØ¨ÙĪØ§Ø³Ø·Ø©": 1643,
      "ĠØ§ÙĦØ£Ø±Ø¯": 1644,
      "Ø±ÙĬØ¨": 1645,
      "ĠØŃØ§ÙĦØ©": 1646,
      "ĠØ§ÙĦÙĤÙĪØ§Øª": 1647,
      "ĠØ¨Øº": 1648,
      "ÙĩØ¨": 1649,
      "ĠØ³ÙĬØ§Ø³": 1650,
      "ĠÙħØ³ØªÙĪÙī": 1651,
      "Ø³Ø§Ùħ": 1652,
      "ÙĪØ§ØŃ": 1653,
      "Ø¬Ø±Ø©": 1654,
      "ĠØªÙĦ": 1655,
      "ĠÙħÙĥØ§ÙĨ": 1656,
      "ÙĬØ±Ø§Øª": 1657,
      "ÙĨØ¯ÙĬ": 1658,
      "ĠØ¹Ø±Ùģ": 1659,
      "ÙĬØ§Ùħ": 1660,
      "ĠÙĪØ¥ÙĨ": 1661,
      "ĠØ£Ø¬ÙĦ": 1662,
      "ĠØ§ÙĦØ¥ÙĨØ³Ø§ÙĨ": 1663,
      "ĠØ§ÙĦØ±ÙĬØ§Ø¶": 1664,
      "ĠØ¬Ø¯Ø§": 1665,
      "ĠØ§ÙĦØ³ÙĪÙģÙĬ": 1666,
      "ĠØ§ÙĦØ´ÙħØ§ÙĦÙĬØ©": 1667,
      "Ø§Ø·Ø¹Ø©": 1668,
      "ÙĩÙħØ©": 1669,
      "ĠÙĪØ§ÙĦÙĥ": 1670,
      "ĠØŃØµÙĦ": 1671,
      "Ø·Ø¹": 1672,
      "ĠØªÙĪÙģÙĬ": 1673,
      "ĠØ§ÙĦÙĪØ·ÙĨÙĬ": 1674,
      "ĠÙħÙĨÙĩÙħ": 1675,
      "ÙĪØ¬Ùĩ": 1676,
      "ĠØ£ÙĤÙĦ": 1677,
      "ĠÙĪÙĬÙĨ": 1678,
      "Ø§ÙĤØ§Øª": 1679,
      "ĠØ£ÙĦÙħØ§ÙĨÙĬØ§": 1680,
      "ĠØªØ¹ØªØ¨Ø±": 1681,
      "ĠØ§ÙĦØ´Ø®Øµ": 1682,
      "Ø´Ø±Ø©": 1683,
      "Ø¦Ø§Øª": 1684,
      "ĠØ§ÙĦØªØ±Ùĥ": 1685,
      "ĠØ§ÙĦØ®Ø§Ø±Ø¬": 1686,
      "ĠØ§ÙĦÙĨØ¨Ø§Øª": 1687,
      "Ø§Ø±Øª": 1688,
      "ĠØ§ÙĦÙħØ®": 1689,
      "ĠØ§ÙĦØ±ØŃ": 1690,
      "ĠØ¹Ø§ÙĦÙħ": 1691,
      "Ø§Ø¦Ùħ": 1692,
      "ĠØ£Ø¯Ùī": 1693,
      "ÙĤÙĩ": 1694,
      "ĠØ§ÙĦØ®Ø§ØµØ©": 1695,
      "ĠÙĬÙĥÙĨ": 1696,
      "ĠØ§ÙĦØ¥ÙħØ¨Ø±Ø§Ø·ÙĪØ±ÙĬØ©": 1697,
      "ĠÙĬØ¹Ø±Ùģ": 1698,
      "ĠÙĦÙĦØª": 1699,
      "ĠØ¥ÙĦÙĬÙĩ": 1700,
      "ĠÙĬØ¹Ø¯": 1701,
      "ĠØ§ÙĦÙģØ±ÙĬÙĤ": 1702,
      "Ø¹Ø¯Ø§Ø¯": 1703,
      "ĠØ§ÙĦØŃÙĬØ§Ø©": 1704,
      "Ø§ÙĥÙħ": 1705,
      "ĠØ£Ø¨Ø±ÙĬÙĦ": 1706,
      "ĠÙħÙĪØ³Ùħ": 1707,
      "ĠØ£ÙħØ§Ùħ": 1708,
      "Ø³Ø·ÙĬÙĨ": 1709,
      "ĠÙĨÙĪÙģ": 1710,
      "ĠØ§ÙĦÙĨÙĪ": 1711,
      "ÙģØ§Øª": 1712,
      "ĠÙħØ§Ø±Ø³": 1713,
      "Ø¶ÙħÙĨ": 1714,
      "Ø¬ÙĬ": 1715,
      "ĠØ¨Øµ": 1716,
      "ĠÙĪØ§ÙĦØ«": 1717,
      "ĠÙħØªØ±": 1718,
      "ĠÙĦÙĦÙĥ": 1719,
      "ĠØ§ÙĤ": 1720,
      "Ø·ÙĦØ§ÙĤ": 1721,
      "ÙĦÙĥØªØ±": 1722,
      "ĠØ¯Ùħ": 1723,
      "Ø§ÙĦÙĥ": 1724,
      "ĠÙĦÙĥÙĦ": 1725,
      "ĠÙĪØ§ÙĦØµ": 1726,
      "ÙĪØ³ÙĬØ§": 1727,
      "ĠØŃØ±Ø¨": 1728,
      "ĠÙĥÙĬÙĦ": 1729,
      "ÙĤÙĦØ§ÙĦ": 1730,
      "ĠÙĥÙĨ": 1731,
      "ĠØ¥Ùħ": 1732,
      "ĠÙĥØ°ÙĦÙĥ": 1733,
      "ĠÙħØ«": 1734,
      "ÙĪØ±Ø¯": 1735,
      "ĠØ¹Ø¯": 1736,
      "ĠØ§ÙĦØ¬Ø²ÙĬØ±Ø©": 1737,
      "ĠÙħÙĪØ¬": 1738,
      "ÙĤÙħ": 1739,
      "ĠØ§ÙĦØ®ÙĦ": 1740,
      "ØŃØ§Ø¨": 1741,
      "Ø«Ø§Ø±": 1742,
      "ĠØ¹Ø±Ø¶": 1743,
      "ĠØ¬Ø§ÙĨØ¨": 1744,
      "ÙģÙĬØ©": 1745,
      "ÙĨØ§Øª": 1746,
      "Ø§ÙĦØ¯": 1747,
      "ĠÙĥØ«": 1748,
      "ÙģÙĩ": 1749,
      "ĠØ§ÙĦØ£ÙĪØ±ÙĪØ¨ÙĬ": 1750,
      "ÙħØ§Ø¹": 1751,
      "ĠØ³Ø·ØŃ": 1752,
      "on": 1753,
      "ĠØ¨ÙĦØ§Ø¯": 1754,
      "ĠØªØªÙħ": 1755,
      "Ø§Ø¦Ùĩ": 1756,
      "ĠÙĩØ¯Ùģ": 1757,
      "Ø¨Ø±Ùī": 1758,
      "ĠÙĪØ§ÙĦØ¬": 1759,
      "ĠÙĦÙĥØ±Ø©": 1760,
      "ĠÙħØ¹Ø¯": 1761,
      "ĠØ§ÙĦØ£ÙĦ": 1762,
      "Ġ2019": 1763,
      "ÙĬØ±ÙĬ": 1764,
      "ĠØ§ÙĦØ£Øº": 1765,
      "ĠÙģØª": 1766,
      "ĠØ¬Ø¯ÙĬØ¯Ø©": 1767,
      "ØªÙħØ¨Ø±": 1768,
      "ĠØ§ÙĦØ«Ø§Ùħ": 1769,
      "ĠØ¹ÙĨÙĩ": 1770,
      "ĠØ¨ÙĤÙĬ": 1771,
      "ĠÙģÙĪÙĤ": 1772,
      "ĠØ§ÙĦÙģØ±ÙĨØ³ÙĬ": 1773,
      "Ø£Ø©": 1774,
      "ĠØ§ÙĦØ¨ØŃ": 1775,
      "ÙģÙĤ": 1776,
      "ĠØ§ÙĦØ¬ÙĨÙĪØ¨ÙĬØ©": 1777,
      "ĠÙĦÙĩÙħ": 1778,
      "ĠØ®Ø§Ø±Ø¬": 1779,
      "Ø±ÙĬØ§Øª": 1780,
      "ØµÙĪØµ": 1781,
      "10": 1782,
      "ĠÙĪØº": 1783,
      "Ø±ÙĬØ§": 1784,
      "ĠÙĪÙĩØ°Ø§": 1785,
      "ĠØ¨ÙĪÙĦ": 1786,
      "ÙĪÙħÙĬ": 1787,
      "ĠØ§ÙĦÙģØ±ÙĨØ³ÙĬØ©": 1788,
      "ÙĩØ§Ø¯": 1789,
      "ÙĥØ§ÙĦ": 1790,
      "ĠØ§ÙĦØ¯ÙĪØ±ÙĬ": 1791,
      "Ø¬Ø§Ø±": 1792,
      "ĠÙĦØªØŃ": 1793,
      "ĠØ§ÙĦØ±Ø³": 1794,
      "ĠÙĪØ«": 1795,
      "ĠÙĬÙĤÙĪÙĦ": 1796,
      "ÙĦÙĬÙĨ": 1797,
      "Ġ:": 1798,
      "ĠÙħÙĩ": 1799,
      "ĠØ¥ÙĨØ´Ø§Ø¡": 1800,
      "ĠØ§ÙĦÙĨØ¨ÙĬ": 1801,
      "ĠØ§ÙĦÙħØ§Ø¡": 1802,
      "ĠØ§ÙĦÙĤØ§ÙĨÙĪÙĨ": 1803,
      "Ø§Ø¦Ø²Ø©": 1804,
      "ÙĪØº": 1805,
      "ĠØ§ÙĦØ¯Ø§Ø®": 1806,
      "ĠØ§ÙĦÙĦÙĬ": 1807,
      "ĠØ§ÙĦØ¬Ø¯ÙĬØ¯Ø©": 1808,
      "Ø§Ø³Ø§Øª": 1809,
      "Ø°ÙĩØ¨": 1810,
      "ĠØ§ÙĦÙĨØ§Ø¯ÙĬ": 1811,
      "ĠØ§ÙĦÙĬØ§Ø¨": 1812,
      "ĠØ§ÙĦØ¹ÙĦÙħØ§Ø¡": 1813,
      "Ġ25": 1814,
      "ĠÙĦÙĥ": 1815,
      "ĠØ¨ÙĬØª": 1816,
      "Ø·ÙģØ§ÙĦ": 1817,
      "ĠØ±Ø¨": 1818,
      "ĠØ´ÙĬ": 1819,
      "ĠÙĬØ³ØªØ®Ø¯Ùħ": 1820,
      "ĠÙħØ®": 1821,
      "ØŃØµ": 1822,
      "Ø§Ø±Ø¹": 1823,
      "ĠØ´Ø¹Ø¨": 1824,
      "ĠØ§ÙĦØ·Ø¨": 1825,
      "ĠØºØ±Ø¨": 1826,
      "Ø´Ø§Ø·": 1827,
      "ÙħÙĬÙħ": 1828,
      "Ø³Ø·Ø³": 1829,
      "Ø¬ÙĬÙĦ": 1830,
      "ĠØ§ÙĦØ§Ø³Ùħ": 1831,
      "ÙĬÙĥÙĦ": 1832,
      "ĠØ¨Ùģ": 1833,
      "ĠØ§ÙĦÙĥÙĦ": 1834,
      "ĠÙħØ§ÙĬÙĪ": 1835,
      "ĠØ£ØµÙĦ": 1836,
      "Ø§ØªÙĩØ§": 1837,
      "ĠØ±Ø£Ø³": 1838,
      "ÙĪÙĨØ©": 1839,
      "ĠØ¨Ø§ÙĦØ¹": 1840,
      "Ø§Ø¦ÙĤ": 1841,
      "ĠÙĬÙģ": 1842,
      "ĠØ§ÙĦØªØ£": 1843,
      "ĠÙģÙĨ": 1844,
      "Ø§ÙĨÙĬÙĬÙĨ": 1845,
      "Ø·ÙĦØ¨": 1846,
      "ĠØ±Ø³Ùħ": 1847,
      "ĠØ§ÙĦØ¢Ø®Ø±": 1848,
      "ĠØ§ÙĦÙĪØ³Ø·Ùī": 1849,
      "Ø²ÙĪ": 1850,
      "ĠØ§ÙĦØ¥Ø³": 1851,
      "ØªØ±Ø§Ùĥ": 1852,
      "Ø¬Ø§ÙĦ": 1853,
      "ĠÙĨÙĪÙģÙħØ¨Ø±": 1854,
      "ĠÙĪÙĬÙħÙĥÙĨ": 1855,
      "ĠØ§ÙĦØ¹Ø´Ø±ÙĬÙĨ": 1856,
      "ĠÙħØ¶": 1857,
      "ĠØ§ÙĦÙħØ¹Ø±ÙĪÙģ": 1858,
      "ĠÙĪØµÙģ": 1859,
      "Ø¨ÙĨ": 1860,
      "ĠØ¬Ø¹ÙĦ": 1861,
      "ĠØ³Ø¨ØªÙħØ¨Ø±": 1862,
      "Ø±Øª": 1863,
      "ĠØ§ÙĦØ´Ø¹": 1864,
      "ĠâĢĵ": 1865,
      "Ø´ÙĦ": 1866,
      "ĠÙĥØ±Ø©": 1867,
      "ØŃØ§": 1868,
      "ĠØ§ÙĦÙĨÙĤ": 1869,
      "ĠÙĬØŃØª": 1870,
      "ÙĪØ¹Ø©": 1871,
      "ĠØ§ÙĦÙĤØ¯": 1872,
      "Ø§ÙĨØ©": 1873,
      "ĠØ§ÙĦØªÙĤÙĦÙĬ": 1874,
      "en": 1875,
      "ÙĬØ¯Ø§": 1876,
      "ÙĬØ·Ø§ÙĦÙĬØ§": 1877,
      "ĠÙĦØ¯Ùī": 1878,
      "ĠØ¹Ø¯Ùħ": 1879,
      "ĠØ§ÙĦÙĥÙĨÙĬØ³Ø©": 1880,
      "ĠÙĬØ¨ÙĦØº": 1881,
      "ÙĪØ±Ø§Øª": 1882,
      "ØªØ®Ø§Ø¨Ø§Øª": 1883,
      "ĠØŃØ±ÙĥØ©": 1884,
      "is": 1885,
      "ĠØ§ÙĦØ³Ø§Ø¯": 1886,
      "ĠØ³Ø§ÙĨ": 1887,
      "ĠØ¨Ø·ÙĪÙĦØ©": 1888,
      "ĠØ§ÙĦÙĪØŃ": 1889,
      "ĠÙħØ¨Ø§Ø±Ø§Ø©": 1890,
      "Ø´Ø±ÙĪØ¹": 1891,
      "ĠÙĥØ§ÙĨÙĪØ§": 1892,
      "ÙĪØ±ÙĨ": 1893,
      "ĠØ¨Ø±ÙĬØ·": 1894,
      "Ø§Ø®Ø±": 1895,
      "ĠÙģØ§Ø²": 1896,
      "ĠC": 1897,
      "ÙĨØ§Ø©": 1898,
      "ĠÂ·": 1899,
      "Ø¨Ø§Ø¨": 1900,
      "ĠØ§ÙĥØªØ´": 1901,
      "ĠÙĩÙħ": 1902,
      "ĠÙĬÙĦ": 1903,
      "ĠØ§ÙĦØ¨Ø´Ø±": 1904,
      "ĠÙĪØ¹ÙĨØ¯": 1905,
      "ĠØ¥ÙĨØªØ§Ø¬": 1906,
      "ĠØ§ÙĦÙħØµØ±ÙĬ": 1907,
      "ĠØ¨Ø§ÙĦÙĦ": 1908,
      "ĠØ§ÙĦØ£ÙĥØ«Ø±": 1909,
      "ĠÙĥØ§ÙĦ": 1910,
      "ĠÙĨØªÙĬØ¬Ø©": 1911,
      "ÙħØ§Ø¹Ø©": 1912,
      "ĠØ³Ø¨ÙĬÙĦ": 1913,
      "ĠØ¬Ø§Ø¡": 1914,
      "ĠØŃØ§ÙĦÙĬØ§": 1915,
      "ĠØ§ÙĦØªØ§Ø³Ø¹": 1916,
      "ĠØ·Ø¨ÙĬ": 1917,
      "ĠØ§ÙĦØ³ÙĬØ§Ø³ÙĬØ©": 1918,
      "Ø§ÙĩÙĬÙħ": 1919,
      "ÙĪØ±ÙĪØ¨ÙĬØ©": 1920,
      "ØµØ§Ø±": 1921,
      "ĠØ±ÙĬ": 1922,
      "Ø®ÙģØ¶": 1923,
      "Ø§Ø¶Ø·Ø±": 1924,
      "ĠØ£Ø³Ø§Ø³": 1925,
      "ĠØ¨ÙĨÙĬ": 1926,
      "Ø§Ø¨ÙĤØ©": 1927,
      "ĠÙĥØ§Ø±": 1928,
      "ÙĪØ¶Ø¹": 1929,
      "ĠØ§ÙĦØ¬Ø±": 1930,
      "ÙģØ¸": 1931,
      "ĠÙģØ§ÙĦ": 1932,
      "ĠØ§ÙĦØªØ³": 1933,
      "ĠØ¬Ø¯": 1934,
      "ĠØ¢ÙĦ": 1935,
      "ÙĨØ§Ø¹Ø©": 1936,
      "ĠØ§ÙĦØ³ÙĪ": 1937,
      "Ø§Ø¨Øª": 1938,
      "ØªÙħØ±": 1939,
      "Ø¬ÙĪÙħ": 1940,
      "Ø¢ÙĨ": 1941,
      "Ø¹ÙĦÙĤ": 1942,
      "ĠØ§ÙĦØŃØ²Ø¨": 1943,
      "ØŃØ±ÙĬØ±": 1944,
      "ĠÙĦØ¹Ø¨": 1945,
      "Ø±Ø®": 1946,
      "15": 1947,
      "Ø±ÙĨØ§ÙħØ¬": 1948,
      "ÙĪØ¬ÙĬÙĨ": 1949,
      "ĠØ§ÙĦÙħÙĤØ¯": 1950,
      "ĠØ§ÙĦØµØŃ": 1951,
      "ĠØ§ÙĦØ³Ø¹ÙĪØ¯ÙĬØ©": 1952,
      "ĠÙĪÙĪ": 1953,
      "17": 1954,
      "ÙĩØ§Ø²": 1955,
      "ĠØ§ÙĦØ¨Ø§Ø±": 1956,
      "ĠØ§ÙĦØ³Ø¨": 1957,
      "ĠØªÙĪØ¬Ø¯": 1958,
      "ĠÙħÙĨØ§Ø·ÙĤ": 1959,
      "ĠØªØŃØªÙĪÙĬ": 1960,
      "Ø§ÙĩØ±": 1961,
      "Ø£ÙĬ": 1962,
      "ĠØ§ÙĦÙĥÙĪÙĬØª": 1963,
      "Ġ30": 1964,
      "Ø³ÙĦØŃØ©": 1965,
      "ĠÙĦØºØ©": 1966,
      "ĠÙĤØ§ÙħØª": 1967,
      "ĠØ§Ø³ØªÙħØ±": 1968,
      "ÙĬÙĥÙĪÙĨ": 1969,
      "ĠÙĪØ¸": 1970,
      "ĠØ£ÙģØ¶ÙĦ": 1971,
      "Ø´ÙĤ": 1972,
      "30": 1973,
      "ĠØ§ÙĦØŃÙĤ": 1974,
      "ĠA": 1975,
      "ĠÙĪØ³Ø·": 1976,
      "ØŃØ§Ø¡": 1977,
      "ĠØ§ÙĦØ£Ø±Ø§Ø¶ÙĬ": 1978,
      "Ø¬Ø§ÙĨ": 1979,
      "ÙĪØ³ÙĬØ©": 1980,
      "ÙĬÙĦÙħ": 1981,
      "ĠØ´Ø¨Ùĩ": 1982,
      "ĠØ³Ø¬ÙĦ": 1983,
      "ĠØªØ®": 1984,
      "Ø§ØµÙĦ": 1985,
      "ĠØ§ÙĦÙĥÙĪÙĨ": 1986,
      "ĠÙģØ±ÙĬÙĤ": 1987,
      "ĠØ§ÙĦØ£Ùĩ": 1988,
      "ÙĪÙĦØ¯": 1989,
      "ĠØ§ÙĦÙħØ¯ÙĨ": 1990,
      "ÙĦÙħØ§ÙĨ": 1991,
      "ĠÙħØ±Ùĥ": 1992,
      "ĠØ§ÙĦØ¹Ø³ÙĥØ±ÙĬØ©": 1993,
      "ÙĪÙĤÙģ": 1994,
      "Ø¬Ø§Ùĩ": 1995,
      "ĠØ¯Ø®ÙĦ": 1996,
      "ĠØŃÙĦ": 1997,
      "Ø¨Ø±Ø§ÙĬØ±": 1998,
      "ĠÙĦÙħØ¯Ø©": 1999,
      "Ġï": 2000,
      "ĠØ´Ø§Ø±Ùĥ": 2001,
      "ĠØ§ÙĦÙĤØ¨": 2002,
      "ĠØ§ÙĦØ´Ùħ": 2003,
      "ĠØ§ÙĦØ¬Ø²Ø¡": 2004,
      "ĠÙĪÙĬÙĤ": 2005,
      "ĠØ§ÙĦØŃØ¯ÙĬØ«Ø©": 2006,
      "ØªÙĦØ§ÙĦ": 2007,
      "ĠÙħØ§Ø±": 2008,
      "ĠØ§ÙĦÙĪØ·ÙĨÙĬØ©": 2009,
      "Ġ2006": 2010,
      "ĠÙĨÙĤÙĦ": 2011,
      "ĠØ§ÙĦØŃØ¬": 2012,
      "ĠØ§ÙĦÙĦØºØ§Øª": 2013,
      "Ø¨Ø±Ø²": 2014,
      "ĠÙĪØªÙĨ": 2015,
      "Ø·ÙĬ": 2016,
      "ar": 2017,
      "Ø¬ÙĬÙĨ": 2018,
      "ÙĬÙĥØ§": 2019,
      "ÙĩØ§Ø¨": 2020,
      "Ø¹Ø¯Ø¯": 2021,
      "ĠØ§ÙĦØ¹Ø¯": 2022,
      "ĠØ§ÙĦÙħØŃÙĬØ·": 2023,
      "ĠØ¨Ø§ÙĦÙĥ": 2024,
      "ĠØ§ÙĦØ¨Ø¹Ø¶": 2025,
      "ÙĥØ«Ø±": 2026,
      "ÙĪØ±Ø§": 2027,
      "Ø§Ø¦Ø¨": 2028,
      "ĠØ£ØºØ³Ø·Ø³": 2029,
      "ÙĪÙģØ±": 2030,
      "ĠÙĦÙĦÙĤ": 2031,
      "ĠÙĪÙĤØ§ÙĦ": 2032,
      "ĠØ§ÙĦØ¬Ø¯ÙĬØ¯": 2033,
      "Ø¬Ø§": 2034,
      "ĠØ§ÙĦØ¯ÙĪÙĦÙĬ": 2035,
      "ĠØ§ÙĦØ¹Ø¶": 2036,
      "ĠØ£Ø¹ÙĦÙī": 2037,
      "ĠØ§ÙĦØ¥ÙĬØ·": 2038,
      "Ø¬Ø²Ø§Ø¡": 2039,
      "ĠØ§ÙĦØ§Ø¹": 2040,
      "ĠØ§ÙĦØ¯ÙĬ": 2041,
      "Ø§ÙģØ§Øª": 2042,
      "Ø¨ØŃ": 2043,
      "ĠÙĨÙĩ": 2044,
      "ØºØ§": 2045,
      "Ø§Ø¨ÙĨ": 2046,
      "Ø¹Ø§Ø±": 2047,
      "ĠÙĨÙģ": 2048,
      "ĠØ¹Ø§Ø¯": 2049,
      "ĠØ§ÙĦØ®ÙĦØ§ÙĬØ§": 2050,
      "ĠØ§ÙĦÙħØµØ±ÙĬØ©": 2051,
      "ĠØ§ÙĦØ¥Ø³ÙĦØ§ÙħÙĬ": 2052,
      "ĠØªÙħØª": 2053,
      "ĠÙĪØ§ÙĦØ®": 2054,
      "ĠØ§ÙĨØªÙĩ": 2055,
      "ÙĨÙģ": 2056,
      "Ø¹ÙħØ§ÙĦ": 2057,
      "ĠÙĪØªÙĤ": 2058,
      "ĠØ§ÙĨØªÙĤÙĦ": 2059,
      "Ø«Ø©": 2060,
      "ĠÙĨØµ": 2061,
      "ĠÙħØ¨Ø§Ø´": 2062,
      "ĠØ§ÙĦØ¨Ø±ÙĬØ·Ø§ÙĨÙĬØ©": 2063,
      "ĠØ§ÙĦÙħØ³ÙĬØŃÙĬØ©": 2064,
      "le": 2065,
      "ÙħØŃ": 2066,
      "ÙĬØ§ØªÙĩ": 2067,
      "ĠØ£ÙĪØ±": 2068,
      "ĠS": 2069,
      "ĠØ§ÙĦØŃÙĥ": 2070,
      "ÙĬØ³ÙĬ": 2071,
      "ÙĪÙĬÙĦØ©": 2072,
      "ĠØ§ÙĦØºØ±Ø¨ÙĬ": 2073,
      "ĠÙħØ¬ÙħÙĪ": 2074,
      "Ø§ÙĩØ¯": 2075,
      "ĠØ§ÙĦØ³Ø§Ø¨ÙĤ": 2076,
      "ØµØ§ÙĦ": 2077,
      "Ø§Ø¦Ùģ": 2078,
      "ĠØ´ÙĩØ¯": 2079,
      "ĠØ¨Ø£ÙĨÙĩ": 2080,
      "ĠÙģÙĩÙĪ": 2081,
      "ĠØ§ÙĦØ³ÙĦØ·Ø§ÙĨ": 2082,
      "ĠÙĦÙĦØ¯": 2083,
      "ÙĩØ¯Ùģ": 2084,
      "Ø±ÙĬÙĨ": 2085,
      "ĠØ§ÙĦÙĥØ¨Ø±Ùī": 2086,
      "ÙĬØªÙĩØ§": 2087,
      "ĠÙĬÙĤÙĪÙħ": 2088,
      "ĠØ£ÙĬØ§Ùħ": 2089,
      "ĠØ§ÙĦØ±Ø§Ø¨Ø¹": 2090,
      "ĠØ§ÙĦØŃØ¶": 2091,
      "ĠØ¨Ø¨": 2092,
      "12": 2093,
      "ĠÙĪÙģÙĤØ§": 2094,
      "ĠÙĤØ§Ø¯": 2095,
      "ĠØ¬Ø²ÙĬØ±Ø©": 2096,
      "Ø¨ÙĬØ¶": 2097,
      "Ġ27": 2098,
      "ÙĬØ²Ø©": 2099,
      "Ø§ÙĦÙĬØ¯": 2100,
      "Ø§Ø¨Ùĩ": 2101,
      "ĠØ§ÙĦÙĬÙħ": 2102,
      "ÙĪØ³ÙĬ": 2103,
      "ĠØ§ÙĦØªØ·": 2104,
      "ĠØ§ÙĦÙĥØ¨ÙĬØ±": 2105,
      "Ø§ÙģØª": 2106,
      "Ø§ØªÙĬ": 2107,
      "ÙģØ±Ø§Ø¯": 2108,
      "ÙĨØ¨": 2109,
      "Ø§ÙĩØªÙħ": 2110,
      "ĠØ§ÙĦØ±Ø¦ÙĬØ³ÙĬØ©": 2111,
      "ØªØ´Ø±": 2112,
      "Ø·Ø§ÙĤ": 2113,
      "Ø¯ÙĬÙħÙĤØ±Ø§Ø·": 2114,
      "ĠØŃØ²Ø¨": 2115,
      "ĠØ§ÙĦØªÙĪ": 2116,
      "ĠØ¨Ø§ÙĦÙĨØ³Ø¨Ø©": 2117,
      "ØªØ¨Ø·": 2118,
      "ĠØªØ£Ø«ÙĬØ±": 2119,
      "ĠØ§ÙĦØ¹Ø²ÙĬØ²": 2120,
      "ĠØ¥ÙĦÙĬÙĩØ§": 2121,
      "ĠØ§ÙĦØºØ±Ø¨": 2122,
      "ÙĪÙĬÙĨ": 2123,
      "Ø¹ÙħÙĦ": 2124,
      "ĠØ§ÙĦÙĥØ¨": 2125,
      "ĠÙħØ²": 2126,
      "Ø§ÙĪÙĬØ©": 2127,
      "ĠÙĥÙĦÙħØ©": 2128,
      "ĠØ§ÙĦØ¥Ø¯": 2129,
      "ĠØ§ÙĦØ¹Ø§ØµÙħØ©": 2130,
      "ĠØ²ÙĪØ¬": 2131,
      "ĠØ§ÙĦÙħÙĥ": 2132,
      "ĠØ¹ÙĤØ¯": 2133,
      "ĠØªØ´ÙĥÙĦ": 2134,
      "ĠØ§ÙĦØŃØ±ÙĥØ©": 2135,
      "ĠÙģØ¨Ø±Ø§ÙĬØ±": 2136,
      "ĠØ·Ø¨": 2137,
      "ĠÙĪØ§ÙĦØ¯Ùĩ": 2138,
      "ĠÙĪØªØ´": 2139,
      "ĠØ£Ø¬": 2140,
      "Ø·Ø§Øª": 2141,
      "ĠÙģÙĬÙĦÙħ": 2142,
      "Ø§ØªØ¨": 2143,
      "ĠÙĦÙĦØ´": 2144,
      "ĠÙħØ¬Ø§ÙĦ": 2145,
      "ĠÙĬØµ": 2146,
      "ÙĪØŃØ©": 2147,
      "Ø§ÙħÙĦØ©": 2148,
      "ÙĬÙĦÙĬ": 2149,
      "ĠØ§ÙĦØ³ÙĦØ·Ø©": 2150,
      "ÙĩØ±Ø©": 2151,
      "ÛĮ": 2152,
      "ĠØ¥ÙĬØ·Ø§ÙĦÙĬØ§": 2153,
      "14": 2154,
      "ĠÙĬØ¬Ø¨": 2155,
      "Ø¬Ø±Ø§Ø¡": 2156,
      "ÙĬØ±ÙĬØ©": 2157,
      "ÙĥÙĬÙĦ": 2158,
      "Ø§Ø«ÙĪÙĦ": 2159,
      "ĠØ£Ø±Ø¶": 2160,
      "50": 2161,
      "at": 2162,
      "ØŃØ¨": 2163,
      "ĠØ¢Ø³ÙĬØ§": 2164,
      "Ø§ÙĦØªØ§ÙĦÙĬ": 2165,
      "ĠØªØ³ÙħÙī": 2166,
      "ĠÙĪØ¬Ø¯": 2167,
      "ĠÙĤØªÙĦ": 2168,
      "ĠØ¹Ø¯ÙĬØ¯Ø©": 2169,
      "ĠØ§ÙĦÙħØ¶": 2170,
      "ĠÙħÙĪÙĤØ¹": 2171,
      "ĠØ®ÙĦÙģ": 2172,
      "ÙĪØ±Ø¬": 2173,
      "ÙħØ³Ø©": 2174,
      "ĠØ§ÙĦØªØ¹ÙĦÙĬÙħ": 2175,
      "ĠØ¬ÙħÙĩÙĪØ±ÙĬØ©": 2176,
      "ĠØ§ÙĦØ£ÙĤ": 2177,
      "Ø¹ÙĬÙĨ": 2178,
      "ĠÙģÙĥØ§ÙĨ": 2179,
      "ĠØªØ¤": 2180,
      "ÙĪØ§Ùħ": 2181,
      "ĠØ¥Ø¶Ø§ÙģØ©": 2182,
      "ÙĦØ§Ùĥ": 2183,
      "Ø¬Ø¨": 2184,
      "ĠØ£ÙĨØŃØ§Ø¡": 2185,
      "ĠÙĤÙĪØ§Øª": 2186,
      "ĠÙĦÙħÙĨ": 2187,
      "ĠØ¨Ø°ÙĦÙĥ": 2188,
      "16": 2189,
      "ÙĦØ§Ø¡": 2190,
      "ÙĩØ§Ø±": 2191,
      "ĠÙĦÙĤØ¯": 2192,
      "ĠÙĪÙĦÙĩ": 2193,
      "Ø°Ùĥ": 2194,
      "Ø³ÙĥØ±ÙĬ": 2195,
      "ĠÙĤØ§ÙĨÙĪÙĨ": 2196,
      "ĠÙĪØ¢": 2197,
      "Ø§Ø¨Ø·": 2198,
      "ĠØ§ÙĦØ±Ø¦ÙĬØ³ÙĬ": 2199,
      "ĠØ§ÙĦØ¯ÙĪÙĦÙĬØ©": 2200,
      "ĠØ§ÙĦÙħØºØ±Ø¨": 2201,
      "ĠØ§ÙĦØ£Ø²": 2202,
      "st": 2203,
      "ĠÙĦØ´": 2204,
      "ÙĪÙĬØ§": 2205,
      "ÙĥÙĨØ¯Ø±": 2206,
      "ĠØ§ÙĦØ¥Ø³Ø¨": 2207,
      "ĠÙĦØ§ØŃÙĤØ§": 2208,
      "Ø§Ø¦ÙĩØ§": 2209,
      "ĠØ§ÙĦÙĥÙĬÙħÙĬ": 2210,
      "ĠÙħØ§ÙĨ": 2211,
      "ĠÙĪØºÙĬØ±ÙĩØ§": 2212,
      "Ø±Ø§Ø¹Ø©": 2213,
      "ĠÙĤØ¯Ø±": 2214,
      "ĠØ¨Ø§ÙĦØª": 2215,
      "ĠØªØ¹Ø±Ùģ": 2216,
      "ĠØ¬ÙĬØ´": 2217,
      "ĠØ¨Ø³": 2218,
      "ĠØ±ÙĪ": 2219,
      "ĠÙħØº": 2220,
      "ĠØ§ÙĦÙħÙģ": 2221,
      "ĠÙĪØ§ÙĦÙħÙĨ": 2222,
      "ĠØ¨Ø§ÙĦØŃ": 2223,
      "Ø¨ÙĬÙĤ": 2224,
      "Ø§ÙĩØ¯Ø©": 2225,
      "ĠØ§ÙĦÙĨÙģ": 2226,
      "ĠØ§ÙĦØ¹ÙĤ": 2227,
      "ÙĬÙĤÙī": 2228,
      "ĠÙĦØµ": 2229,
      "Ø§ÙħØ§Øª": 2230,
      "ĠØ§Ø³ØªØ®Ø¯Ùħ": 2231,
      "ĠØ¨Ø±ÙĬØ·Ø§ÙĨÙĬØ§": 2232,
      "ĠØ£ÙħØ±ÙĬÙĥØ§": 2233,
      "ÙĦÙĬÙĬÙĨ": 2234,
      "ÙĬÙĦØ§": 2235,
      "ĠÙģØ¶": 2236,
      "ĠÙĦÙĬÙĨ": 2237,
      "ĠØ¬Ø¯ÙĬØ¯": 2238,
      "ĠØ§ÙĦØ§Ø®": 2239,
      "ØµÙĦØ§ØŃ": 2240,
      "al": 2241,
      "Ø³ÙħØ§Ø¡": 2242,
      "or": 2243,
      "13": 2244,
      "ĠÙħÙĨØµØ¨": 2245,
      "Ø³ÙĦØ³ÙĦ": 2246,
      "ĠØ³ÙĦØ³ÙĦØ©": 2247,
      "ĠÙĤÙĪØ©": 2248,
      "ĠØ§ÙĦÙĤØ·": 2249,
      "ĠØŃØ¯Ø«": 2250,
      "Ø§Ø¦Ø¹": 2251,
      "Ø³Ø¨Ø§ÙĨÙĬØ§": 2252,
      "ĠÙĦÙĦØ³": 2253,
      "ĠØ§ÙĦØ£ØŃÙĬ": 2254,
      "ĠØ±Ùħ": 2255,
      "Ġ190": 2256,
      "ĠØ·Ø±": 2257,
      "ĠØ§ÙĦØ¨Ø±ÙĪØª": 2258,
      "ĠØ§ÙĦØ´Ø±ÙĤÙĬ": 2259,
      "ĠØ³Ø§": 2260,
      "ØŃÙĦ": 2261,
      "ÙĩØ¯Ø§Ùģ": 2262,
      "ĠØ§ÙĦØ³Ø§Ø¯Ø³": 2263,
      "Ø¨Ø±Ø§ÙĩÙĬÙħ": 2264,
      "Ø§ÙĦÙĩ": 2265,
      "ĠÙĦÙĤØ¨": 2266,
      "ÙģØ§Ø¹ÙĦ": 2267,
      "ĠÙģÙĤØ§ÙĦ": 2268,
      "ĠØ§ÙĦØ£Ø®ÙĬØ±Ø©": 2269,
      "ĠÙģÙĩÙĬ": 2270,
      "ØªØ±Ùĥ": 2271,
      "ĠÙĦØ£ÙĪÙĦ": 2272,
      "Ø§Ø³Ø¹Ø©": 2273,
      "ĠØ§ÙĦÙĨØ¨Ø§ØªØ§Øª": 2274,
      "ĠØ£ÙģØ±ÙĬÙĤÙĬØ§": 2275,
      "ÙĤØ¯Ø±": 2276,
      "ÙģÙĬØ°": 2277,
      "ĠÙĬØ³ÙħÙī": 2278,
      "ĠØ§ÙĦØ¹ÙħØ±": 2279,
      "ĠÙĬÙĥ": 2280,
      "ĠØ§ÙĦØŃØ±Ø§Ø±Ø©": 2281,
      "ĠØ§ÙĦÙħØ®ØªÙĦÙģ": 2282,
      "Ø§ÙĤÙĬ": 2283,
      "200": 2284,
      "ĠØ´Ø¨": 2285,
      "ĠØ§ÙĦÙģÙĦØ³Ø·": 2286,
      "ĠÙĪØ¨ÙĬÙĨ": 2287,
      "ÙĪØ³Ùģ": 2288,
      "ÙĦÙĬÙģ": 2289,
      "Ġ2007": 2290,
      "ĠØ§ÙĦÙħØ±Ø¶": 2291,
      "ĠØ§ÙĦØ®Ø§ÙħØ³": 2292,
      "ØªÙĥ": 2293,
      "ĠØ§ÙĦÙĤØµ": 2294,
      "ĠÙĨØµÙģ": 2295,
      "ĠØ§ÙĦØ£ØµÙĦ": 2296,
      "ĠÙĬÙĤØ¹": 2297,
      "ĠØ®Ø§Øµ": 2298,
      "ĠØ§Ø±ØªÙģØ§Ø¹": 2299,
      "ĠØ§ÙĦØ«ÙĪØ±Ø©": 2300,
      "ĠØµØºÙĬØ±Ø©": 2301,
      "Ø§Ø±ÙĥØ©": 2302,
      "Ø¨Ø±Øª": 2303,
      "ĠD": 2304,
      "ĠÙĨØ³Ø¨": 2305,
      "ĠØ¢ÙĨ": 2306,
      "ĠM": 2307,
      "ĠØ®ÙĦ": 2308,
      "ĠØ§ÙĦØ£Ùģ": 2309,
      "ÙĩÙĬØ±": 2310,
      "Ø§Ø¤": 2311,
      "Ø§Ø¹ÙĬ": 2312,
      "ĠØ§ÙĦØ¹Ø«ÙħØ§ÙĨÙĬØ©": 2313,
      "Ø°Ø§Ùĥ": 2314,
      "ĠØ§ÙĦØ®Ø§ÙħØ³Ø©": 2315,
      "ĠÙĬØ£": 2316,
      "ØªÙĬØ§Ø±": 2317,
      "ĠØ§ÙĦØ¬Ø¯": 2318,
      "ĠÙħØŃØ§ÙģØ¸Ø©": 2319,
      "ĠØ£Ø±Ø¨Ø¹Ø©": 2320,
      "Ø´Ø§Ø±Ø©": 2321,
      "ĠØ§ÙĦØµÙĨØ§Ø¹": 2322,
      "Ø®ÙĪÙĦ": 2323,
      "ĠØ§ÙĦØ£ÙĪØ±ÙĪØ¨ÙĬØ©": 2324,
      "ĠÙĪÙĬØ±": 2325,
      "ĠÙħØŃØ¯": 2326,
      "ĠØºØ§ÙĦØ¨Ø§": 2327,
      "Ø¸Ø©": 2328,
      "ÙĪØ±Ùĥ": 2329,
      "ØŃØ¯Ø§Ø«": 2330,
      "ØªÙĩØ±": 2331,
      "ĠØ¬ÙĪÙĨ": 2332,
      "ĠØ§ÙĦØ£ÙħÙħ": 2333,
      "ĠØ§ÙĦÙħØ®ØªÙĦÙģØ©": 2334,
      "ĠØ£ÙĪØ§Ø®Ø±": 2335,
      "ĠØ±ÙģØ¶": 2336,
      "ĠÙĪØ¶": 2337,
      "ĠØ§ÙĦÙħØ±Ùĥ": 2338,
      "Ø§Ø¹Ø§Øª": 2339,
      "ĠØ§ÙĦÙħØ·": 2340,
      "ÙħÙĪÙĨ": 2341,
      "ĠÙĥÙĬÙĦÙĪÙħ": 2342,
      "ĠØ§ÙĦØ¯ÙĬÙħÙĤØ±Ø§Ø·": 2343,
      "ĠØ§ÙĦØ³Ùħ": 2344,
      "Ġ2014": 2345,
      "ĠÙĦÙħØ§": 2346,
      "ĠØ§ÙĦÙĨØ¸": 2347,
      "ĠØ¹Ø§ØµÙħØ©": 2348,
      "ĠØ§ÙĦÙħÙĬØ§Ùĩ": 2349,
      "ĠÙĩÙĪÙĦ": 2350,
      "Ø§Ø³Ø¨": 2351,
      "ĠØ§ÙĦØŃÙħ": 2352,
      "ĠØ§ÙĦØ¥Ùħ": 2353,
      "ÙĪÙĬØ§Øª": 2354,
      "ØµØ§Ø¨Ø©": 2355,
      "ĠØ§ÙĦØ¬Ø³Ùħ": 2356,
      "ĠØ§ÙĦØ¨ÙĨ": 2357,
      "ÙħØ§ÙĬØ©": 2358,
      "ØŃØªÙī": 2359,
      "ĠØ¨Ø§Ø³ØªØ®Ø¯Ø§Ùħ": 2360,
      "ĠÙĪØ¨Ø§ÙĦ": 2361,
      "ĠØ§ÙĦØ±ÙĪÙħØ§ÙĨÙĬØ©": 2362,
      "ĠØ§ÙĦØ³ÙĪØ¯": 2363,
      "ĠØ¨ÙĤÙĬØ§Ø¯Ø©": 2364,
      "ØµØ¯Ø§Ø±": 2365,
      "ĠÙħØ¹Ø±ÙĥØ©": 2366,
      "ĠØ¹ÙĬÙĨ": 2367,
      "ĠØ¯ÙĪÙĦØ§Ø±": 2368,
      "ĠÙĪØ¬Ùĩ": 2369,
      "ĠØ§ÙĦÙĤØ¯ÙĬÙħ": 2370,
      "Ø¬ÙĦØªØ±Ø§": 2371,
      "ĠØ§ÙĦÙĥÙĩØ±Ø¨": 2372,
      "ĠØ¥Ø¹Ø§Ø¯Ø©": 2373,
      "ĠØ¨ØŃÙĦÙĪÙĦ": 2374,
      "ĠØºØ±": 2375,
      "ĠØ§ÙĦÙħØªÙĪØ³Ø·": 2376,
      "Ø´ÙĬØ¯": 2377,
      "ĠØ¬Ø¨ÙĦ": 2378,
      "Ġ2015": 2379,
      "ĠØ¹ØµØ±": 2380,
      "Ø§ÙĨØ³": 2381,
      "ĠÙĦÙĦØ¬": 2382,
      "ĠØ§ÙĦÙħØ«Ø§ÙĦ": 2383,
      "ĠØ£Ø®Ø°": 2384,
      "ĠØ§ÙĦÙģÙĨ": 2385,
      "Ø·ÙĬØ¹": 2386,
      "ĠØ§ÙĦØ·Ø§ÙĤØ©": 2387,
      "Ø±ÙĬØ³": 2388,
      "ĠØ§ÙĦÙħØ¬ØªÙħØ¹": 2389,
      "ĠÙĪØ¨Ø§ÙĦØªØ§ÙĦÙĬ": 2390,
      "ÙĬØ·Ø±Ø©": 2391,
      "ĠÙĬØ¹ÙħÙĦ": 2392,
      "ĠÙĬØ¹ÙĪØ¯": 2393,
      "ÙĪØ§Ø©": 2394,
      "ÙĬÙĨØº": 2395,
      "ÙĪØ³Øª": 2396,
      "ĠÙĪØ¨Ø¯": 2397,
      "ĠÙĦØ³": 2398,
      "ÙĪØ¬ÙĪØ¯": 2399,
      "ĠØŃÙĥÙĪÙħØ©": 2400,
      "Ø®Ø§Øµ": 2401,
      "ĠÙħØ³Ø§ØŃØ©": 2402,
      "ĠØ§ÙĦØ¨Ø±ÙĬØ·Ø§ÙĨÙĬ": 2403,
      "ĠØ§ÙĦØªØ§ÙĦÙĬ": 2404,
      "ĠÙģÙĦØ³Ø·ÙĬÙĨ": 2405,
      "Ø§Ø¡Ø©": 2406,
      "Ø«ÙĦØ§Ø«": 2407,
      "ÙĬØ±ÙĦ": 2408,
      "ĠØ·ÙĦØ¨": 2409,
      "ĠØ§ÙĦØ£ÙĥØ¨Ø±": 2410,
      "ĠØ¨ØŃØ±": 2411,
      "ÙĪÙĬÙħ": 2412,
      "ÙĪÙħØ§Øª": 2413,
      "ĠØªØªØ¨Ø¹": 2414,
      "ĠÙĪÙĩÙĨØ§Ùĥ": 2415,
      "ĠØ§ÙĦÙĪØ²Ø±Ø§Ø¡": 2416,
      "ÙĦØ¨ÙĬØ©": 2417,
      "ĠÙĤÙĦ": 2418,
      "ĠÙģØªØŃ": 2419,
      "ĠØ§ÙĦÙĨÙħ": 2420,
      "ĠØ§ÙĦØ³Ùģ": 2421,
      "ĠØ§ÙĦØªØ¯": 2422,
      "Ø¹ÙĦØ§ÙĨ": 2423,
      "ĠØ§ÙĦØŃÙĬÙĪØ§ÙĨØ§Øª": 2424,
      "ĠØ§ÙĦÙĨÙĪØ¹": 2425,
      "Ġ2013": 2426,
      "ĠØ§ÙĦÙħØ³ÙĬØŃÙĬ": 2427,
      "ÙĪØ§ÙĬØ©": 2428,
      "Ø³ØªÙĪØ±": 2429,
      "ĠØ¹ÙĤ": 2430,
      "ĠØ§ÙĦÙĤØ±Ø¢ÙĨ": 2431,
      "ĠØ§ÙĦØ£Ø¹ÙħØ§ÙĦ": 2432,
      "ĠØ¨ØºØ¯Ø§Ø¯": 2433,
      "ĠØ¸ÙĩØ±Øª": 2434,
      "ĠØªÙĤØ¯Ùħ": 2435,
      "ĠØ§ÙĦØ£Ø±Ø¯ÙĨ": 2436,
      "ĠØªØ³ÙħÙĬØ©": 2437,
      "ØµÙī": 2438,
      "ĠÙħØ¯ÙĨ": 2439,
      "ÙĪØ±Øº": 2440,
      "ĠÙĨÙĬ": 2441,
      "ĠØ£Ø¹Ø¶Ø§Ø¡": 2442,
      "ĠØ¹Ø¨Ø§Ø±Ø©": 2443,
      "ĠØ§ØªÙģØ§ÙĤ": 2444,
      "Ġ24": 2445,
      "ĠØªØ´ÙħÙĦ": 2446,
      "ĠØ£Ø¹ÙĦÙĨ": 2447,
      "Ġ2000": 2448,
      "ĠØ§ÙĦØ´Ø¹Ø±": 2449,
      "Ġ2010": 2450,
      "ĠØ£Ø·ÙĦÙĤ": 2451,
      "ÙĪÙĨØ³": 2452,
      "Ġ2005": 2453,
      "ĠÙħØ¹Ùĩ": 2454,
      "ØŃÙħ": 2455,
      "ĠÙĬØ¹ØªÙĤØ¯": 2456,
      "ĠÙħØµØ·ÙĦØŃ": 2457,
      "ĠØ§ÙĦØ¹Ø¸Ùħ": 2458,
      "ĠØµÙģ": 2459,
      "ĠÙĦÙĥÙĨÙĩ": 2460,
      "Ø§Ø¨ÙĬ": 2461,
      "Ġ100": 2462,
      "ĠÙĪØ§ÙĦØº": 2463,
      "ØªØµÙģ": 2464,
      "Ø±Ø¬Ø¹": 2465,
      "ĠØ§ÙĦØµÙĬÙĨ": 2466,
      "Ø§Ø´Ø§": 2467,
      "ÙĪÙĦÙĬØ©": 2468,
      "ĠÙĥØ«ÙĬØ±Ø§": 2469,
      "ĠÙĬØµÙĦ": 2470,
      "ĠØ£ØŃÙĬ": 2471,
      "Ø¦Ø§Ø³Ø©": 2472,
      "ÙĨÙĬÙģ": 2473,
      "ÙĥØªÙĪØ±": 2474,
      "ĠØ£Ø±Ø¨Ø¹": 2475,
      "ĠØ§ÙĦØ£Ø¨": 2476,
      "ÙĤÙĤ": 2477,
      "ĠÙĪØŃØ¯": 2478,
      "ĠÙħÙĤØ§Ø·Ø¹Ø©": 2479,
      "ic": 2480,
      "ĠØ§ÙĦØ£ÙħØ±ÙĬÙĥÙĬ": 2481,
      "ĠØ§ÙĦØ±Ø¨": 2482,
      "ÙģÙĦØ§Ùħ": 2483,
      "Ø±Ø³": 2484,
      "ĠÙĬØ¤Ø¯ÙĬ": 2485,
      "ĠÙĪÙģØ§Ø©": 2486,
      "ĠÙĨÙħÙĪ": 2487,
      "Ø¦ÙĬØ©": 2488,
      "ĠØ§ÙĦØ§Ø´": 2489,
      "ĠØ§Øµ": 2490,
      "Ø§ÙĬØª": 2491,
      "ĠØ§ÙĦØ³ÙĬØ§Ø³ÙĬ": 2492,
      "ÙĦØ²": 2493,
      "ØºÙĬÙĬØ±": 2494,
      "ØªÙĤØ§ÙĦ": 2495,
      "ĠØŃØ¯ÙĬØ«": 2496,
      "ĠØ§ÙĦØ¯Ø§Ø®ÙĦÙĬØ©": 2497,
      "ĠØ§ÙĦØ³Ø±": 2498,
      "ĠØ§ÙĦØŃØ¯ÙĬØ¯": 2499,
      "ĠÙĤØ³Ùħ": 2500,
      "ĠØ§ÙĦØªÙĤÙĦÙĬØ¯ÙĬØ©": 2501,
      "Ġ2008": 2502,
      "Ø§ØŃØ§": 2503,
      "ĠÙĦÙĩØ°Ø§": 2504,
      "ÙĬØ²ÙĬ": 2505,
      "ĠØ§ÙĤØªØµ": 2506,
      "ĠØŃØ¯ÙĪØ¯": 2507,
      "Ø§Ø²Ø§Øª": 2508,
      "Ġ23": 2509,
      "ĠØªØ¹Ø±Ø¶": 2510,
      "Ø§ÙĦØ£": 2511,
      "ĠÙħÙĨØ¸ÙħØ©": 2512,
      "ĠØ§ÙĦØ¯ÙĬÙĨÙĬØ©": 2513,
      "Ø§Ø¦Ø²": 2514,
      "ĠØ®ÙĦÙĬ": 2515,
      "ĠØ¹Ø´Ø±Ø©": 2516,
      "Ġ22": 2517,
      "ĠÙĪØ§ÙĦÙĩ": 2518,
      "ĠØ§ÙĦØ´ÙĬÙĪ": 2519,
      "ÙĪÙĦØ§Øª": 2520,
      "ĠØ§ÙĦÙħØ¬ÙĦØ³": 2521,
      "Ø³Ø±ØŃ": 2522,
      "ĠØ¨Ø§ÙĨ": 2523,
      "ĠØ§ÙĦÙĨØ³": 2524,
      "Ø¨ÙĬØ¯": 2525,
      "ĠÙĥØ¨ÙĬØ±Ø§": 2526,
      "ĠÙĪØŃØªÙī": 2527,
      "ĠØ§ÙĦÙĥØ§Ø«ÙĪÙĦ": 2528,
      "Ø«ÙĦØ©": 2529,
      "ÙĬØµ": 2530,
      "ĠØ§ÙĦØªÙħ": 2531,
      "ĠØ§ÙĦÙģÙĬÙĦÙħ": 2532,
      "Ø«ÙĨØ§Ø¡": 2533,
      "ÙĨÙĩ": 2534,
      "ĠØ±ØºÙħ": 2535,
      "ĠØ¹ÙĨÙĩØ§": 2536,
      "ĠØªÙħÙĥÙĨ": 2537,
      "ĠØ³ÙĪØ±ÙĬØ§": 2538,
      "ĠØ¨Ø§ÙĦÙģ": 2539,
      "ĠÙĦØ§Ø¹Ø¨": 2540,
      "ĠØ¨Ø¹Ø¯ÙĩØ§": 2541,
      "ĠÙĥÙĦØ§": 2542,
      "ÙĬØ§Ø±": 2543,
      "ĠØ§ÙĦØ¥ÙĦÙĥØªØ±": 2544,
      "ĠØ§ÙĦØ¨Ø·ÙĪÙĦØ©": 2545,
      "ÙĬØ±ÙĪØ³": 2546,
      "ĠØªØ£Ø³ÙĬØ³": 2547,
      "ØªØ§Ø±": 2548,
      "ĠÙĤØ§Ø¦ÙħØ©": 2549,
      "ÙĪÙĦÙĩ": 2550,
      "ĠØ¥Ø¨Ø±Ø§ÙĩÙĬÙħ": 2551,
      "ØŁ": 2552,
      "ØªÙĬØ©": 2553,
      "ĠØ§ÙĦÙħØ±ØªØ¨Ø©": 2554,
      "ĠÙħØ¹Ø±ÙĪÙģ": 2555,
      "Ġ2016": 2556,
      "ØªØ´Ø§Ø±": 2557,
      "ĠØ§ÙĦØ´ÙħØ³": 2558,
      "ĠØ§ÙĦÙħÙĪØ§Ø¯": 2559,
      "Ø§Ø¨ÙĬØ©": 2560,
      "Ø¹ÙĬØ¯": 2561,
      "ÙĦØ§ÙĦØ©": 2562,
      "ĠØ³ÙĬØª": 2563,
      "ĠØ§ÙĦØ²ÙħÙĨ": 2564,
      "ĠØ´Ø¹": 2565,
      "Ø§Ø¹Ø±": 2566,
      "ĠÙĪÙĩÙħ": 2567,
      "Ø§Ø±ÙĬØ§": 2568,
      "ĠÙħØªÙĨ": 2569,
      "ĠØµØ¯": 2570,
      "ÙģÙĬÙĨ": 2571,
      "ĠØ·ÙĪÙĬÙĦØ©": 2572,
      "ĠØªÙĤÙĪÙħ": 2573,
      "ØªÙĦØ§Ùģ": 2574,
      "ÙħÙħ": 2575,
      "ØªØ§ÙĨ": 2576,
      "Ø³ÙħØŃ": 2577,
      "ĠØŃÙĥ": 2578,
      "ĠØ¯Ø±Ø§Ø³Ø©": 2579,
      "ĠØ¥Ø¯Ø§Ø±Ø©": 2580,
      "Ø§Ø²ÙĬ": 2581,
      "ĠØ§ÙĦÙĤØ§Ø¯": 2582,
      "ÙĪÙĦÙĪØ¬ÙĬØ§": 2583,
      "ĠØ§ÙĦÙĦØ§Øª": 2584,
      "ÙĨØ§Ø·": 2585,
      "ĠØ§ÙĦÙĨØ§Øª": 2586,
      "ĠÙĨØ³Ø®Ø©": 2587,
      "ĠÙħØ¯Ø±Ø³Ø©": 2588,
      "ĠØ§ÙĦØ¹ÙĦÙĬØ§": 2589,
      "ÙĪØ³Ø¹": 2590,
      "ĠÙĨØ´Ø£": 2591,
      "ĠØ§ÙĦÙĪØ±": 2592,
      "Ø§Ø¯Ø§": 2593,
      "Ø§Ø¬Ø©": 2594,
      "ĠØ¨Ø¯ÙĦØ§": 2595,
      "ĠÙĦØ±": 2596,
      "Ġ2004": 2597,
      "ĠØ§Ø«": 2598,
      "ĠØ³ÙĥØ§ÙĨÙĩØ§": 2599,
      "ĠØ³ÙĪØ§Ø¡": 2600,
      "ĠØ§ÙĦØ¨ÙĪ": 2601,
      "ĠØ¨Ø§Øª": 2602,
      "ĠØ§ÙĦØ´ÙĥÙĦ": 2603,
      "ĠÙĪØ§ÙĦÙĦ": 2604,
      "ĠØ§ÙĦØ¹ØµÙĪØ±": 2605,
      "ĠØ¨Ø§ÙĦØ±": 2606,
      "ĠØ§ØŃØªÙĦ": 2607,
      "ĠØŃØ¬Ùħ": 2608,
      "ĠÙĤØ¶": 2609,
      "ĠÙħÙģ": 2610,
      "ÙĪØ§ÙĨÙĬÙĨ": 2611,
      "ØªØ§ÙĦ": 2612,
      "ĠØ§ÙĦØŃØ¯ÙĪØ¯": 2613,
      "ĠÙĦÙĦØ¨": 2614,
      "ĠØ§ÙĦØ³Ø±ÙĬ": 2615,
      "ĠØ§ÙĦØ¹ÙĨØ§ØµØ±": 2616,
      "Ùª": 2617,
      "Ø§Ø²ÙĦ": 2618,
      "ØªÙĪÙĨ": 2619,
      "Ø¬ÙĩØ²Ø©": 2620,
      "ĠØ§ÙĦØ¨ØŃØ±ÙĬØ©": 2621,
      "ĠØ¹Ø±": 2622,
      "ĠÙħÙħÙĦÙĥØ©": 2623,
      "ÙĤÙĦØ©": 2624,
      "ĠÙĤØ±ÙĬØ©": 2625,
      "ĠØ¬Ø²Ø¡Ø§": 2626,
      "la": 2627,
      "Ġ2011": 2628,
      "Ġ0": 2629,
      "ĠØ§ÙĦØ¹Ø§ÙĦÙħÙĬ": 2630,
      "ĠØ¥ÙĬØ±Ø§ÙĨ": 2631,
      "ĠØ¨ÙħÙĨ": 2632,
      "ĠØ§ÙĦÙĤØ§ÙĩØ±Ø©": 2633,
      "ĠØ§ÙĦØ«Ø§ÙħÙĨ": 2634,
      "ĠÙĪØ¨Ø¹Ø¶": 2635,
      "ĠØ¯ÙĬÙĨ": 2636,
      "ĠÙĩØ±": 2637,
      "ĠÙħÙĦÙĬ": 2638,
      "ĠØ§ÙĦÙĥØ±": 2639,
      "ĠÙĦØ§Ø³Øª": 2640,
      "ĠØ£Ø³Ø³": 2641,
      "ĠØ§ÙĦØ¬ÙħÙĩÙĪØ±ÙĬØ©": 2642,
      "Ø§ÙģØ±": 2643,
      "ĠØ£Ø«Ø±": 2644,
      "ĠØ£ÙĤØ¯Ùħ": 2645,
      "ĠØ§ÙĦÙĬÙĩÙĪØ¯": 2646,
      "ĠØ§Ø³": 2647,
      "ĠØ§ÙĦØ´Ø§Ùħ": 2648,
      "ĠØ¨Ø§Ø¹": 2649,
      "Ø§ØŃØ¨": 2650,
      "ØªØ±Ø§Øª": 2651,
      "ÙĥÙĪÙĬÙĨ": 2652,
      "ĠØ¸ÙĩÙĪØ±": 2653,
      "Ø°Ø¨": 2654,
      "ØªÙĦØ©": 2655,
      "Ø§Ø¬Ùĩ": 2656,
      "Ø³ÙħÙĬ": 2657,
      "Ø¯ÙĬÙĦ": 2658,
      "ĠØ¨Ø£ÙĨÙĩØ§": 2659,
      "Ø®Ùħ": 2660,
      "ĠØªÙĥÙĨ": 2661,
      "ĠÙģÙĬØ±": 2662,
      "ĠÙħÙĤØ§ÙĦØ§Øª": 2663,
      "ĠÙĦÙĦÙģ": 2664,
      "ÙĤØ³Ùħ": 2665,
      "Ø¹Ø§Ø¯": 2666,
      "ĠØ²ÙĬØ§Ø¯Ø©": 2667,
      "Ø°Ø±": 2668,
      "Ø´Ø©": 2669,
      "ĠØ§ÙĦØ±ØŃÙħÙĨ": 2670,
      "Ø®Ùģ": 2671,
      "Ġ189": 2672,
      "Ø·Ø§ÙĦ": 2673,
      "Ø§ØŃØ«": 2674,
      "ÙĦÙĬØ¨": 2675,
      "ĠP": 2676,
      "ĠØ§ÙĦØ£Ø³Ø±": 2677,
      "ÙĬÙģÙĬØ©": 2678,
      "ĠØ§ÙĦØ³ÙĦØ§Ùħ": 2679,
      "Ø§Ø¦Ø¯Ø©": 2680,
      "ĠÙħØ¨Ø§Ø´Ø±Ø©": 2681,
      "ĠØªØ¶Ùħ": 2682,
      "Ġ26": 2683,
      "ĠÙĪÙĤØ§Ùħ": 2684,
      "ĠÙĬØ¸ÙĩØ±": 2685,
      "ĠØ§ÙĦØ¬Ø§Ùħ": 2686,
      "ĠØ°ÙĪ": 2687,
      "Ø®ØµØµ": 2688,
      "ĠØ³ÙħÙĬØª": 2689,
      "Ø«ÙĬ": 2690,
      "Ø¹Ø¯Ø¯Ø©": 2691,
      "ĠØ´ÙĬØ¡": 2692,
      "Ø³Ø¨Ø§Ø¨": 2693,
      "ĠØ§ÙĦØ£Ø¨ÙĬØ¶": 2694,
      "ĠÙħØ«ÙĦØ§": 2695,
      "ĠØ§ÙĦØ§Ø¬ØªÙħØ§Ø¹ÙĬØ©": 2696,
      "ĠÙĨØ²": 2697,
      "ĠØ§ÙĦØ³Ø§Ø¨Ø¹": 2698,
      "ĠØ¥ÙĨØ¬ÙĦØªØ±Ø§": 2699,
      "ĠÙĤØ·": 2700,
      "ĠÙĨØ·Ø§ÙĤ": 2701,
      "ÙĦØ³": 2702,
      "ĠØ¬ÙĪ": 2703,
      "ĠØ¨Ø±ÙĨØ§ÙħØ¬": 2704,
      "ÙĬÙĨÙĬØ§Øª": 2705,
      "Ø¤ÙĦØ§Ø¡": 2706,
      "ĠÙģØ§ÙĨ": 2707,
      "ÙĬÙĨØ§Ø¡": 2708,
      "ĠØŃØ³Ø§Ø¨": 2709,
      "ĠÙĨÙĤØ·Ø©": 2710,
      "ĠÙħÙĤØ¯": 2711,
      "ĠØ«ÙĤ": 2712,
      "ĠÙĪÙĦÙĥÙĨÙĩ": 2713,
      "ĠØ§ÙĦØ®Ø§Ø±Ø¬ÙĬØ©": 2714,
      "ĠØ±ÙĪØ³ÙĬØ§": 2715,
      "ÙħØ§Ø¹ÙĬÙĦ": 2716,
      "Ø¶ÙĬ": 2717,
      "ĠÙĬØ¹ÙĬØ´": 2718,
      "ÙĪÙĥØ³": 2719,
      "ĠÙĪØ§Ø¹": 2720,
      "ĠÙħØªÙĪØ³Ø·": 2721,
      "ĠÙħØ±Ø¶": 2722,
      "ĠØ±Ø³ÙĪÙĦ": 2723,
      "ÙĬØ¯Ø©": 2724,
      "ĠØ§ÙĦØ´Ø±ÙĥØ©": 2725,
      "ĠÙĦØ¹Ø§Ùħ": 2726,
      "ĠØ§ÙĦÙħØ¬ÙħÙĪØ¹Ø©": 2727,
      "ĠØ§ÙĦØ·Ø¨ÙĬØ¹ÙĬØ©": 2728,
      "Ø³ÙĦÙĪØ¨": 2729,
      "ĠØ§ÙĦØ¥Ø³ÙĥÙĨØ¯Ø±": 2730,
      "ĠØ§ÙĦØªØ§ÙĦÙĬØ©": 2731,
      "Ġ186": 2732,
      "ÙĥÙħØ©": 2733,
      "ĠØ¥ÙĤÙĦÙĬÙħ": 2734,
      "Ø¦ÙĬ": 2735,
      "ĠØ£ÙĪØ§Ø¦ÙĦ": 2736,
      "ÙĦØ¨ÙĪÙħ": 2737,
      "Ø±Ø¨ÙĪÙĨ": 2738,
      "Ø§Ø¨ÙĦØ©": 2739,
      "ĠØ§ÙĦÙħÙĬÙĦØ§Ø¯ÙĬ": 2740,
      "Ø§ÙĪÙĬ": 2741,
      "ĠØ§ÙĦØ®ÙĦÙĬÙģØ©": 2742,
      "ĠØ§ÙĦØ£Ø³Ø§Ø³ÙĬØ©": 2743,
      "ĠÙĥÙĪÙĦ": 2744,
      "ĠÙĨÙģØ³ÙĩØ§": 2745,
      "Ø³Ø±Ø§Ø¦ÙĬ": 2746,
      "ĠØ¹ÙĥØ³": 2747,
      "ĠH": 2748,
      "ĠØ§ÙĦØ§ÙĤØªØµØ§Ø¯ÙĬØ©": 2749,
      "Ø§ÙĪ": 2750,
      "ĠØ§ÙĦØ¹ÙĩØ¯": 2751,
      "Ø³Ø³Ø©": 2752,
      "ĠØ¥ÙĦ": 2753,
      "ĠØ£Ø¨Ø±Ø²": 2754,
      "ĠØ¹ÙĦÙĬÙĩÙħ": 2755,
      "Ø´Ø¨": 2756,
      "Ø§Ø¬Ùħ": 2757,
      "ĠØªØ¹ÙħÙĦ": 2758,
      "ĠÙħÙĤØ§ÙĦØ©": 2759,
      "ĠÙĪÙĬØ³": 2760,
      "Ø§Ø¯Ø±Ø©": 2761,
      "Ø¨Ø¯ÙĪ": 2762,
      "ÙĥØ¯": 2763,
      "ÙĪØ§ÙħÙĦ": 2764,
      "ĠØ§ÙĦÙħØ¤Ø±Ø®": 2765,
      "Ø§Ø¦Ø©": 2766,
      "Ø«ÙĬÙĦ": 2767,
      "ĠØªØ·ÙĪÙĬØ±": 2768,
      "es": 2769,
      "Ø§ÙģØ¹": 2770,
      "ÙĪÙĦØª": 2771,
      "ĠØ³ÙĦÙĬÙħ": 2772,
      "ĠÙĨÙĬÙĪ": 2773,
      "ĠØ±Ø£": 2774,
      "ĠØ§ÙĦÙħØ¨Ø§Ø±Ø§Ø©": 2775,
      "ĠØ§ÙĦØ£ÙĦÙħØ§ÙĨÙĬØ©": 2776,
      "ĠÙĪÙħØŃ": 2777,
      "ĠØ®ÙħØ³": 2778,
      "ĠØ§ÙĦØ¨Ø¯": 2779,
      "ĠÙĩÙĨ": 2780,
      "Ø²Ø§Ø¨": 2781,
      "ÙĨØ¯ÙĨ": 2782,
      "ĠØ§ÙĦØ£Ø®ÙĬØ±": 2783,
      "Ø§ÙĬÙĨ": 2784,
      "ĠØ£Ø±Ø§Ø¶ÙĬ": 2785,
      "ÙĬØ¯ÙĬ": 2786,
      "ĠØ¥Ø³Ø¨Ø§ÙĨÙĬØ§": 2787,
      "ĠØ§ÙĦØ£ÙħÙĨ": 2788,
      "ĠØ¬Ø²Ø±": 2789,
      "Ø§Ø±ÙĬØ§Øª": 2790,
      "ĠÙħØŃØª": 2791,
      "Ġ28": 2792,
      "ĠÙĦØ¥ÙĨ": 2793,
      "ÙģÙĬØ¯": 2794,
      "ĠÙħÙĤØ§Ø¨ÙĦ": 2795,
      "ÙĤØ±Ø§Ø±": 2796,
      "ĠØŃØ¶": 2797,
      "ĠØ¯ÙĪØ±ÙĬ": 2798,
      "Ø¹Ø¨Ø©": 2799,
      "ĠØ§Ø²": 2800,
      "ĠØ§ÙĦØ®Ø§Øµ": 2801,
      "ĠØªØ¸ÙĩØ±": 2802,
      "ĠÙĬÙħØ«ÙĦ": 2803,
      "ĠØ¯Ø§Ø±": 2804,
      "Ø§Ø±ÙĨØ©": 2805,
      "ĠØ§ÙĦØ£ÙĪØ³Ø·": 2806,
      "ĠT": 2807,
      "Ø§Ø¬Ø±": 2808,
      "ĠØ§ÙĦØ£Ø³Ø±Ø©": 2809,
      "ĠØµØ¯Ø±": 2810,
      "ĠØµÙĦ": 2811,
      "ĠØµØŃ": 2812,
      "ĠÙĪØªØ³Øª": 2813,
      "ØºØ§ÙĦ": 2814,
      "ÙĬÙĥØ±": 2815,
      "ĠØ§ÙĦÙħÙĦÙĥÙĬØ©": 2816,
      "ĠÙħØ±Ø¨Ø¹": 2817,
      "Ø¬Ø§Øª": 2818,
      "ĠÙĬØ·ÙĦÙĤ": 2819,
      "ĠØ§ÙĦØ«Ø§ÙĦØ«Ø©": 2820,
      "ĠØ®Øµ": 2821,
      "Ġ21": 2822,
      "Ø§Ø¬Ø§Øª": 2823,
      "Ø¹Ø§ÙĨ": 2824,
      "Ø§ÙĤØ¹Ø©": 2825,
      "Ġ202": 2826,
      "ĠØ§ÙĦØ¹ÙĦÙħÙĬ": 2827,
      "ĠÙĨØ¸Ø±Ø§": 2828,
      "ĠØ¨Ø§Ø´Ø§": 2829,
      "ĠØ§ÙĦØµÙģ": 2830,
      "ĠØ±ÙĤÙħ": 2831,
      "ĠØ§ÙĦÙħÙĪØ³Ùħ": 2832,
      "ĠÙĪØ§Ø¯ÙĬ": 2833,
      "ĠØ¨ÙĩØ°Ø§": 2834,
      "ĠØ§ÙĦØ³ÙĨÙĪØ§Øª": 2835,
      "Ø±ÙĬØ¨Ø©": 2836,
      "Ø¨Ø±Ø©": 2837,
      "ĠØ±Ø¤": 2838,
      "ĠÙĦÙĩØ°Ùĩ": 2839,
      "ĠØ§ÙĦÙĥØ¨ÙĬØ±Ø©": 2840,
      "ĠÙĪØ§Øª": 2841,
      "ĠØŃÙĬØ§ØªÙĩ": 2842,
      "ÙĦÙħØ§Øª": 2843,
      "ĠØ§ÙĦØ¬Ø§ÙħØ¹Ø©": 2844,
      "ĠØ¹ÙĦÙħØ§Ø¡": 2845,
      "ĠØ§ÙĦÙĦØ§Ø¹Ø¨": 2846,
      "Ø²ÙĬÙħ": 2847,
      "Ġ2009": 2848,
      "ĠØ¨ÙĥØ±": 2849,
      "ĠÙĤØµØ±": 2850,
      "Ø¬ÙħØ§ÙĦÙĬ": 2851,
      "ĠØŃÙħÙĦ": 2852,
      "Ø¹Ø±Ø§Ø¶": 2853,
      "ÙĪØŃØ§Øª": 2854,
      "ĠØ§ÙĦØ¹ÙħÙĦÙĬØ©": 2855,
      "ĠØ§ÙĦØ£Ø³ÙĪØ¯": 2856,
      "ĠØ£Ø±Ø³ÙĦ": 2857,
      "ĠÙħÙĨØªØ®Ø¨": 2858,
      "ÙĤØ§ÙħØ©": 2859,
      "ĠØ´Ø¹Ø¨ÙĬØ©": 2860,
      "Ø´Ø±ÙĤ": 2861,
      "ĠÙħØ±ØŃÙĦØ©": 2862,
      "ĠØ¸ÙĦ": 2863,
      "Ø¬ÙĬØ©": 2864,
      "ĠÙĬØ®": 2865,
      "ĠØ§ÙĦØ£ØŃÙħØ±": 2866,
      "11": 2867,
      "ĠØ¹Ø§ÙħÙĬ": 2868,
      "ĠØ±Ø¨ÙħØ§": 2869,
      "ĠØ§ÙĦÙħÙĪØ¬ÙĪØ¯Ø©": 2870,
      "ĠØ§ÙĦØªÙģ": 2871,
      "ĠØŃÙĬØ§Ø©": 2872,
      "ĠÙĦØ¨ÙĨØ§ÙĨ": 2873,
      "Ø¹Ùĩ": 2874,
      "Ø·ÙĪØ±": 2875,
      "Ø§Ø¦Ø¬": 2876,
      "ÙĥÙĬØ©": 2877,
      "Ø§Ø´Ø±": 2878,
      "ĠÙĪÙĥÙĦ": 2879,
      "ÙĤØ§Ø¡": 2880,
      "ĠÙĥÙĪ": 2881,
      "ØªÙĬØ¨": 2882,
      "ĠÙĪØªØ±": 2883,
      "ĠØ¬Ø¨Ø§ÙĦ": 2884,
      "Ġ)": 2885,
      "ĠØ¨ØŃÙĬØ«": 2886,
      "ĠB": 2887,
      "47": 2888,
      "ĠØ§ÙĦÙĩÙĬØ¯Ø±": 2889,
      "Ø´Ø§Ø±": 2890,
      "ĠØ§ÙĦÙħØ§ÙĦ": 2891,
      "ĠÙĬØŃØ¯Ø«": 2892,
      "ĠÙĪØªØª": 2893,
      "ĠØ§Ø³ØªØ·Ø§Ø¹": 2894,
      "ĠØªÙħØ«ÙĦ": 2895,
      "ĠØ§ÙĦØ¹ÙĦÙĪÙħ": 2896,
      "Ø¤ÙĪÙĨ": 2897,
      "ĠÙĥØ£": 2898,
      "ÙĩÙĨ": 2899,
      "ÙĬØ§ÙĨØ§Øª": 2900,
      "Ġ50": 2901,
      "ÙĥÙĪØ±": 2902,
      "·º": 2903,
      "Ø§Ø¨Ø·Ø©": 2904,
      "ØªÙħÙĬ": 2905,
      "ÙĪØ§Ø¹Ø¯": 2906,
      "Ġï·º": 2907,
      "ĠÙĬØ²ÙĬØ¯": 2908,
      "ĠÙĬØªØ¹ÙĦÙĤ": 2909,
      "Ġ2012": 2910,
      "Ġ187": 2911,
      "Ø¯ÙħØ©": 2912,
      "ÙĬÙħØ§ÙĨ": 2913,
      "ĠÙĦØ£ÙĨÙĩ": 2914,
      "ĠØ·Ø§ÙĦØ¨": 2915,
      "Ø§Ø¦Ø³": 2916,
      "ÙħÙĪÙĬØ©": 2917,
      "Ø§ÙĥØ²": 2918,
      "Ø·ÙĤ": 2919,
      "Ġ2003": 2920,
      "ĠÙĦØ§ÙĨ": 2921,
      "ĠØ£Ø¬Ø²Ø§Ø¡": 2922,
      "Ø¯ÙĬØ¯Ø§": 2923,
      "ĠÙĪÙĬÙĦ": 2924,
      "Ø§Ø¯ÙĬÙħ": 2925,
      "ĠØ¬ÙĪØ±Ø¬": 2926,
      "Ø·ÙĪÙĦ": 2927,
      "ĠØ§ÙĦÙħØŃÙĦÙĬØ©": 2928,
      "ĠÙħÙĨØªØµÙģ": 2929,
      "ĠØ§ÙĤØªØ±": 2930,
      "ĠØªØ·ÙĪØ±": 2931,
      "ÙĨØ§Ø¦ÙĬ": 2932,
      "ĠØ¨ÙħØ¹": 2933,
      "ĠÙħØ±Ø§Øª": 2934,
      "ĠÙĦÙĬØ³Øª": 2935,
      "ĠØ§ÙĦØ·Ø±ÙĬÙĤ": 2936,
      "ĠØ²ÙħÙĨ": 2937,
      "ĠÙĤÙĦÙĬ": 2938,
      "ĠÙĪØ¹ÙĨØ¯ÙħØ§": 2939,
      "ÙģØ±ÙĬÙĤÙĬØ©": 2940,
      "ĠØ§ÙĦØ¥ÙħØ§Ùħ": 2941,
      "ĠØ¢ÙĨØ°Ø§Ùĥ": 2942,
      "ĠØ³Ø¹ÙĪØ¯": 2943,
      "ÙħØ§Ø±": 2944,
      "ĠØ®ÙħØ³Ø©": 2945,
      "ĠØ§ÙĦÙĤÙħØ±": 2946,
      "ĠÙĦØ¯ÙĬÙĩØ§": 2947,
      "ĠØ§ÙĦØ¯ÙĪØ±": 2948,
      "Ø¬ÙħÙĬØ¹": 2949,
      "ĠÙĥØ«ÙĬØ±Ø©": 2950,
      "ĠØ¬Ø§Ø¦Ø²Ø©": 2951,
      "Ø¹Ø§ÙĪÙĨ": 2952,
      "ĠØªØµÙĦ": 2953,
      "ĠØ¨Ø§ÙĦÙĤØ±Ø¨": 2954,
      "ĠØŃØ§ÙĦ": 2955,
      "Ø±ÙĬØ¶": 2956,
      "ÙĬØ±ÙĬØ§": 2957,
      "ĠØªØ¹ÙĨÙĬ": 2958,
      "ĠØ±ÙĪÙħØ§": 2959,
      "Ø·Ø§Ø¡": 2960,
      "ØŃÙĨ": 2961,
      "ĠÙĪØŃØ¯Ø©": 2962,
      "ĠØ§ÙĦØ¯ÙģØ§Ø¹": 2963,
      "ĠÙĩØ¤ÙĦØ§Ø¡": 2964,
      "Ø³Ø±Ø¹Ø©": 2965,
      "ĠØ£ØºÙĦØ¨": 2966,
      "ĠØ§ÙĦÙħØŃØª": 2967,
      "ØŃØ§Øª": 2968,
      "ĠØªØºÙĬØ±": 2969,
      "ĠØ¨Ø¯ÙĪØ±": 2970,
      "ĠØªØŃØ±ÙĬØ±": 2971,
      "ĠØ§ÙĦÙħØ§Ø¯Ø©": 2972,
      "ØªØ±Ùģ": 2973,
      "ĠØ±Ø¬ÙĦ": 2974,
      "Ø§ÙĨÙĪÙĬØ©": 2975,
      "ĠØ§ÙĦØªØ¬Ø§Ø±ÙĬØ©": 2976,
      "ĠØ§ÙĦØ¬ÙħØ§": 2977,
      "ĠÙĪØ§Ø³Ø¹": 2978,
      "ĠÙĦÙĦÙĩ": 2979,
      "ĠØ¯ÙħØ´ÙĤ": 2980,
      "..": 2981,
      "ĠØ¹Ø§Ø¦ÙĦØ©": 2982,
      "Ø§ÙĩØªÙħØ§Ùħ": 2983,
      "ÙħØ²": 2984,
      "Ø¯ÙĦ": 2985,
      "Ø§Ø±Ø¶": 2986,
      "Ø®Ø¯ÙħØ©": 2987,
      "ĠØŃÙĬ": 2988,
      "Ø¯Ø±Ø¬Ø©": 2989,
      "ĠÙħÙģØª": 2990,
      "ĠØ§ÙĦÙĨÙħÙĪ": 2991,
      "ĠØ«Ø§ÙĨÙĬ": 2992,
      "ĠØ±Ø³ÙħÙĬØ§": 2993,
      "ĠÙĪØ§Ø¶": 2994,
      "ĠØªØ¨ÙĦØº": 2995,
      "Ø¹Ø§Ùħ": 2996,
      "Ø¹Ø§ÙĬØ©": 2997,
      "Ø§Ø¬ÙĩØ©": 2998,
      "Ġ188": 2999,
      "ĠØ§ÙĦÙħØ¯Ø±Ø³Ø©": 3000,
      "Ø§Ø¯Øª": 3001,
      "ĠØ§ÙĦØ£ÙĦÙħØ§ÙĨÙĬ": 3002,
      "ÙĪÙĨÙĬØ§": 3003,
      "Ø¨ÙĬØ¹": 3004,
      "ØŃÙĤ": 3005,
      "ĠØ§ÙĦØ¨Ø§Ø¨Ø§": 3006,
      "Ø¨ÙĬÙĨ": 3007,
      "ĠÙħÙĥÙĪÙĨ": 3008,
      "Ø±ÙĬÙĤÙĬ": 3009,
      "ĠØ¨Ø§ÙĦÙĦØºØ©": 3010,
      "ÙĦØ§Ø©": 3011,
      "ĠØ¹Ø§ÙĦÙĬØ©": 3012,
      "Ø§ÙĥÙĦ": 3013,
      "ÙĩÙĪØ¯ÙĬØ©": 3014,
      "ÙģØ³ÙĬØ±": 3015,
      "Ġ{": 3016,
      "ĠØ£ÙĨÙĩÙħ": 3017,
      "ÙĦÙģØ²ÙĬ": 3018,
      "ĠÙħØ¹ÙĬÙĨØ©": 3019,
      "ĠØ§ÙĦØ±Ø³ÙħÙĬØ©": 3020,
      "ĠØ³ÙĪ": 3021,
      "ĠØªØŃØ¯Ø«": 3022,
      "ĠØ§ÙĦÙĪÙĦØ§ÙĬØ©": 3023,
      "ÙħÙī": 3024,
      "ĠÙĪÙĬØ³Øª": 3025,
      "ĠÙĦÙĦØ±": 3026,
      "ĠØ¯Ø¹": 3027,
      "Ø§Ø¨Ø±": 3028,
      "ĠÙĦØ¯ÙĬÙĩÙħ": 3029,
      "ĠØ§ÙĦØ¥ÙĬØ±": 3030,
      "ĠØªØªÙĥÙĪÙĨ": 3031,
      "ĠØ§ÙĦØ§Ùħ": 3032,
      "ĠØ§ÙĦØŃØ§ÙĦÙĬ": 3033,
      "Ø§Ø¹ÙĬØ©": 3034,
      "ĠØ§ÙĦØ£Ø·ÙģØ§ÙĦ": 3035,
      "Ġ40": 3036,
      "Ø¬Ø¹": 3037,
      "ĠØ¨ÙĪØ±": 3038,
      "Ø¬Ø±ÙĬ": 3039,
      "ĠØ§ÙĦØ¨ÙĪØ§Ø¨Ø©": 3040,
      "ÙĩÙĬØ§Ø±": 3041,
      "ĠÙĦÙĨØ¯ÙĨ": 3042,
      "ĠØ§ÙĦØ³Ø§Ø¨ÙĤØ©": 3043,
      "ĠØ§ÙĦÙĨÙĩØ±": 3044,
      "ĠØ§ÙĦÙĤÙĪØ©": 3045,
      "ĠÙĪØ³ÙĬ": 3046,
      "ĠÙħÙĤØ±": 3047,
      "ĠØ´Ø¹Ø±": 3048,
      "ĠØ·ÙĪÙĬÙĦ": 3049,
      "Ø¹ÙĬÙħ": 3050,
      "ĠØ§ÙĦØ´ÙħØ§ÙĦÙĬ": 3051,
      "ĠÙħØ¹Ø¯ÙĦ": 3052,
      "ĠØ£Ø²": 3053,
      "ÙĪØ¹Ø§Øª": 3054,
      "ĠØ¥ÙģØ±ÙĬÙĤÙĬØ§": 3055,
      "it": 3056,
      "ĠØ§ÙĦØŃØ§ÙĦØ©": 3057,
      "ĠÙĪØ§Ø´": 3058,
      "Ø§ÙĤÙĬØ©": 3059,
      "Ø§ÙĦØ§": 3060,
      "ØºÙĬÙĦ": 3061,
      "ĠØ§ÙĦÙĪÙĦ": 3062,
      "ĠÙĪØ£ØµØ¨ØŃ": 3063,
      "ÙĪÙĩØ§": 3064,
      "Ø§Ø¯Ùĩ": 3065,
      "ĠÙĨØ¸Ø±ÙĬØ©": 3066,
      "ĠØ®Ø±": 3067,
      "Ø«ÙĪØ°": 3068,
      "ĠØ§ÙĦØ°Ùĩ": 3069,
      "ĠØ¨ÙĨÙģØ³": 3070,
      "ĠØ§ÙĦØ¥ÙĬØ·Ø§ÙĦÙĬ": 3071,
      "Ø³ÙģØ©": 3072,
      "ĠÙĬØ¹ÙĨÙĬ": 3073,
      "ĠÙĪÙĦÙĬØ³": 3074,
      "Ø´Ø¹": 3075,
      "ÙģÙĬØ§Øª": 3076,
      "ĠÙĦÙĬØª": 3077,
      "ÙĥÙĦØ©": 3078,
      "ĠØ³Ø§Ø¨": 3079,
      "Ø§Ø¦ÙħØ§": 3080,
      "Ø§ÙģÙĬØ§": 3081,
      "Ø§ÙĪÙĦØ©": 3082,
      "ĠÙħÙĪÙĨ": 3083,
      "ĠØ§ÙĦØ¹Ø³ÙĥØ±ÙĬ": 3084,
      "ØªÙĦÙģ": 3085,
      "Ø«ÙħØ§ÙĨ": 3086,
      "Ø¬ÙĨØ©": 3087,
      "ØªØ§Ø¦Ø¬": 3088,
      "ĠØªØŃØ¯ÙĬØ¯": 3089,
      "ĠØ¬ÙħØ¹": 3090,
      "ĠØ§ÙĦØ¨ÙĦØ¯Ø§ÙĨ": 3091,
      "Ø²ÙĬÙĨ": 3092,
      "ĠÙĪØ§ÙĦØ·": 3093,
      "Ø§Ø²ÙĬØ©": 3094,
      "ÙĬØªÙĬÙĨ": 3095,
      "ĠØ§ÙĦØ¥Ø³Ø±Ø§Ø¦ÙĬ": 3096,
      "ĠØ£ÙĥØ³": 3097,
      "ÙĤÙĪØ·": 3098,
      "ĠØ§ÙĦØ¬ÙĦ": 3099,
      "ĠÙħØ§Øª": 3100,
      "Ø°Ø¬": 3101,
      "Ø¹Ø¯Ùħ": 3102,
      "Ø¨Ø§ÙĨ": 3103,
      "ĠØ§ÙĦÙħØ¹Ø¯": 3104,
      "Ø£ÙĦÙģ": 3105,
      "ĠÙĤÙĨØ§Ø©": 3106,
      "ĠØ¹ÙħÙĦÙĬØ§Øª": 3107,
      "ØŃØ±Ø§Ø¡": 3108,
      "ĠØ§ÙħØªØ¯": 3109,
      "ĠØ£ØŃÙĬØ§ÙĨØ§": 3110,
      "ĠØ§ÙĦÙħØ«": 3111,
      "ĠÙĪØ¨Ø¯Ø£": 3112,
      "ĠÙħØªØŃ": 3113,
      "ĠØ§ÙĦÙĩÙĪØ§Ø¡": 3114,
      "ĠØ§ÙĦØ¨Ø¯Ø§ÙĬØ©": 3115,
      "ĠØªØŃÙħÙĦ": 3116,
      "ĠØ§ÙĦÙĨØ³Ø§Ø¡": 3117,
      "ÙĦÙģØ§Ø¡": 3118,
      "ĠÙĥØªØ§Ø¨Ùĩ": 3119,
      "ÙĪØ¨Ø§Øª": 3120,
      "ĠÙĬÙĪØ³Ùģ": 3121,
      "ØªÙģØ¹": 3122,
      "ĠØªØ¹ÙĪØ¯": 3123,
      "ĠØ§ÙĦÙĬÙĪÙĨØ§ÙĨÙĬØ©": 3124,
      "ĠØ¨Ø®": 3125,
      "ĠØ¹Ø§Ø´": 3126,
      "ĠØªÙĩ": 3127,
      "ĠØªØ´ÙĬØ±": 3128,
      "ĠØ§ÙĦØ£ØŃÙĬØ§ÙĨ": 3129,
      "ĠØ§ÙĦØ§Ø´ØªØ±Ø§Ùĥ": 3130,
      "ĠØ¨Ø§ÙĦØ³": 3131,
      "ÙĬØ±ÙĪ": 3132,
      "ĠØ§ÙĦØ®Ø±": 3133,
      "ĠØ§": 3134,
      "ĠØ£ÙĩÙħÙĬØ©": 3135,
      "ÙħÙĪØ¯": 3136,
      "ĠÙģØ¹ÙĦ": 3137,
      "ĠÙĬØ´ÙĥÙĦ": 3138,
      "ĠØ£Ø¯Øª": 3139,
      "ĠØ§ÙĦÙĩÙĪÙĦ": 3140,
      "40": 3141,
      "ĠÙĪØ®Ø§ØµØ©": 3142,
      "Ø¨ÙĦØ§Ø¯": 3143,
      "ÙĪØ²ÙĬØ¹": 3144,
      "ĠÙħØ´Ø±ÙĪØ¹": 3145,
      "he": 3146,
      "ÙĤÙģ": 3147,
      "ĠÙĪØ£ÙĬ": 3148,
      "ĠÙĬÙĪÙħØ§": 3149,
      "ĠØ§ÙĦÙģÙĬØ²ÙĬ": 3150,
      "ĠØ§ÙĦØ£ÙĦØ¹Ø§Ø¨": 3151,
      "ĠØ§ÙĦØ³ÙĪÙģÙĬØªÙĬ": 3152,
      "ĠØ¨Ø¹Ø¶ÙĩØ§": 3153,
      "ĠØ§Ø³ÙħÙĩ": 3154,
      "ĠØ§ÙĦÙĤØ¯Ø³": 3155,
      "ĠØ§ÙĦØµØºÙĬØ±Ø©": 3156,
      "ĠØ¨Ø§Ø±ÙĬØ³": 3157,
      "ĠØŃØ±Ø§Ø±Ø©": 3158,
      "ĠÙĤÙĬØ§Ø¯Ø©": 3159,
      "ĠØ§ÙĦÙħØ¬ÙħÙĪ": 3160,
      "ĠÙħÙĨØŃ": 3161,
      "ĠØ§ÙĦÙĤÙĦØ¨": 3162,
      "ĠØ¨Ø§ÙĦÙĥØ§ÙħÙĦ": 3163,
      "ĠÙĪØ¨ÙĦØº": 3164,
      "ĠØ§ÙĦÙģÙĦØ³Ø·ÙĬÙĨÙĬØ©": 3165,
      "ĠØ§ÙĦÙĦØ¨ÙĨ": 3166,
      "ĠØ§ÙĦÙĪØŃÙĬØ¯": 3167,
      "ĠØ£ÙħÙĬØ±": 3168,
      "ĠØ§ÙĦØ¬ÙĩØ§Ø²": 3169,
      "ĠØªÙħØ§ÙħØ§": 3170,
      "ĠØ§Ø¬ØªÙħØ§": 3171,
      "ÙĬÙĪØ±": 3172,
      "ĠØ§ÙĦÙħØ¬Ø§ÙĦ": 3173,
      "ÙĪØ§ÙĤ": 3174,
      "ĠØ§ÙĦÙħÙĪØ§ÙĤØ¹": 3175,
      "ĠÙģÙģÙĬ": 3176,
      "ÙĬØ²ÙĨØ·": 3177,
      "ĠØ¥ÙĨÙĩ": 3178,
      "ĠØªØ²Ø§ÙĦ": 3179,
      "Ø³Ø³Ø§Øª": 3180,
      "ÙĨÙĩØ§": 3181,
      "ĠØ§ÙĦØ¬Ø²Ø§Ø¦Ø±": 3182,
      "ĠØ¬ÙĩØ©": 3183,
      "ĠØ§ÙĦÙĤÙĪÙī": 3184,
      "ÙĪÙĨØ¯": 3185,
      "ÙĪØ¨Ø§": 3186,
      "Ø§ÙģØ³": 3187,
      "ĠÙĬØ¬Ø¹ÙĦ": 3188,
      "ĠØ¯ÙģØ¹": 3189,
      "ĠØ¶Ø¹": 3190,
      "ÙĤÙī": 3191,
      "Ġ29": 3192,
      "Ø§ÙĨÙĬÙĪÙĨ": 3193,
      "Ø¦Ø§": 3194,
      "ĠÙĪÙĩØ°Ùĩ": 3195,
      "ĠØ§ÙĦØ¬ÙĨÙĪØ¨ÙĬ": 3196,
      "ĠØ§ÙĦÙĨØ¨": 3197,
      "ĠØ§ÙĦØ§ÙĨØªØ®Ø§Ø¨Ø§Øª": 3198,
      "Ø§ÙĦÙĬÙħ": 3199,
      "ÙĪØ¨ÙĦ": 3200,
      "Ø§ÙĦØº": 3201,
      "ĠÙĪØ§ÙĦØ²": 3202,
      "ĠØ¨Ø§Ø¨": 3203,
      "ĠØ¥ÙĬ": 3204,
      "ÙĪÙĨØ§": 3205,
      "ĠØ§ÙĦØ¹ÙĦØ§Ø¬": 3206,
      "Ø§ÙĬØ©": 3207,
      "ĠÙĪØ§ÙĦØ³ÙĬ": 3208,
      "Ø¯ÙħØ§Øª": 3209,
      "ĠØ§ÙĦØ£ÙĪÙĦÙħ": 3210,
      "ĠØ§ÙĦÙħØ±ØŃÙĦØ©": 3211,
      "Ø²ÙĬÙħØ©": 3212,
      "ĠÙĥØ§ÙħÙĦ": 3213,
      "ĠØ£ØµØ¯Ø±": 3214,
      "ĠÙĦØº": 3215,
      "ĠØ§ÙĦØŃØµÙĪÙĦ": 3216,
      "25": 3217,
      "ĠØ§ÙĦÙģØ¶": 3218,
      "ĠØ±Ø¦ÙĬØ³Ø§": 3219,
      "ĠØ¨ÙĨØ³Ø¨Ø©": 3220,
      "ÙĪÙĦÙĬÙĨ": 3221,
      "ÙĥØ§Ùħ": 3222,
      "ĠØ§ÙĦØ¥ÙĤÙĦÙĬÙħ": 3223,
      "ĠØ§ÙĦØ§Ø³ØªÙĤÙĦØ§ÙĦ": 3224,
      "ĠØ§ÙĦØ²Ø±Ø§Ø¹": 3225,
      "ÙĪØŃÙĬØ¯": 3226,
      "ĠØ¯Ø±Ø¬": 3227,
      "ĠØ§ÙĦØªØ§Ø±ÙĬØ®ÙĬØ©": 3228,
      "ĠØ¥Ø³ÙħØ§Ø¹ÙĬÙĦ": 3229,
      "ÙģØ±Ø¯": 3230,
      "ĠØ¯Ø¹Ùħ": 3231,
      "ĠØ§ÙĦØªØ¬Ø§Ø±Ø©": 3232,
      "ÙĪÙĦØ§ÙĬØ§Øª": 3233,
      "ĠØ§ÙĨØ¶Ùħ": 3234,
      "ØŃØ¯Ø¯": 3235,
      "ĠÙģØ¥ÙĨÙĩ": 3236,
      "ĠØ§ÙĦÙĪØ§ÙĤØ¹": 3237,
      "ĠØ§ÙĦØ£ÙĨÙĪØ§Ø¹": 3238,
      "ÙħÙĩ": 3239,
      "ĠØ§ÙĦÙħØ³Ø¬Ø¯": 3240,
      "ÙĬÙĨÙĬØ§": 3241,
      "Ġ2002": 3242,
      "ĠØ§ÙĦØ¬Ø¨ÙĦ": 3243,
      "ĠØŃÙĤÙĪÙĤ": 3244,
      "ÙĥØ±ÙĬ": 3245,
      "ĠØªÙĨØ¸ÙĬÙħ": 3246,
      "ÙĨØ§ÙĪÙĦ": 3247,
      "Ø´ØŃ": 3248,
      "ĠØ£ÙģØ±Ø§Ø¯": 3249,
      "ĠØŃØ³ÙĬÙĨ": 3250,
      "ĠØªØ³Ø¨Ø¨": 3251,
      "ĠÙĪÙĬØªÙħ": 3252,
      "ĠØ§ÙĦÙĤÙĦ": 3253,
      "Ø²Ø§Ùħ": 3254,
      "Ø¦Ùĥ": 3255,
      "Ø®Ø±Ø§Ø¬": 3256,
      "ĠØ§ÙĦØ¨Ø±ÙĦÙħØ§ÙĨ": 3257,
      "ĠØªØŃÙĤÙĬÙĤ": 3258,
      "ĠÙĨÙħ": 3259,
      "ĠØ§ÙĦØ´Ø¹Ø¨ÙĬØ©": 3260,
      "ĠØ§ÙĦØ¨Ø±Øª": 3261,
      "ĠØ§ÙĦÙĨÙĩØ§Ø¦ÙĬ": 3262,
      "ĠÙĪØ§Ø³ØªÙħØ±": 3263,
      "Ø§Ø¦Ø±Ø§Øª": 3264,
      "ĠØ§ÙĦØ³ÙĬØ·Ø±Ø©": 3265,
      "ĠÙĪÙħÙĪ": 3266,
      "ÙģÙĩÙĪÙħ": 3267,
      "ĠÙĦÙĦØµ": 3268,
      "ĠØ·Ø±ÙĬÙĤØ©": 3269,
      "ĠÙħØ¹ÙĩÙħ": 3270,
      "Ø§ÙĬØ¯": 3271,
      "ĠØ£Ø³Ø±Ø©": 3272,
      "ØªØ±Ø§ÙĪØŃ": 3273,
      "ĠÙĪØ±Ø¯": 3274,
      "ĠØ£Ø³Ø±": 3275,
      "ØŃÙĬØŃ": 3276,
      "ĠÙĩÙĬØ¦Ø©": 3277,
      "Ø«ÙĪØ°ÙĥØ³": 3278,
      "ĠÙĤØ¯ÙĬ": 3279,
      "ĠØ§ÙĦÙĪØ§ØŃ": 3280,
      "ĠÙħØ·": 3281,
      "ÙĦØ§ÙĬÙĬÙĨ": 3282,
      "Ø³Ø¨ÙĪØ¹": 3283,
      "ĠØ§ÙĦØ¹ÙĦÙħÙĬØ©": 3284,
      "60": 3285,
      "ĠÙħØªØ¹Ø¯Ø¯Ø©": 3286,
      "ÙĪØ§Øµ": 3287,
      "ĠØ¯Ø§": 3288,
      "ĠÙģÙĥØ±Ø©": 3289,
      "ĠÙĬØŃØªÙĪÙĬ": 3290,
      "ĠØ§ÙĦÙĬØ§Ø¨Ø§ÙĨ": 3291,
      "ÙĬÙĪÙĬØ©": 3292,
      "ÙĩÙĪÙĦØ©": 3293,
      "Ø±Ø¨Ø·": 3294,
      "Ø¨Ø¹Ø¯": 3295,
      "ĠR": 3296,
      "Ø¹ÙĪØ¯": 3297,
      "Ø§ÙģÙĤØ©": 3298,
      "ĠØ£ÙĩØ¯Ø§Ùģ": 3299,
      "ĠØ§ÙĦØ³ÙĬÙĨ": 3300,
      "ØªÙĦÙĥ": 3301,
      "Ø£ÙĪ": 3302,
      "ĠØ§ÙĦØ®ÙĦÙĬØ¬": 3303,
      "ĠÙĥÙĬÙĦÙĪÙħØªØ±": 3304,
      "ĠØ§ÙĦØ¨Ø§Ø¨": 3305,
      "ÙĪØ¨ÙĬØ©": 3306,
      "ĠÙĦØ£ÙĬ": 3307,
      "ÙĬÙĤÙĬØ©": 3308,
      "us": 3309,
      "ĠÙħØ§Ùĥ": 3310,
      "ÙĦÙĤÙī": 3311,
      "ĠØ§ÙĦØ¨ÙĬØ²ÙĨØ·": 3312,
      "ĠØ§ÙĦØªØ§Ø¨Ø¹Ø©": 3313,
      "ĠÙħÙĥØ©": 3314,
      "ĠÙĪØ£Ø¯": 3315,
      "Ø±ÙĬØŃ": 3316,
      "ĠÙģØµ": 3317,
      "ĠØ§ÙĦÙģØ§Ø±": 3318,
      "ĠØ§ÙĦØºØ°": 3319,
      "ĠØ§ÙĦØ¬ÙĪ": 3320,
      "Â«": 3321,
      "ĠØ§ÙĦØ¥ÙħØ¨Ø±Ø§Ø·ÙĪØ±": 3322,
      "ĠÙĪØ§Ø³Ø¹Ø©": 3323,
      "ĠÙħØ¨ÙĨÙī": 3324,
      "ĠØ³ÙĬØ±": 3325,
      "ĠØ§ÙĦØ·Ø±ÙĬÙĤØ©": 3326,
      "ĠÙĥÙĦÙĬØ©": 3327,
      "ĠØ§ÙĦØ¨Ø´Ø±ÙĬØ©": 3328,
      "ÙĪØ±ÙĪ": 3329,
      "ĠÙģØµÙĦ": 3330,
      "ĠØ§ÙĦØ£ÙĤÙĦ": 3331,
      "ØªØ§ØŃ": 3332,
      "ĠØ§ÙĦØ¬ÙĪÙĬØ©": 3333,
      "ĠÙĪØ¨Ø±": 3334,
      "Ø§Ø¦Øµ": 3335,
      "ĠØ§Ø¶Ø·Ø±": 3336,
      "Ø±ÙĬØ´": 3337,
      "ĠÙĨØ´": 3338,
      "ĠØµÙĨØ§Ø¹Ø©": 3339,
      "ĠØ¯ÙĪØ±Ø§": 3340,
      "ĠØªØ§": 3341,
      "ĠØ§ÙĥØªØ´Ø§Ùģ": 3342,
      "ĠØŃØ³ÙĨ": 3343,
      "ĠÙĪÙħØ±": 3344,
      "ĠÙĬØ²Ø§ÙĦ": 3345,
      "ĠØ§ÙĦØ´ÙĬ": 3346,
      "ĠØ§ÙĦÙĤØ¨Ø§Ø¦ÙĦ": 3347,
      "Ø§Ø¶ÙĬØ©": 3348,
      "ĠÙĪÙĨØªÙĬØ¬Ø©": 3349,
      "ĠØ§Ø¹ØªØ¨Ø±": 3350,
      "ĠØŃØ§ÙĪÙĦ": 3351,
      "Ø³ÙĦÙħ": 3352,
      "ĠØ³Ø±ÙĬ": 3353,
      "Ġ2001": 3354,
      "ÙĪÙĦØ§ÙĬØ©": 3355,
      "ĠØ§Ø¨ÙĨÙĩ": 3356,
      "ĠØªÙĪÙĦÙī": 3357,
      "ĠØ§ÙĦØ¯ÙĨ": 3358,
      "ĠØ§ÙĦØŃØ³ÙĨ": 3359,
      "ĠÙħÙĩÙħØ©": 3360,
      "el": 3361,
      "ĠØ§ÙĦØµÙĦÙĬ": 3362,
      "ĠØ¨Ø§Ø¹ØªØ¨Ø§Ø±": 3363,
      "ĠØŃØµ": 3364,
      "ĠØ§ÙĦÙĤØ§Ø±Ø©": 3365,
      "ÙĬÙĨÙĪ": 3366,
      "ÙģØ§Ø¸": 3367,
      "ĠØ§ÙĦÙĦØ§ØªÙĬÙĨÙĬØ©": 3368,
      "ĠØ§ÙĦØ¥ÙĨØªØ§Ø¬": 3369,
      "Ø§ÙĦØ¬": 3370,
      "ĠØ§ÙĦØŃÙĬ": 3371,
      "ÙĥØ°Ø§": 3372,
      "ĠÙĥØ§Ùħ": 3373,
      "ĠÙĨØ´Ø§Ø·": 3374,
      "ØªØµØ±": 3375,
      "ĠØ§ÙĦØ£Ø¬": 3376,
      "ĠÙĬØªÙĥÙĪÙĨ": 3377,
      "ĠÙĪØ§ÙĦØ¹Ø´Ø±ÙĬÙĨ": 3378,
      "ĠÙĪØ²Ø§Ø±Ø©": 3379,
      "ÙħÙĪØ²": 3380,
      "ĠØ§ÙĦØ¯ÙĥØªÙĪØ±": 3381,
      "Ġ=": 3382,
      "ÙħØ±Ø§Ø¡": 3383,
      "ÙĪÙĬÙģ": 3384,
      "\"ØĮ": 3385,
      "ĠØªÙĬ": 3386,
      "Ø§Ø³ÙĦ": 3387,
      "ĠØ§ÙĦØ§ÙĤØªØµØ§Ø¯": 3388,
      "ĠÙĨÙĪ": 3389,
      "ĠØ§ÙĦØ·Ø¨ÙĬØ¹ÙĬ": 3390,
      "ÙħØ¨Ø±Ø§Ø·ÙĪØ±ÙĬØ©": 3391,
      "ĠØ§ØªØŃØ§Ø¯": 3392,
      "ro": 3393,
      "Ø¹Ø±ÙģØ©": 3394,
      "ĠÙħØ¨Ø¯Ø£": 3395,
      "ÙĪØ§Ùĥ": 3396,
      "Ø¯Ø±Ø³": 3397,
      "ĠØ³Ø§Ø¨ÙĤØ§": 3398,
      "ÙĬØ§Ø¨": 3399,
      "ĠØ§ÙĦÙħÙĨØªØ®Ø¨": 3400,
      "ĠÙĦÙĦÙħÙĨ": 3401,
      "Ø¨Ø±ÙĬØ©": 3402,
      "ĠØ§ÙĦØ·ÙĦ": 3403,
      "ĠØ¹Ø§ÙħØ©": 3404,
      "ĠØ£ØµÙĪÙĦ": 3405,
      "ĠØ±Ø¬Ø§ÙĦ": 3406,
      "ĠØ§ÙĦØ£Ø·ÙĦ": 3407,
      "ÙĪÙĬÙĪØ±Ùĥ": 3408,
      "ĠØµØºÙĬØ±": 3409,
      "ÙĬÙģØ§": 3410,
      "ĠØ§ÙĦØ¥ÙĨØ¬ÙĦÙĬØ²ÙĬ": 3411,
      "ĠØªØ£Ø³Ø³Øª": 3412,
      "ĠØ¬Ø§ÙĨ": 3413,
      "ÙĪØ§Ø¬Ø¯": 3414,
      "Ø¹ÙĦÙĪÙħ": 3415,
      "ĠÙĬÙĪ": 3416,
      "ĠØªØ¹ÙĦÙĬÙħ": 3417,
      "ĠØ§Ø®ØªÙĬØ§Ø±": 3418,
      "ĠØ§ÙĦØ¬Ø§ÙĨØ¨": 3419,
      "ĠØ¥Ø·ÙĦØ§ÙĤ": 3420,
      "ĠØ§ÙĦÙħØ¬Ø±": 3421,
      "ØºØ±Ø§Ø¶": 3422,
      "Ø§Ø¦ÙĬØ§Øª": 3423,
      "ĠØ§ÙĦÙħØ¹Ø±ÙĪÙģØ©": 3424,
      "Ø°ÙĪØ±": 3425,
      "ØµØ±Ùģ": 3426,
      "ĠÙĪØ±Ø§Ø¡": 3427,
      "Ø¹ÙĦÙħ": 3428,
      "ĠØ§ÙĦØ§ÙĤØªØµØ§Ø¯ÙĬ": 3429,
      "ÙĤØ§Øª": 3430,
      "ĠØ§ÙĦÙĦÙĪÙĨ": 3431,
      "ĠØ¨Ø³ÙĬ": 3432,
      "ĠÙĪØ£ÙĬØ¶Ø§": 3433,
      "ÙĬÙĦÙĬØ©": 3434,
      "Ø³Ø¯": 3435,
      "ĠØ²ÙĬ": 3436,
      "ÙĥØ³Ø¬ÙĬÙĨ": 3437,
      "ĠÙħÙĬ": 3438,
      "ĠÙĪØ£Ø®": 3439,
      "ĠÙĬØŃÙħÙĦ": 3440,
      "ĠÙĪÙħÙĨÙĩØ§": 3441,
      "ÙĩØ§Ùħ": 3442,
      "ØªØµØ§Ø±": 3443,
      "ÙħÙĦÙĥØ©": 3444,
      "ĠØ§ÙĦØ«ÙĦØ§Ø«Ø©": 3445,
      "ĠØ§ÙĦÙħØ³ÙĦÙħÙĪÙĨ": 3446,
      "Ø§Ø²ÙħØ©": 3447,
      "ĠØ§ÙĦØ·Ø±ÙĤ": 3448,
      "ÙģØµ": 3449,
      "ĠØ§ÙĦÙĨÙģØ³": 3450,
      "ĠØ§ÙĦØ®ÙĦØ§ÙģØ©": 3451,
      "ĠØ§ÙĦØ¥Ø³ÙĥÙĨØ¯Ø±ÙĬØ©": 3452,
      "ĠÙģÙĬÙĨ": 3453,
      "199": 3454,
      "ĠØ§ÙĦÙĪØ§ÙĤØ¹Ø©": 3455,
      "80": 3456,
      "Ø¹ÙħØ±": 3457,
      "ĠØ§ÙĦØªÙĤÙĪÙĬÙħ": 3458,
      "ĠØ§ÙĦØ¨ÙĪÙĦ": 3459,
      "Ø§Ø·Ø©": 3460,
      "ĠÙĩÙħØ§": 3461,
      "ĠØ§ÙĦØŃØ§ÙĦ": 3462,
      "Ø®ÙģØ§Ø¶": 3463,
      "ĠØ§ÙĦØ®Ø¨Ø±": 3464,
      "Ø¨ÙĩØ©": 3465,
      "ĠN": 3466,
      "ĠØ¨Ø·Ø±": 3467,
      "Ø¬Ø§Ø²": 3468,
      "ĠØ§ÙĦØ£Ø¹ÙĦÙī": 3469,
      "ĠØ£Ø´ÙĥØ§ÙĦ": 3470,
      "Ø§Ø¦ÙĨØ§Øª": 3471,
      "ĠØ³Ùģ": 3472,
      "ĠL": 3473,
      "ĠØ§ÙĦÙĨÙĩØ§ÙĬØ©": 3474,
      "ĠÙĪÙĦÙĥÙĨÙĩØ§": 3475,
      "ĠÙĬØ´ÙĬØ±": 3476,
      "ØªØ±Ø¶": 3477,
      "ĠØ³Ø¨Ø¨": 3478,
      "Ø¹ÙĦØ§Ùħ": 3479,
      "ĠØ´ÙĬÙĪ": 3480,
      "ĠØ§ÙĦØ¯Ø±Ø§Ø³Ø§Øª": 3481,
      "ĠÙģØ§Ø±": 3482,
      "ĠÙĤØ·Ø±": 3483,
      "Ø¬ÙħÙĪØ¹Ø©": 3484,
      "ĠØ¹Ø¶ÙĪ": 3485,
      "Ø·ÙĨØ§Ø¹": 3486,
      "ĠØ«Ø§Ø¨Øª": 3487,
      "ĠØ§ÙĦØ¹Øµ": 3488,
      "ĠØ§ÙĦÙĤÙĬ": 3489,
      "Ø±ÙĬØ¬": 3490,
      "ĠØ§ÙĦØ±ÙĪØ³ÙĬØ©": 3491,
      "ĠØµØ§ØŃØ¨": 3492,
      "ĠØ§ÙĦØµÙĪØª": 3493,
      "Ø³ØªØ±Ø§ÙĦÙĬØ§": 3494,
      "ØºÙĪ": 3495,
      "Ø±ÙĬØ¯Ø©": 3496,
      "Ø¹ÙħØ§Ø±": 3497,
      "ĠØªØ´ÙĥÙĬÙĦ": 3498,
      "ÙģÙĪ": 3499,
      "ĠØµÙĪØª": 3500,
      "ÙĦØ§Ùħ": 3501,
      "ĠÙĪØªØ²": 3502,
      "ĠÙĤÙĬØ§Ø³": 3503,
      "ĠØ§ÙĦØ´Ø®ØµÙĬØ©": 3504,
      "ĠÙĪØ²ÙĬØ±": 3505,
      "ÙħØ«ÙĦ": 3506,
      "ĠØ§ÙĦØ¥Ø³Ø±Ø§Ø¦ÙĬÙĦÙĬ": 3507,
      "ĠÙĦÙĦØ·": 3508,
      "Ø§Ø¦Ø¹Ø©": 3509,
      "Ø§Ø±Ùģ": 3510,
      "ĠÙĬÙĦÙĬ": 3511,
      "ĠÙĬØ§": 3512,
      "ØªØ§Ø¡": 3513,
      "ĠÙĤØ±Ø¨": 3514,
      "ĠØ§ÙĦØ§Ø±": 3515,
      "ĠØ¨ÙĬÙĨÙĩØ§": 3516,
      "ĠØ§ÙĦØŃØ§ÙĦØ§Øª": 3517,
      "ÙĤØµ": 3518,
      "ÙĪØ¶ÙĪØ¹": 3519,
      "Ø¹ÙĪÙĨ": 3520,
      "ĠÙĨØ§ØŃÙĬØ©": 3521,
      "ĠØ´Ø®ØµÙĬØ©": 3522,
      "ĠØ§ÙĦÙģØµ": 3523,
      "Ø¸Ø§ÙĩØ±": 3524,
      "ĠÙħØ¬ÙĦ": 3525,
      "ØªØ¯Ø§Ø¡": 3526,
      "ĠØ¬ÙĦ": 3527,
      "ĠØ£Ø³Øª": 3528,
      "ĠØ£Ø¨ÙĨØ§Ø¡": 3529,
      "ÙħØ§Ùĥ": 3530,
      "ĠØ§ÙĦÙĥØ§Ø«ÙĪÙĦÙĬÙĥÙĬØ©": 3531,
      "ĠØ£Ø¶": 3532,
      "ĠG": 3533,
      "Ø¨ÙĪØ·": 3534,
      "ĠØ¥Ø¬Ø±Ø§Ø¡": 3535,
      "ĠÙĪÙĨØ³Ø¨Ø©": 3536,
      "ĠØ®Ø±Ø¬": 3537,
      "Ø§ØªØŃØ§Ø¯": 3538,
      "ØªØ¨Ø§Ø¹": 3539,
      "ĠÙĥÙĨÙĬØ³Ø©": 3540,
      "ÙĪØªÙĩ": 3541,
      "ĠØ¹Ø±ÙģØª": 3542,
      "ĠÙħØ³Ø¤": 3543,
      "ĠØ³ÙĪÙī": 3544,
      "ĠØ¨Ø¯ÙĪÙĨ": 3545,
      "ØªØ§Ø²": 3546,
      "ĠÙħÙĨÙĤ": 3547,
      "ĠØ¹Ø²": 3548,
      "ÙĬØªØ´": 3549,
      "ĠØ§ÙĦÙħØ¯Ø§Ø±Ø³": 3550,
      "ĠØ§ÙĦÙĩØ±": 3551,
      "ĠØ§ÙģØª": 3552,
      "ÙħÙĬØ±": 3553,
      "23": 3554,
      "ĠI": 3555,
      "ĠØ§ÙĦÙĥÙĦÙħØ©": 3556,
      "ĠØ£ÙĨØ´": 3557,
      "Ø¨Ø§Ø·": 3558,
      "Ø¯ÙĪÙĨ": 3559,
      "Ø§ØŃØ¸": 3560,
      "ĠØ§ØŃØªÙĦØª": 3561,
      "ÙħØ§ÙĦÙĥ": 3562,
      "ĠØ±ÙĪÙħ": 3563,
      "ĠØŃØ¯ÙĪØ«": 3564,
      "ĠÙĪÙĬØ¹ØªØ¨Ø±": 3565,
      "ÙĬÙħÙĨ": 3566,
      "ÙĪÙĦÙĪØ¬ÙĬØ©": 3567,
      "ĠØ¹Ø¶ÙĪØ§": 3568,
      "Ø§Ø¦ÙĦØ§Øª": 3569,
      "ĠØ§ÙĦØ£ÙĩÙĦÙĬ": 3570,
      "ĠÙħØ¯Ø©": 3571,
      "ĠF": 3572,
      "Ø§ÙĦÙĬÙĨ": 3573,
      "ĠØŃØ§ÙĦØ§Øª": 3574,
      ".Â»": 3575,
      "ĠØ§ÙĦØ¥ÙĨØªØ±": 3576,
      "ĠØ§ÙĦÙĨÙĪÙĪÙĬ": 3577,
      "ĠØ§ÙĦÙģØ±Ø¯": 3578,
      "ÙģØ§Ùģ": 3579,
      "ĠÙģØ±ÙĤ": 3580,
      "ĠØ§ÙĦÙħØ§Ø¶ÙĬ": 3581,
      "ĠØ§ÙĦØŃØ§ÙĦÙĬØ©": 3582,
      "ĠÙĪØ§ÙĦÙħÙĪ": 3583,
      "ĠØ§ÙĦØªÙĥ": 3584,
      "Ø®ÙĦØµ": 3585,
      "ĠØ´ÙĩØ¯Øª": 3586,
      "ĠÙħØ¹Ø§": 3587,
      "ĠØ§ÙĦØ±ÙĪÙħØ§ÙĨ": 3588,
      "Ø¯ÙĬÙĦØ§Øª": 3589,
      "Ø¯Ø±Ø§Ø³Ø©": 3590,
      "ĠÙħØ¯Ùī": 3591,
      "Ø²ÙĬØ¦Ø§Øª": 3592,
      "Ø§Ø¶Ø©": 3593,
      "ØªØ±ÙĥØ©": 3594,
      "Ø«Ø±Ø©": 3595,
      "Ø¦ÙĪÙĬØ©": 3596,
      "ĠØ§ÙĦØ£Ø´Ø®Ø§Øµ": 3597,
      "ĠØ¯Ø±Ø¬Ø§Øª": 3598,
      "ĠØ§ÙĦØŃØ³ÙĬÙĨ": 3599,
      "ÙĬØ¨Ø©": 3600,
      "ĠØ§ÙĦÙĥØªØ¨": 3601,
      "Ø²ÙĨ": 3602,
      "ĠØ§ÙĦÙħÙĨØ§Ø®": 3603,
      "ÙĩØ§Øª": 3604,
      "ĠØ®ÙĦØ§ÙĦÙĩØ§": 3605,
      "ĠØ§ÙĦØªØ¨": 3606,
      "ĠØ§ÙĦØ«Ø§ÙħÙĨØ©": 3607,
      "Ø§ØªÙĦ": 3608,
      "ĠØ§ÙĦØ¹Ø±Ø§ÙĤÙĬØ©": 3609,
      "Ø¹Ø¯Ø§Ùħ": 3610,
      "Ø§ÙĦÙĤ": 3611,
      "ĠÙĪÙģØ§ØªÙĩ": 3612,
      "ĠØªØ¹Ø¯Ø§Ø¯": 3613,
      "ĠØ§ÙĦØ£ÙĨØ¯": 3614,
      "ÙĩÙĪÙĦ": 3615,
      "ĠØ¹ÙħØ§ÙĨ": 3616,
      "ĠØ¨ØŃØ³Ø¨": 3617,
      "ÙħØ±Ø¶": 3618,
      "Ø§Ø¯Ø¦": 3619,
      "ĠØ§ÙĦØ¹ÙĦØ§ÙĤØ§Øª": 3620,
      "ĠÙħÙĦØ¹Ø¨": 3621,
      "ĠØ¢ÙĦØ§Ùģ": 3622,
      "Ø¨Ø§Ø¡": 3623,
      "Ø§ÙĪØ±Ø©": 3624,
      "ÙĬØªÙĬ": 3625,
      "ĠØ¬Ø§Ùħ": 3626,
      "ĠØ§ÙĦÙħÙĪÙĤØ¹": 3627,
      "ĠØ«ÙĪØ±Ø©": 3628,
      "ĠÙĪØ§ÙĦØ¢": 3629,
      "ĠØ§ÙĦØ¬Ø²Ø±": 3630,
      "ĠØªØ¹ØªÙħØ¯": 3631,
      "ĠØ·Ø±ÙĤ": 3632,
      "ĠÙĦÙĦØ§Ø³Øª": 3633,
      "ĠØ§ÙĦØ¶Ø±": 3634,
      "Ø§Ø¬Ø¯": 3635,
      "Ø§Ø·ÙĨÙĬÙĨ": 3636,
      "ĠØ§ÙĦÙģØ±ÙĤ": 3637,
      "re": 3638,
      "ĠÙħØµØ¯Ø±": 3639,
      "Ø§Ø±Ø¨Ø©": 3640,
      "ĠØ§ÙĦÙħØ§ÙĦÙĬØ©": 3641,
      "ĠØ£ÙĪÙĦØ¦Ùĥ": 3642,
      "ÙĪÙĬÙĬÙĨ": 3643,
      "ĠØ§ÙĦÙħÙĦÙĥÙĬ": 3644,
      "ĠØ§Ø¬": 3645,
      "ĠØ§ÙĦØ³ÙĪØ±ÙĬØ©": 3646,
      "ĠØ§ÙĦØ¶ØºØ·": 3647,
      "ĠØ¥ØµØ¯Ø§Ø±": 3648,
      "ÙĬÙĪØ´": 3649,
      "ĠØ¯ÙĪØ±Ø©": 3650,
      "ĠØ³Ø§ÙĩÙħ": 3651,
      "\".": 3652,
      "ĠØ§ÙĦÙĪØµÙĪÙĦ": 3653,
      "ĠØ®ØµÙĪØµ": 3654,
      "Ø³ÙĬÙħØ§Øª": 3655,
      "ØºÙĦØ¨": 3656,
      "Ø§Ø¦ØŃ": 3657,
      "ĠÙĦÙĥÙĨÙĩØ§": 3658,
      "ĠØ¬ÙĩØ§Ø²": 3659,
      "ĠØ§ÙĦØ¯Ø±Ø¬Ø©": 3660,
      "ĠÙĦÙĦØ®": 3661,
      "ĠØ¹ÙħÙĪ": 3662,
      "Ø¨ÙĪØ¨": 3663,
      "ĠØ£ÙħØ±ÙĬÙĥÙĬ": 3664,
      "Ø§Ø¯ÙĬÙħÙĬØ©": 3665,
      "ĠØ¨Ø³Ø±Ø¹Ø©": 3666,
      "ØªØ¨Ø§Ø·": 3667,
      "ĠØ§ÙĦÙħØ¤ØªÙħØ±": 3668,
      "Ø·Ø±Ø©": 3669,
      "Ø§Ø±Ø¶Ø©": 3670,
      "Ø§ÙĦÙĬÙģ": 3671,
      "Ø´ÙĬØ©": 3672,
      "ĠØ§ÙĦØ³Ø§ØŃÙĦ": 3673,
      "ĠØªÙĪÙĨØ³": 3674,
      "ĠÙĤØ§Ø±": 3675,
      "ÙĪÙĬØ¬": 3676,
      "ĠÙĪØ§ÙĦØ§Ø³Øª": 3677,
      "ÙĪØ·ÙĨ": 3678,
      "ĠØ³ØªØ©": 3679,
      "ÙĪØ¬Ø¨": 3680,
      "ĠØ§ÙĦÙĥØ±Ø¨ÙĪÙĨ": 3681,
      "ĠÙħØŃØ§ÙĪÙĦØ©": 3682,
      "ĠÙĤÙĬ": 3683,
      "ØŃØµØ§Ø¡": 3684,
      "ĠÙĪØ£ØµØ¨ØŃØª": 3685,
      "ĠØ§ÙĦÙĬÙĩÙĪØ¯ÙĬØ©": 3686,
      "ĠØ¨Ø±ÙĪØª": 3687,
      "ol": 3688,
      "ĠØ£ØºÙĨÙĬØ©": 3689,
      "ÙĬÙĪØ§ÙĨ": 3690,
      "ØºØ§ÙĨ": 3691,
      "Ø±ÙĤÙĬØ©": 3692,
      "Ø®ÙģØ¶Ø©": 3693,
      "ØŃÙĬØ¯Ø©": 3694,
      "ĠØ£ÙĤÙĬÙħ": 3695,
      "ĠÙĦØªØŃÙĤÙĬÙĤ": 3696,
      "Ø¹ÙĦÙī": 3697,
      "ÙĦÙĬØ¯": 3698,
      "ĠØ§ÙĦÙĨØ²": 3699,
      "Ø¹Ø±Ø§ÙĤ": 3700,
      "ĠÙħØ¹Ø§ÙĩØ¯Ø©": 3701,
      "Ø§Ø·Ø¦": 3702,
      "ĠØ§ÙĦØ±Ø³ÙĪÙĦ": 3703,
      "ĠÙĤÙĬÙħØ©": 3704,
      "ĠÙħØ¬ÙħÙĪØ¹": 3705,
      "ÙĪØ§Ø¦ÙĬØ©": 3706,
      "Ø®ÙĬØµ": 3707,
      "ĠÙĤÙĬØ§Ùħ": 3708,
      "ĠØ¹Ø¯Ø¯Ø§": 3709,
      "ÙĪÙĨØº": 3710,
      "Ø®ÙħØ©": 3711,
      "Ø£ÙĦ": 3712,
      "ĠÙģØ±Ø¶": 3713,
      "ĠÙĪØ¨ØŃ": 3714,
      "ĠØ§ÙĦÙĤÙĬØ§Ø³": 3715,
      "ĠØ¥Ø³ÙĦØ§Ùħ": 3716,
      "ĠØªÙĤØ¯ÙĬÙħ": 3717,
      "ĠÙħÙĦÙĬØ§Ø±": 3718,
      "ĠØ³ÙĪØ±": 3719,
      "ĠØ¹ÙĦØ§ÙĤØ©": 3720,
      "ĠØ§ÙĦÙĨØ¸Ø±": 3721,
      "ĠØ§ÙĦÙħØµØ·ÙĦØŃ": 3722,
      "ĠØ«Ø§ÙĨÙĬØ©": 3723,
      "ĠØ¨Ø§ÙĦØ¯": 3724,
      "ĠØªØºÙĬÙĬØ±": 3725,
      "22": 3726,
      "Ø§Ø³Ø¨Ø©": 3727,
      "ĠØ§ÙĦÙģÙĪØ±": 3728,
      "ĠÙĨØ¬Ø¯": 3729,
      "Ø¬ÙĦÙĬØ²ÙĬØ©": 3730,
      "ĠÙĨÙĬÙĪÙĬÙĪØ±Ùĥ": 3731,
      "ĠØ§ÙĦÙĨØ¬": 3732,
      "ĠÙĩÙĪÙĦÙĨØ¯Ø§": 3733,
      "Ġ1998": 3734,
      "ĠØ§ÙĦØ¨Ø§ØŃØ«": 3735,
      "ĠØªØ¶": 3736,
      "Ø§Ø¨ÙĬÙĨ": 3737,
      "ĠØ®ÙĦØ§ÙĬØ§": 3738,
      "ĠÙħØ·ÙĦ": 3739,
      "ĠØ§ÙĦÙģÙĦÙĥ": 3740,
      "ĠÙĥÙĬ": 3741,
      "ĠØŃÙĤÙĤ": 3742,
      "Ø¨Ø§ØŃ": 3743,
      "ĠØ·ÙĦ": 3744,
      "ÙĤØ§ÙĪÙħØ©": 3745,
      "ĠØ¯Ø®ÙĪÙĦ": 3746,
      "ĠØ£Ùĩ": 3747,
      "ĠØ§ÙĦØ§Ø¬ØªÙħØ§Ø¹ÙĬ": 3748,
      "Ø§Ø¦ÙĨ": 3749,
      "ĠØ§ÙĦØ¨ØŃØ«": 3750,
      "ĠØ§Øº": 3751,
      "Ø¨Ø³": 3752,
      "ĠØµÙĪØ±Ø©": 3753,
      "ĠØ³Ø¹ÙĬØ¯": 3754,
      "Ø¯Ø§Ø±Ø©": 3755,
      "ÙħÙĬÙĦ": 3756,
      "ĠÙĬÙĦØ¹Ø¨": 3757,
      "ĠÙħØ§Ø¯Ø©": 3758,
      "ÙĪØ®": 3759,
      "ĠÙĦÙĦÙħØ±Ø©": 3760,
      "ĠØ§ÙĦÙħØ¹Ø§Ø¯": 3761,
      "ĠØ¨Ø¹Ø¯Ùĩ": 3762,
      "Ø¶Ø§ÙĨ": 3763,
      "ĠØ£ÙĨØ´Ø£": 3764,
      "ĠØªØ®ØªÙĦÙģ": 3765,
      "Ø§ØµÙĬÙĦ": 3766,
      "ĠÙĤØ±Ø±": 3767,
      "ĠØ§ÙĦØ³ÙĬØ§Ø³Ø©": 3768,
      "ĠØ§ÙĦØ¢Ø«Ø§Ø±": 3769,
      "ĠØªØ±ÙĥÙĬØ§": 3770,
      "Ø®Ø±Ø©": 3771,
      "Ø§ÙĨØª": 3772,
      "Ø¹Ø§Ø¡": 3773,
      "ĠØ§ÙĦØ®Øµ": 3774,
      "Ø¬ÙĦØ©": 3775,
      "ĠØªØ²ÙĪØ¬": 3776,
      "ĠØ§ÙĦØ³Ø§ØŃ": 3777,
      "ĠØ§Ø³ØªÙĤÙĦØ§ÙĦ": 3778,
      "ÙĨØªÙĬÙĨ": 3779,
      "ĠØ§ÙĦØ£Ø±Ø«ÙĪØ°ÙĥØ³": 3780,
      "ĠØ¨Ø¯Ø¡": 3781,
      "ĠØ§ÙĦØŃÙĦ": 3782,
      "ĠÙĤØµÙĬØ±Ø©": 3783,
      "ĠØ§ÙĦØ¥ÙĦÙĩ": 3784,
      "ĠÙĪØ¬ÙĨ": 3785,
      "ØªØ¬Ø§Øª": 3786,
      "Ø³Ø·ÙĨØ·": 3787,
      "ÙĥÙĥ": 3788,
      "ĠØ¨ÙĬÙĨÙĩÙħ": 3789,
      "ĠØ§ÙĦØ²Ø±Ø§Ø¹Ø©": 3790,
      "ĠÙĪÙĤØ¹": 3791,
      "ĠØ§ÙĦÙĨØ§ØªØ¬": 3792,
      "ĠØ§ÙĦØ¨Øµ": 3793,
      "ÙĬØ¦Ø©": 3794,
      "ĠÙģÙĩÙħ": 3795,
      "ĠØ§ÙĦØ¥Øº": 3796,
      "ĠØ§ÙĦÙģÙĪØ²": 3797,
      "ĠØ§ÙĦÙħÙĪØ³ÙĬÙĤÙī": 3798,
      "ĠØ§ÙĦØ£ØŃØ¯Ø§Ø«": 3799,
      "ĠØ§ÙĦÙĥÙħ": 3800,
      "ĠØ¬ÙħØ§Ø¹Ø©": 3801,
      "ÙĨØ§Ø¦ÙĬØ©": 3802,
      "ÙĪÙģØ©": 3803,
      "ĠÙĦÙĬÙĪÙĨ": 3804,
      "ĠÙħØ¬ÙħÙĪØ¹Ø§Øª": 3805,
      "ĠÙĤØ§Ø¦": 3806,
      "ÙĪØ¬Ø©": 3807,
      "ĠÙĥÙħÙĬØ©": 3808,
      "ĠØ¹Ø«ÙħØ§ÙĨ": 3809,
      "ÙĨÙĪØ§ÙĨ": 3810,
      "ĠØ§ÙĦØ¥ÙħØ§Ø±Ø§Øª": 3811,
      "Ø¨Ø·ÙĪÙĦØ©": 3812,
      "ĠØ§ÙĦÙĬÙĪÙĨØ§ÙĨ": 3813,
      "ĠØ£Ø¹ÙĦÙĨØª": 3814,
      "ĠØ§ÙĦØ¨Ø±Ø§Ø²": 3815,
      "Ġ60": 3816,
      "ÙħØ±ÙĪØ±": 3817,
      "ÙĩÙĪØ±ÙĬ": 3818,
      "ĠØ¯Ø§Ø¦ÙħØ§": 3819,
      "ĠÙħØ¤ØªÙħØ±": 3820,
      "ĠÙĪØ£Ø±": 3821,
      "ĠØ³ÙĬØ·Ø±": 3822,
      "ĠÙĪØµÙĪÙĦ": 3823,
      "ĠØ§ÙĦØ£Ø³Ø·": 3824,
      "ĠØ§ÙĦØ±Ø³ÙħÙĬ": 3825,
      "Ø§ÙĦØ¹": 3826,
      "ÙĪØŃØ§": 3827,
      "ĠØ§ÙĦØµÙĨØ§Ø¹ÙĬØ©": 3828,
      "ĠØ§ÙĦØ´Ø¨Ø§Ø¨": 3829,
      "ĠØ£ØŃØ¯Ø§Ø«": 3830,
      "ĠØ¥ÙħØ§": 3831,
      "Ø¬Ø§Ø¬": 3832,
      "Ø³Ø±Ø§Ø¦ÙĬÙĦÙĬØ©": 3833,
      "Ø¯ÙħÙĬØ±": 3834,
      "ĠØ§ÙĦÙĥÙĬÙħÙĬØ§Ø¦ÙĬØ©": 3835,
      "ĠØ¨ÙĥÙĦ": 3836,
      "ĠØŃÙħØ¶": 3837,
      "Ø´Ø±ÙĬ": 3838,
      "ĠØ³ÙĦÙĬÙħØ§ÙĨ": 3839,
      "ĠØ§ÙĦØ¶ÙĪØ¡": 3840,
      "ĠØ§ÙĦÙħØ¨ÙĨÙī": 3841,
      "ï´": 3842,
      "ĠØ§ÙĦØµÙĦ": 3843,
      "ĠÙĪØªØ¹ØªØ¨Ø±": 3844,
      "ĠÙħÙĦØ§ÙĬÙĬÙĨ": 3845,
      "ØªØ±Ø§Ùģ": 3846,
      "ĠÙĪØ£Ùħ": 3847,
      "ĠØ§ÙĦØ§ØŃØªÙĦØ§ÙĦ": 3848,
      "ĠÙħØ³Ø§ØŃ": 3849,
      "ĠØ§ÙĦÙħØŃÙĦÙĬ": 3850,
      "ÙĬÙħØ³": 3851,
      "ĠØ¯ÙĪ": 3852,
      "ĠØ§ÙĦÙħÙĪØª": 3853,
      "ĠØªØŃÙĪÙĦ": 3854,
      "ĠÙĬØ°ÙĥØ±": 3855,
      "ĠØ§ÙĦØ¥ØµØ§Ø¨Ø©": 3856,
      "ĠØ§ÙĦØ£Ø¬ÙĨ": 3857,
      "Ø¯Ø±Ø¬": 3858,
      "ĠØ§ÙĦØ³Ø¨Ø¨": 3859,
      "ĠØ§ÙĦÙĥØ±Ø©": 3860,
      "ÙħØ±Ø©": 3861,
      "ĠØ§ÙĦØ¹ÙħØ§ÙĦ": 3862,
      "ĠØ¹Ø³ÙĥØ±ÙĬØ©": 3863,
      "ĠÙħØªØ±Ø§": 3864,
      "ĠÙĪØµÙĦØª": 3865,
      "ĠØ§ÙĦÙĤØ±ÙĬØ©": 3866,
      "Ġ1990": 3867,
      "ĠÛ": 3868,
      "ĠØ§ÙĦØ·Ø±Ùģ": 3869,
      "ÙĪØŃØ¯Ø©": 3870,
      "ÙĤÙĬØ¹": 3871,
      "ĠÙĪØ®ÙĦØ§ÙĦ": 3872,
      "ĠØ§ÙĦØ£Ø¹Ø¶Ø§Ø¡": 3873,
      "ØªØ¨Ø·Ø©": 3874,
      "ĠØ¨ÙħØ³": 3875,
      "Ø§Ø¯Ø«": 3876,
      "ĠØªØ±Ø¬": 3877,
      "Ø²Ø±": 3878,
      "ÙĬØ¯ÙĬØ©": 3879,
      "ĠØ§ÙĦØ£ÙĪÙĦÙħØ¨ÙĬØ©": 3880,
      "Ø±Ùī": 3881,
      "ĠØ§ÙĦØªÙĪÙĨ": 3882,
      "ĠØ§ÙĦØ±ÙĪÙħØ§ÙĨÙĬ": 3883,
      "ĠÙĤØ¨ÙĬÙĦØ©": 3884,
      "ĠØ§ÙĦØ¹Ø¯Ø¯": 3885,
      "ĠØ¨Ø§Ùĥ": 3886,
      "Ø´Ø¯": 3887,
      "ĠØ¢Ø±": 3888,
      "ĠÙĤØ¨Ø§Ø¦ÙĦ": 3889,
      "Ø´Øª": 3890,
      "Ġ1999": 3891,
      "ĠÙģÙħÙĨ": 3892,
      "ĠØ§ÙĦØ¹ÙħØ§Ø±Ø©": 3893,
      "ĠÙĪØ§ÙĦØ¨Ø±": 3894,
      "ĠØ§ÙĦØ±ÙĬØ§Ø¶ÙĬØ©": 3895,
      "ĠØ§ÙĦØ¹Ø¸ÙħÙī": 3896,
      "ĠÙħØ¤ÙĦÙģ": 3897,
      "ĠÙĪØ§Ø®": 3898,
      "ĠØ§ÙĦÙĨÙħØ³Ø§": 3899,
      "ĠÙĦÙģØªØ±Ø©": 3900,
      "ĠÙģÙĦÙħ": 3901,
      "ÙħÙĦØª": 3902,
      "ĠØ§ÙĦØ¯ÙĬÙħÙĤØ±Ø§Ø·ÙĬØ©": 3903,
      "ĠÙĪØ¹Ø¯Ø¯": 3904,
      "ĠØ§ÙĦØ¬ÙĨØ³ÙĬØ©": 3905,
      "ĠØ§ÙĦØ«ÙĤØ§ÙģØ©": 3906,
      "ĠØ§ÙĦØ£Ø«Ø±": 3907,
      "ĠÙģÙĪØ²": 3908,
      "ØºØ§ÙĬØ©": 3909,
      "ĠÙĦØ§ØŃÙĤ": 3910,
      "Ġ..": 3911,
      "ch": 3912,
      "ĠØ³ÙĤÙĪØ·": 3913,
      "ÙĪØªÙĪ": 3914,
      "ĠØ·Ø§ÙĤØ©": 3915,
      "ĠÙĦÙĬØ¨": 3916,
      "Ġ31": 3917,
      "ĠØ§ÙĦØ£ÙĩÙĦÙĬØ©": 3918,
      "Ġ700": 3919,
      "ÙĬØ±ÙĦÙĨØ¯Ø§": 3920,
      "ÙĤÙĬØ§Ø³": 3921,
      "ĠØŃØ³": 3922,
      "ĠÙħÙĬØ§Ùĩ": 3923,
      "ÙĥØ§ÙĨÙĬØ©": 3924,
      "ĠØ¶Ø±": 3925,
      "ĠÙģÙĩ": 3926,
      "ØªØ±Ø§Ø¹": 3927,
      "ĠØ¨ÙĬÙĦ": 3928,
      "ĠØ§ÙĨØªØ´Ø§Ø±": 3929,
      "ĠØ§ÙĦØ¬ÙħØ¹ÙĬØ©": 3930,
      "ĠÙħØŃÙĦ": 3931,
      "ĠÙĦØµØ§ÙĦØŃ": 3932,
      "Ø±ÙĬØ³Øª": 3933,
      "ĠÛĿ": 3934,
      "ĠØ³ÙĬÙĨ": 3935,
      "ĠØ®ØµÙĪØµØ§": 3936,
      "ØªÙĩÙĬ": 3937,
      "ĠÙħØªÙħ": 3938,
      "Ø¨ÙĬØ§": 3939,
      "ĠÙĪØ£ÙĤ": 3940,
      "ĠÙĩÙĨØ§": 3941,
      "Ø§Ø¦ÙĩÙħ": 3942,
      "ĠÙĪØªØ£": 3943,
      "ĠØ§ÙĨØªØ®": 3944,
      "ĠØ§ÙĦÙħØ±Ø£Ø©": 3945,
      "Ø±Ø³Ø§ÙĦ": 3946,
      "ĠØ§ÙĦØ¥Ø³Ø±Ø§Ø¦ÙĬÙĦÙĬØ©": 3947,
      "ĠØªØ·Ø¨ÙĬÙĤ": 3948,
      "ÙħÙĬØ²": 3949,
      "Ø§ÙĨÙĪ": 3950,
      "Ø§ÙĤØ¨Ø©": 3951,
      "Ø±ÙģØ©": 3952,
      "70": 3953,
      "ĠÙĤØµØ©": 3954,
      "ĠØ§ÙĨÙĩ": 3955,
      "ĠÙģØŃ": 3956,
      "ĠØ§ÙĦÙĦØ¬ÙĨØ©": 3957,
      "ÙĥØ§Øª": 3958,
      "ĠÙĬØ±Ùī": 3959,
      "ĠØ¢Ø«Ø§Ø±": 3960,
      "ĠÙĪÙĤØ¹Øª": 3961,
      "ĠØªÙĤØ±": 3962,
      "ĠØºØ²": 3963,
      "ĠØ§ÙĦÙģÙĨØ§ÙĨ": 3964,
      "ĠØ¨ØªØ§Ø±ÙĬØ®": 3965,
      "ĠØ§ÙĦÙħÙĤØ¯Ø³": 3966,
      "Ø®ÙĪØ±": 3967,
      "ÙĪØ§ÙĬ": 3968,
      "Ø§Ø¦ÙĬØ§": 3969,
      "ĠØ¨Ø¥ÙĨ": 3970,
      "ĠØ§ÙĦØ¥ÙĬØ·Ø§ÙĦÙĬØ©": 3971,
      "Ø§ÙĪØ±": 3972,
      "ĠÙħØ¬ÙĦØ©": 3973,
      "ĠØ§ÙĦØŃØ³": 3974,
      "ĠE": 3975,
      "ĠØ§Ø³ØªÙħØ±Øª": 3976,
      "ĠØ£Ø¨Ø·Ø§ÙĦ": 3977,
      "ĠØ¨ÙĩØ¯Ùģ": 3978,
      "ĠØ¨Ø§ÙĦØ¬": 3979,
      "ĠÙģÙĦØ§": 3980,
      "ĠØ¨Ø´Ø±": 3981,
      "ĠØ§ÙĦØ¥ÙĨØ³": 3982,
      "ĠØ§ÙĦØ´Ø¨": 3983,
      "ĠØ§ÙĦÙħØ³ØªÙĪÙī": 3984,
      "Ø§Ø±Ùĩ": 3985,
      "ĠØ§ÙĦØ´Ø±ÙĬ": 3986,
      "ĠØ£ØµØŃØ§Ø¨": 3987,
      "ÙĪÙĨÙĩ": 3988,
      "ĠØ¬ÙĨØ³": 3989,
      "ĠØ§ÙĦØ±ÙĬØ§Ø¶ÙĬ": 3990,
      "ÙħÙĦÙĬØ©": 3991,
      "ĠÙħÙĥØªØ¨": 3992,
      "ï´¾": 3993,
      "ra": 3994,
      "ĠÙĤØ§Ø¹Ø¯Ø©": 3995,
      "ÙĤØ§ÙĦ": 3996,
      "Ø·Ø§": 3997,
      "ØªÙĬØ´": 3998,
      "ĠØ¹ÙħØ±Ùĩ": 3999,
      "ĠÙĦÙĦØ§ÙĨ": 4000,
      "ĠØ§ÙĦÙĪØŃØ¯Ø©": 4001,
      "ÙĨÙĬØ§Øª": 4002,
      "ÙģØ§ÙĪØ¶": 4003,
      "ĠØ§ÙĦØ¨ÙĬØ¶Ø§Ø¡": 4004,
      "ĠØ§ÙĦÙĩÙĬØ¯Ø±ÙĪØ¬ÙĬÙĨ": 4005,
      "ØªÙħØ¹Ø§Øª": 4006,
      "ĠØ¯ÙĬØ±": 4007,
      "ĠØ§ÙĦØ§ØªÙģØ§ÙĤ": 4008,
      "ĠØ§ÙĦØ£ÙħØ±ÙĬÙĥÙĬÙĬÙĨ": 4009,
      "ÙħÙĪØ§ÙĦ": 4010,
      "ĠÙĬØ¹ØªÙħØ¯": 4011,
      "24": 4012,
      "Ø·ÙĪÙĬØ±": 4013,
      "ÙĦÙģÙĬØ©": 4014,
      "ĠØ§ÙĦÙħØ¹Ùħ": 4015,
      "ĠØ´Ø¨ÙĥØ©": 4016,
      "ÙģØµÙĦ": 4017,
      "ĠÙĪÙĤØªÙĦ": 4018,
      "Ø§ÙĦØ¬Ø©": 4019,
      "ÙĬØ¯Ø§ÙĨ": 4020,
      "ĠÙĨØ³Ø¨ÙĬØ§": 4021,
      "ĠØ§ÙĦÙħØ³ÙĦØŃØ©": 4022,
      "ĠÙħØ³ØªÙĤÙĦØ©": 4023,
      "ÙĥÙĦÙĬ": 4024,
      "ĠÙĬØ¯Ø¹Ùī": 4025,
      "ĠÙĬØ³ÙħØŃ": 4026,
      "ĠØ§ÙĦØŃÙħÙĦ": 4027,
      "ĠØ§ÙĦØ±Ø¬Ø§ÙĦ": 4028,
      "ØºØ·ÙĬ": 4029,
      "Ø³ÙĥÙĬ": 4030,
      "ĠØ§ÙĦØ³Ø¹ÙĪØ¯ÙĬ": 4031,
      "ĠØ§ÙĦØµØ±Ø§Ø¹": 4032,
      "ÙħØ§Ø±Ùĥ": 4033,
      "ĠØ§ÙĨØªØ®Ø§Ø¨Ø§Øª": 4034,
      "ĠØ§ÙĦØ¹Ø±Ø§ÙĤÙĬ": 4035,
      "ÙĬØªØ±": 4036,
      "ĠØªØ¹ÙĬÙĬÙĨ": 4037,
      "Ø¶Ø§ÙĬØ§": 4038,
      "ĠØ¨ØµÙĪØ±Ø©": 4039,
      "ÙĬÙĤØ©": 4040,
      "ĠÙħØŃÙħÙĪØ¯": 4041,
      "ĠØ§ÙĦØ¹Ø«ÙħØ§ÙĨÙĬ": 4042,
      "Ø¹ÙĦØ§Ø¬": 4043,
      "ÙĬØ³ÙĬØ©": 4044,
      "ĠØ§Ø³ÙħÙĩØ§": 4045,
      "ĠÙĦÙħÙĪ": 4046,
      "Ø¨ÙĬØª": 4047,
      "ĠÙĦÙĪÙĬØ³": 4048,
      "ÙĪØ§Ùģ": 4049,
      "ĠØ§ÙĦØ£Ø³Ø§Ø³ÙĬ": 4050,
      "ĠØ§ÙĦØ·Ø¨ÙĬØ¹Ø©": 4051,
      "Ø¨ÙĤØ§Øª": 4052,
      "ĠØ§ÙĦÙĤØ¶": 4053,
      "ĠÙĪØ¥ÙĦÙī": 4054,
      "Ø¯ÙĬÙĩ": 4055,
      "Ø³Ø±ØŃÙĬØ©": 4056,
      "ĠÙĦÙĦØ¥ÙĨ": 4057,
      "ĠØ§ÙĦÙĨÙĬÙĦ": 4058,
      "ĠÙħØ³ÙĦÙħ": 4059,
      "ĠÙĤØ§Ø¦Ø¯": 4060,
      "ĠØ§ÙĦØ®ÙĦÙĬØ©": 4061,
      "ĠÙĪØ¹ÙĦÙħ": 4062,
      "Ġ1991": 4063,
      "ĠØªØ¨Ø¯Ø£": 4064,
      "ĠØµÙĪØ±": 4065,
      "ĠØ§ÙĦØ¹ÙĬÙĨ": 4066,
      "ĠØ§ÙĦÙģÙĤÙĩ": 4067,
      "Ø²ÙĬØ§Ø¯Ø©": 4068,
      "Ø§Ø±ÙĤØ©": 4069,
      "ĠØ§ÙĦÙĥØ«": 4070,
      "ĠØ¨ÙĩÙħ": 4071,
      "ĠØ§ÙĦØ±ÙĤ": 4072,
      "ĠØ¨ÙĦØ¯Ø©": 4073,
      "ĠÙħØ±ÙĥØ¨Ø©": 4074,
      "ÙĦÙĪ": 4075,
      "ĠØ§ÙĦÙĨØ§Ø±": 4076,
      "Ø´ÙģÙī": 4077,
      "ÙĦÙĩØ©": 4078,
      "Ġ1996": 4079,
      "ĠØ¬Ø¯Ø§Ø±": 4080,
      "Ø´Ø±Ùģ": 4081,
      "Ġ{\\": 4082,
      "ĠØ§ÙĦØŃÙĬÙĪÙĬØ©": 4083,
      "ĠØ§ÙĤØªØµØ§Ø¯": 4084,
      "ĠØ§ÙĦØ³Ø¨Ø¹": 4085,
      "ĠÙĪÙħØ³": 4086,
      "Ø§ÙħÙĬÙĨ": 4087,
      "ÙĬØŃ": 4088,
      "ĠØ¨Ø¹ÙĨÙĪØ§ÙĨ": 4089,
      "21": 4090,
      "ÙĩØ§Ø¯Ø©": 4091,
      "ĠØªØŃØ·": 4092,
      "ĠØ«Ø§ÙĦØ«": 4093,
      "Ø¯ÙĬÙĤ": 4094,
      "ĠÙĬÙĩ": 4095,
      "ĠÙĬØªØŃ": 4096,
      "Ø§ÙħØª": 4097,
      "ĠØŃØ²": 4098,
      "ĠØ¥Ø«Ø±": 4099,
      "Ø·Ø±Ø§Ùģ": 4100,
      "ĠØ§ÙĦØ£ØºÙĨÙĬØ©": 4101,
      "ØªØ§Ø¯": 4102,
      "ion": 4103,
      "ĠØ®ÙĦÙĤ": 4104,
      "Ġï´": 4105,
      "Ø§ÙĦØ¨ÙĬØ©": 4106,
      "ÙĤÙĬÙĤÙĬ": 4107,
      "ĠØ³ÙĬØªÙħ": 4108,
      "Ø®ØµÙĪØµ": 4109,
      "Ø´ÙĬØ±": 4110,
      "Ø§Ø³ØªÙĩ": 4111,
      "NA": 4112,
      "ĠØ§ÙĦÙĥÙĦØ§Ø³": 4113,
      "ĠØ§ÙĦØ¬Ø²Ø§Ø¦": 4114,
      "ÙĪØ±ÙĬØ¯": 4115,
      "Ġ1994": 4116,
      "ĠØ§ÙĦØ£Ø±Ø¬": 4117,
      "ĠÙģØ±Ø§ÙĨ": 4118,
      "ÙĬÙĥÙĪ": 4119,
      "ĠØ§ÙĦÙħØ³ÙĬØŃ": 4120,
      "ĠÙĤØ·Ø§Ø¹": 4121,
      "ĠØµÙĨØ¹": 4122,
      "ĠØ§Ø´ØªÙĩØ±": 4123,
      "Ġï´¿": 4124,
      "ĠØªÙħØªÙĦÙĥ": 4125,
      "ÙĦÙĬØ³": 4126,
      "ĠØ§ÙĦØ±Ø¦": 4127,
      "ĠØ§ÙĦÙħØ³Ø¤": 4128,
      "ĠØ§ÙĦØµØ¯": 4129,
      "ĠØ§ÙĦÙħØ±ÙĥØ²ÙĬØ©": 4130,
      "ĠØ§Ø¯": 4131,
      "ĠØ§ÙĦØ¬ØºØ±": 4132,
      "ĠÙĪÙĩÙĥØ°Ø§": 4133,
      "ĠØªÙħØ±": 4134,
      "ĠÙĪØ§ÙĦÙħØ±": 4135,
      "om": 4136,
      "ĠØ£Ø³ÙħØ§Ø¡": 4137,
      "Ø°ÙĬÙĨ": 4138,
      "ĠÙĪØ§ÙĦØ¥ÙĨ": 4139,
      "ÙĦÙĦ": 4140,
      "ĠØ§ÙĦØ£ÙĪ": 4141,
      "ĠØŃÙħÙĦØ©": 4142,
      "ĠÙħÙĪØ¬ÙĪØ¯Ø©": 4143,
      "Ġd": 4144,
      "Ø§Ø²ÙĨ": 4145,
      "ĠØ§ÙĦØ®ÙħØ³": 4146,
      "ØµØ¯Ø±": 4147,
      "ØªØ§Ø¨Ø©": 4148,
      "ĠÙģØ³": 4149,
      "ĠØ¥Ø¹": 4150,
      "Ø§ÙĦÙī": 4151,
      "ØµØ¨Ø©": 4152,
      "Ø§Ø¬Ø¹": 4153,
      "ĠØ§ÙĦÙĨØ´Ø§Ø·": 4154,
      "ĠØ¨Ø¹Ø¯ÙħØ§": 4155,
      "ĠØ§ÙĦÙħÙĥØ§ÙĨ": 4156,
      "ĠØ§ÙĦØ¯Ø³ØªÙĪØ±": 4157,
      "et": 4158,
      "ĠÙĬØªØ¨Ø¹": 4159,
      "Ø§Ø±ÙĤ": 4160,
      "ĠØ§ÙĦÙĪÙĤ": 4161,
      "ĠØ¨ØªØŃ": 4162,
      "ØºØ¨": 4163,
      "ĠØ§ÙĦÙĤØµØ±": 4164,
      "ĠØ§ÙĦÙħØ³ÙĬØŃÙĬÙĬÙĨ": 4165,
      "Ø¹ÙĦÙĤØ©": 4166,
      "ia": 4167,
      "ÙĪØ§ÙĩØ§": 4168,
      "ĠØªØ¹ÙĬØ´": 4169,
      "ĠÙģÙĪÙĦ": 4170,
      "ĠØ§ÙĦØ³ÙĪØ±ÙĬ": 4171,
      "ĠØ§ÙĦØ´Ùĩ": 4172,
      "ĠØ¹ÙĨØ§ØµØ±": 4173,
      "48": 4174,
      "ĠÙĬØªØŃØ¯Ø«": 4175,
      "ĠÙħÙĨØ¹": 4176,
      "ĠØ§ÙĦØªØŃØ±ÙĬØ±": 4177,
      "ĠØ§ÙĦÙħÙĪØ§ÙģÙĤ": 4178,
      "ĠÙĥØªØ§Ø¨Ø©": 4179,
      "ĠØ¹ÙħÙĪÙħØ§": 4180,
      "Ġ35": 4181,
      "ĠÙĦØ£ÙĨÙĩØ§": 4182,
      "ĠÙĥØ§Øª": 4183,
      "ĠÙĪÙĦØ°ÙĦÙĥ": 4184,
      "ĠÙħØ³ÙĬ": 4185,
      "ĠÙĦØ¬ÙĨØ©": 4186,
      "ĠØ§ÙĦÙħÙĥÙĪÙĨ": 4187,
      "Ø¹ÙĦÙĨ": 4188,
      "ĠÙĨØ§Ø¨": 4189,
      "ĠØ³ÙĨÙĪÙĬØ§": 4190,
      "ĠØ§ÙĦØ£Ø·ÙĦØ³ÙĬ": 4191,
      "ÙĦØ§Ùĩ": 4192,
      "28": 4193,
      "ĠÙħØ§ÙĦÙĥ": 4194,
      "ĠØ¨ÙħØ¹ÙĨÙī": 4195,
      "Ø¨ÙĬÙĬÙĨ": 4196,
      "45": 4197,
      "ĠØ§ÙĦÙħØ¹Ø±ÙĥØ©": 4198,
      "ĠØ¶ØºØ·": 4199,
      "ĠØªØµÙħÙĬÙħ": 4200,
      "ĠØµØ§ÙĦØŃ": 4201,
      "ĠÙħØ³ÙĬØ±": 4202,
      "ĠÙĬØ±Ø¬Ø¹": 4203,
      "Ø§ØµØ±Ø©": 4204,
      "ĠØ§ÙĦÙĤÙĨ": 4205,
      "ĠÙĪØ£ÙĥØ«Ø±": 4206,
      "ĠØ§ÙĦØ¹Ø§Ø¦ÙĦØ©": 4207,
      "ĠØ§ÙĦØ°ÙĥÙĪØ±": 4208,
      "26": 4209,
      "ĠÙĥÙĬÙħÙĬ": 4210,
      "ĠØ±ØŃ": 4211,
      "ĠØ¨ÙĩØ°Ùĩ": 4212,
      "ĠØ§ÙĦÙħØªÙĨ": 4213,
      "Ġ106": 4214,
      "ĠØ§ÙĦØªØ£Ø«ÙĬØ±": 4215,
      "ĠØ§ÙĦÙħØ¬Ø§ÙĪØ±Ø©": 4216,
      "ĠÙģØ¶ÙĦØ§": 4217,
      "ĠÙĦØ§Øª": 4218,
      "ÙģØ³ÙĩÙħ": 4219,
      "ĠØ§ÙĦØ£Ø¯Ø¨": 4220,
      "ÙĤÙĦÙĬØ©": 4221,
      "ĠØ£Ø¹Ø¯Ø§Ø¯": 4222,
      "ĠØ§ÙĦÙĥÙĩØ±Ø¨Ø§Ø¦ÙĬØ©": 4223,
      "ĠØ§ÙĦÙħÙħÙĥÙĨ": 4224,
      "ĠØ§ÙĦÙģÙĤ": 4225,
      "ĠØ§ÙĦØµØŃØ±Ø§Ø¡": 4226,
      "Ġ1992": 4227,
      "ĠÙĪØ¨Ø°ÙĦÙĥ": 4228,
      "Ø¬Ø²Ø¡": 4229,
      "ĠØ§ÙĦØ§Ø¨": 4230,
      "27": 4231,
      "Ø¹ÙĪØ©": 4232,
      "ĠØ§ÙĦÙĨØµÙģ": 4233,
      "Ġ1948": 4234,
      "ĠØ§ÙĦØ®Ø¨Ø±Ø§Ø¡": 4235,
      "ØªÙħØ§Ø¯": 4236,
      "ĠØªÙĤØ¯": 4237,
      "Ø¯ÙģØ¹": 4238,
      "ĠÙħÙĪØ³Ùī": 4239,
      "Ø±ÙĨØ³Ø§": 4240,
      "ÙĪÙĥØ¨": 4241,
      "ĠØ®Ø§ÙĦØ¯": 4242,
      "ĠØ§ÙĦÙĥØ±ÙĬÙħ": 4243,
      "ĠØªØªØŃ": 4244,
      "Ø§Ø¨Ø³": 4245,
      "ĠØªØ§Ø¨Ø¹Ø©": 4246,
      "ĠØ§ÙĦÙĨØµ": 4247,
      "ĠØ§ÙĦØ£ÙĥØ³Ø¬ÙĬÙĨ": 4248,
      "ĠØ±Ø³ÙħÙĬØ©": 4249,
      "Ø¯ÙĪØ²": 4250,
      "ĠÙħØ¯Ø±ÙĬØ¯": 4251,
      "29": 4252,
      "ĠØ§ÙĦØ¥Ø³Ø¨Ø§ÙĨÙĬ": 4253,
      "ĠØ§ÙĦØ¥Ø³Ø¨Ø§ÙĨÙĬØ©": 4254,
      "Ø§ÙĦÙĨ": 4255,
      "ĠØ§ÙĦÙħÙĤØ§ÙĦØ§Øª": 4256,
      "Ġ1967": 4257,
      "ĠØ£Ø³Ø·": 4258,
      "Ø§Ø·Ø¹Ø§Øª": 4259,
      "ĠØ§ÙĦÙħÙĥØ³": 4260,
      "ĠÙĤÙĦØ¨": 4261,
      "ĠØ·Ø±Ùģ": 4262,
      "ĠØ§ÙĦØ¨Ø§Ø±Ø²Ø©": 4263,
      "Ø¨Ø±Ø§": 4264,
      "ĠØ¨ÙĦØºØª": 4265,
      "ĠØ³ÙĬØ¯": 4266,
      "ĠÙĪØ§Ø¨ÙĨ": 4267,
      "ĠØ§ÙĦØ±Ø§Ø¨Ø¹Ø©": 4268,
      "ĠØ§ÙĦØ¨Ø¹": 4269,
      "ÙĪØ´Ø©": 4270,
      "ĠØ§ÙĦØªØ±ÙĥÙĬØ©": 4271,
      "ÙĨÙĬÙĩ": 4272,
      "ÙĪØ¯Ø§": 4273,
      "ĠÙħÙĤØ§": 4274,
      "ĠØ§ÙĦØ¹ÙħÙĦÙĬØ§Øª": 4275,
      "ĠØ§ÙĦÙĨÙģØ·": 4276,
      "yst": 4277,
      "ØªÙĤØ§Ø¯": 4278,
      "ĠØ§ÙĦØ¬ÙĪÙĬ": 4279,
      "ĠØ§ÙĥØªØ´Ùģ": 4280,
      "ĠØ£Ø¸ÙĩØ±": 4281,
      "ØºØ§Ø±": 4282,
      "ĠØ§ÙĦØ¥Ø®": 4283,
      "ÙĨÙĬØ¹": 4284,
      "ĠÙģÙĬØµÙĦ": 4285,
      "ĠØ§ÙĦÙħØ¬ÙħÙĪØ¹Ø§Øª": 4286,
      "ĠÙĪØ§ÙĦØªØŃ": 4287,
      "ĠÙĤÙĪÙĬØ©": 4288,
      "Ø¶ØŃ": 4289,
      "ĠØ§ÙĦØ²Ø±Ø§Ø¹ÙĬØ©": 4290,
      "ÙĤØ¹": 4291,
      "ĠØ¨ÙĨØª": 4292,
      "ĠØ§ÙĦØ°ÙĩØ¨": 4293,
      "ĠØ§ÙĦØ³ÙĪÙĤ": 4294,
      "ĠÙĬÙĨØªØ¬": 4295,
      "ĠØ§ÙĦØ³ÙĬØ¯": 4296,
      "ĠØ´Ùĥ": 4297,
      "ĠØªØªÙħÙĬØ²": 4298,
      "ĠØ§ÙĦÙħØŃØ§ÙģØ¸Ø©": 4299,
      "Ø·Ùī": 4300,
      "ĠØ§ÙĦØ·Ø¨ÙĤØ©": 4301,
      "Ø®ØµØµØ©": 4302,
      "Ø¨ÙĤÙī": 4303,
      "Ø§Ø·Ø¹": 4304,
      "ÙĬØºØ©": 4305,
      "ÙħØ¬": 4306,
      "ĠÙħØ¹ÙĬÙĨ": 4307,
      "ĠØ¥Ø¶": 4308,
      "ĠØ¬Ø³Ùħ": 4309,
      "ĠØ£ÙĥØ³ÙĬØ¯": 4310,
      "ĠØ®Ø³Ø±": 4311,
      "ĠÙĨÙĪØ±": 4312,
      "Ø³Ø§ÙĩÙħ": 4313,
      "ĠØ§ÙĦÙĬØ³": 4314,
      "ĠØ§ÙĨØªÙĩØª": 4315,
      "ĠØ§ÙĦÙĤØ³Ùħ": 4316,
      "Ø·ÙĨØ§Ø¹ÙĬ": 4317,
      "ĠØ§ÙĦØ£ØµÙĦÙĬØ©": 4318,
      "ĠØ§ÙĦØªØ´Ø±ÙĬ": 4319,
      "ĠØ§ÙĦØ£Ø±Ø¨Ø¹Ø©": 4320,
      "ĠØ¨ÙĨØªÙĬØ¬Ø©": 4321,
      "ĠÙĦÙħØ³": 4322,
      "ĠØ®ÙĦØ§Ùģ": 4323,
      "ĠÙĤØ±Ø§Ø±": 4324,
      "ĠØ§ÙĦØ¨Ø±ÙĨØ§ÙħØ¬": 4325,
      "Ø±ÙĬÙĬÙĨ": 4326,
      "ÙĪÙģÙĬØ±": 4327,
      "ĠÙĪØŃØµÙĦ": 4328,
      "ÙĤÙĦØ§Ø¨": 4329,
      "ĠØªØ¯Ø®ÙĦ": 4330,
      "ĠØ·ÙĪØ§ÙĦ": 4331,
      "ĠØ§ÙĦÙĬÙħÙĨ": 4332,
      "35": 4333,
      "Ø§ÙĦØ³": 4334,
      "ĠØ§ÙĦØªÙĦ": 4335,
      "ĠÙĬØ³ØªØ·ÙĬØ¹": 4336,
      "ĠÙĪÙĬÙĪØ¬Ø¯": 4337,
      "Ø¯Ø§Ø¡": 4338,
      "ĠØ§ÙĦØªØ°Ùĥ": 4339,
      "ĠØªÙĨÙģÙĬØ°": 4340,
      "ĠØ§ÙĦØªØ¹Ø¯ÙĬÙĦØ§Øª": 4341,
      "ĠÙĬØµØ¨ØŃ": 4342,
      "Ø§Ø¯ÙĤ": 4343,
      "Ġ2017": 4344,
      "ĠÙĪÙħÙĨØ°": 4345,
      "il": 4346,
      "ĠÙĪØ£Ø³": 4347,
      "ØŃÙģ": 4348,
      "ĠØ§ÙĦØ£ØµÙĦÙĬ": 4349,
      "ĠØ§ÙĦØ¹Ø±Ø¶": 4350,
      "ĠØ§ÙĦØ³ÙĦØ·Ø§Øª": 4351,
      "ĠØ¨Ø¯Ø§": 4352,
      "ĠØ¯ÙĤÙĬÙĤØ©": 4353,
      "ĠØªÙĤØ³ÙĬÙħ": 4354,
      "ĠÙħÙĩÙħ": 4355,
      "ĠÙĨÙĤØµ": 4356,
      "ĠÙħÙĤØ§Ø±ÙĨØ©": 4357,
      "ĠØ£ØµØºØ±": 4358,
      "ĠØ§ØªØ¬Ø§Ùĩ": 4359,
      "ĠØ¨ÙĦØ¯": 4360,
      "ĠØ§ÙĦÙħØ±Ø¬": 4361,
      "ĠØ§ÙĦÙĨØ§ØµØ±": 4362,
      "ĠÙĤØ·Ø¹": 4363,
      "ÙĤÙĬØ¯Ø©": 4364,
      "Ø¹Ø¨ÙĬØ±": 4365,
      "ĠÙĩØ¨ÙĪØ·": 4366,
      "ĠØ³Ø§Ø¨ÙĤ": 4367,
      "ĠØ§ÙĦØ«Ø§ÙĨÙĪÙĬØ©": 4368,
      "um": 4369,
      "ĠÙĪØªØ³": 4370,
      "ØªØ³": 4371,
      "ĠÙĩØ§Ø±": 4372,
      "Ø¹ÙģØ±": 4373,
      "ĠØªÙĪÙħ": 4374,
      "ĠØ§ÙĦÙĨØ§ØŃÙĬØ©": 4375,
      "ĠØ§ÙĦØ¨ÙĨØ§Ø¡": 4376,
      "ĠØ¬ÙħØ§": 4377,
      "ĠÙĦØªØ´": 4378,
      "pla": 4379,
      "ĠØ§ÙĦÙĦØº": 4380,
      "Ø¬Ø§Ø¨": 4381,
      "Ġ1997": 4382,
      "ĠÙĪØ§ÙĦØ«ÙĤ": 4383,
      "Ġ70": 4384,
      "dis": 4385,
      "ĠØªÙĪØ³": 4386,
      "ĠØ³ÙĬØ§Ø³ÙĬØ©": 4387,
      "ĠØ§Ùģ": 4388,
      "ĠÙĥÙĪØ±": 4389,
      "Ø§Ø¦Ø·": 4390,
      "ĠØ³Ø§ÙĨØª": 4391,
      "ĠØµÙĦØ§ØŃ": 4392,
      "ĠØ§ÙĦÙħØ·ÙĦ": 4393,
      "ĠØ§ÙĦØ³ÙĪØ¯Ø§ÙĨ": 4394,
      "ĠØ§ÙĦÙĦÙĪØŃØ§Øª": 4395,
      "ĠØ¨Ø¹Ø¶ÙĩÙħ": 4396,
      "ØºØ±Ø¨": 4397,
      "ÙĪÙģØ§": 4398,
      "ĠÙĦØ¯ÙĬÙĩ": 4399,
      "ĠØ§ÙĦÙĥØªØ§Ø¨Ø©": 4400,
      "ĠÙģÙħ": 4401,
      "ĠØ§ÙĦØ³Ø§Ø¹Ø©": 4402,
      "ĠØ§ÙĦØ£ØµÙĪÙĦ": 4403,
      "Ġ185": 4404,
      "ÙĤØ·Ø¹": 4405,
      "ÙĬØ±Ùĥ": 4406,
      "ĠÙĪØªØŃÙħÙĦ": 4407,
      "ĠØ§ÙĦØ³ÙĪÙĬØ³": 4408,
      "ĠØ§ÙĦÙħØ³ØªÙĤØ¨ÙĦ": 4409,
      "Ø§ÙĥÙħØ©": 4410,
      "ĠØ§ÙħØ±": 4411,
      "ĠØ®Ø§ÙĨ": 4412,
      "Ø¥Ø°Ø§": 4413,
      "ĠØ§ÙĦØ¯ÙħØ§Øº": 4414,
      "ĠØ£ÙĪÙĦØ§": 4415,
      "ĠØ¥ÙĦÙĩ": 4416,
      "ÙħØ§ÙĨÙĬØ©": 4417,
      "Ø«ÙĪØ±": 4418,
      "ĠÙĦØªÙĨ": 4419,
      "ĠâĢıØĮ": 4420,
      "Ø¸ÙħØ§Øª": 4421,
      "ĠØ§ÙĦÙĪØŃÙĬØ¯Ø©": 4422,
      "ĠÙĪÙĬÙĥÙĪÙĨ": 4423,
      "ĠÙħØ§Ø±Ùĥ": 4424,
      "ĠÙĪØ§ØŃØ¯Ø§": 4425,
      "ĠØ§ÙĦÙĩØ¬Ø±Ø©": 4426,
      "ĠÙħÙĥØª": 4427,
      "ĠØ¨ÙĬÙĨÙĩÙħØ§": 4428,
      "ĠÙħØ§ÙĦ": 4429,
      "ĠØ±ÙĤÙĬÙĤØ©": 4430,
      "ĠØ§ÙĦØªÙģØ§Ø¹ÙĦ": 4431,
      "ĠÙĪØªØ¹Ø¯": 4432,
      "ĠØ§ÙĦØ´Ø±ÙĥØ§Øª": 4433,
      "ĠØ§ÙĦÙģÙĨÙĬØ©": 4434,
      "ĠÙĪØ§ÙĦØªÙĨ": 4435,
      "ĠØ§ÙĦØŃØµ": 4436,
      "ĠØ§ÙĦÙĤØ¯Ø±Ø©": 4437,
      "ĠØ§ÙĦØ¥Ø¯Ø§Ø±Ø©": 4438,
      "Ġs": 4439,
      "Ø§ÙĦØ¥": 4440,
      "ĠÙĨÙĩØ§Ø¦ÙĬ": 4441,
      "ĠØ§ÙĦÙħØ´Ø±ÙĪØ¹": 4442,
      "ĠØ§ÙĦØŃØ§ÙĥÙħ": 4443,
      "ÙĨÙĬÙĬÙĨ": 4444,
      "ĠØ§ÙĦØ¹Ø¸ÙĬÙħ": 4445,
      "Ø´Ø±Ø§Øª": 4446,
      "Ø¯ÙģÙĤ": 4447,
      "ĠÙĪØ§Ø±": 4448,
      "ĠØ§ÙĦÙħØ£": 4449,
      "ĠØ§ÙĦØ¨Ø±ÙĬØ©": 4450,
      "ĠØ§ÙĦØµÙĬÙĨÙĬØ©": 4451,
      "ĠØ±Ùĥ": 4452,
      "ĠÙĥÙĦÙĩØ§": 4453,
      "ØªØ§ÙĬÙĨ": 4454,
      "Ġâ": 4455,
      "ĠÙĪØ³Øª": 4456,
      "ÙģÙĬÙģ": 4457,
      "ÙĩØ±Ø¬Ø§ÙĨ": 4458,
      "ĠÙĪØ£ÙĨÙĩ": 4459,
      "ĠØ§ÙĦØ¨ÙĬØª": 4460,
      "ĠØ§ÙĦØ£ÙħØ±Ø§Ø¶": 4461,
      "Ø±Ø§ÙĦ": 4462,
      "ĠÙĤØ¨Ø±": 4463,
      "Ø¨ÙĦØ©": 4464,
      "ĠÙħÙĪØ§ÙĦÙĬØ¯": 4465,
      "ĠØªÙĨØªØ¬": 4466,
      "ĠØ´Ø§Ø±": 4467,
      "ĠÙĪÙĬØŃ": 4468,
      "ĠØ£Ø³ØªØ±Ø§ÙĦÙĬØ§": 4469,
      "ĠØ³ÙĪÙģ": 4470,
      "ĠØªÙĥØ±ÙĬÙħ": 4471,
      "ĠØ§ÙĦØŃØ±ÙĪØ¨": 4472,
      "ĠÙĪÙģØ±": 4473,
      "ĠØ¨Ø·Ø±ÙĬÙĤØ©": 4474,
      "ĠØ§ÙĦÙĩÙĨØ¯ÙĬØ©": 4475,
      "ĠØ°ÙĬ": 4476,
      "ĠØ§ÙĦØ¹Ø§Ø¦ÙĦØ§Øª": 4477,
      "Ø¯ÙĬØ§ÙĨ": 4478,
      "ĠÙĤÙĦÙĬÙĦØ©": 4479,
      "ĠØ§ÙĦØ±Ø¬ÙĦ": 4480,
      "Ø¬ØŃ": 4481,
      "ĠØ¨Ø§ÙĦÙĦÙĩ": 4482,
      "Ø¬ÙħÙĩÙĪØ±ÙĬØ©": 4483,
      "ĠØ³ÙĦØ·Ø©": 4484,
      "ĠØ§ÙĦÙĩØ¯Ùģ": 4485,
      "Ø·ÙĦÙĤØª": 4486,
      "ĠÙĦÙĪÙĨ": 4487,
      "ĠØ§ÙĦØŃØ§Ø¯ÙĬ": 4488,
      "ĠØ¨Ø¶": 4489,
      "ĠÙħÙĪØ§ÙĤØ¹": 4490,
      "ØªØ³Ø¨": 4491,
      "ĠØ±ÙĪØ§ÙĬØ©": 4492,
      "ĠØ§ÙĦØŃØ±Ø©": 4493,
      "ĠÙħØ±ÙĪØ±": 4494,
      "ĠØ§ÙĦÙħÙĨØ¸ÙħØ©": 4495,
      "Ø¯ÙĬØ§Øª": 4496,
      "ĠØ§ÙĦØ¥ØµÙĦØ§ØŃ": 4497,
      "ĠØ£ÙĨØ·": 4498,
      "ÙĦÙħÙĬ": 4499,
      "yle": 4500,
      "ĠÙĦØ§Ùģ": 4501,
      "ĠØ§ØªÙģØ§ÙĤÙĬØ©": 4502,
      "ĠØ§ÙĦÙĤØªØ§ÙĦ": 4503,
      "ĠØªÙĪÙĦ": 4504,
      "ĠØªÙĥÙĪÙĬÙĨ": 4505,
      "ĠØ´ØªÙī": 4506,
      "ĠÙĪØ³Ø§Ø¦ÙĦ": 4507,
      "Ø¯Øª": 4508,
      "ĠØ£ÙĦÙĪØ§ØŃ": 4509,
      "ĠØ¥Ø²": 4510,
      "ĠØ§ÙĦØ±ÙĪ": 4511,
      "ĠØ¹ÙħØ±ÙĪ": 4512,
      "ÙĪÙĬÙĩ": 4513,
      "ĠÙĪÙĤÙĬÙĦ": 4514,
      "ĠÙĦØªØ¹": 4515,
      "Ø¬ÙĪ": 4516,
      "ĠØªÙĤÙĦ": 4517,
      "ĠØ§ÙĦØ¹Ø§ÙĦÙĬ": 4518,
      "ØºØ§Ø¡": 4519,
      "ĠÙĪÙĬØ¨ÙĦØº": 4520,
      "ĠÙĪÙģÙĤ": 4521,
      "ĠÙĦÙħØŃ": 4522,
      "ĠØ¥Ø³Ø±Ø§Ø¦ÙĬÙĦÙĬØ©": 4523,
      "ĠØ¨Ø§ÙĤÙĬ": 4524,
      "Ġp": 4525,
      "ÙĤÙĪÙĤ": 4526,
      "ĠØªØ´Ø§Ø±": 4527,
      "ĠØ§ÙĦÙĤØ¯ÙĬØ³": 4528,
      "ĠØ§ÙĦÙĨÙĪÙĪÙĬØ©": 4529,
      "Ø§Ø¶Ø±": 4530,
      "ĠØ§ÙĦØ£ØµÙĦÙĬÙĬÙĨ": 4531,
      "ĠÙħØ³Ø¬Ø¯": 4532,
      "ĠØ§ÙĦÙĥÙĨØ§Ø¦Ø³": 4533,
      "ĠÙĦÙĦØºØ§ÙĬØ©": 4534,
      "ĠØ§ÙĦØ´Ø±Ø·Ø©": 4535,
      "ĠØ£ØªØ¨Ø§Ø¹": 4536,
      "ĠÙĩÙĬØ±": 4537,
      "Ø¨ÙĦÙĪÙħ": 4538,
      "ĠÙħØ¤Ø³Ø³Ø©": 4539,
      "ĠÙĪØ§ÙĦØªØ¹": 4540,
      "Ø§ÙĨØ¹": 4541,
      "ĠØ¨ØŃÙĬØ±Ø©": 4542,
      "ĠØ¹Ø´": 4543,
      "ÙĦÙĨØ¯Ø§": 4544,
      "ĠØ£Ø¬Ø±": 4545,
      "Ġ80": 4546,
      "ĠÙĥÙĦÙħ": 4547,
      "Ø°ÙĬØ©": 4548,
      "ĠØ¶Ùħ": 4549,
      "ÙĤÙĬÙĤÙĬØ©": 4550,
      "ĠÙĦÙĦØ¯ÙĪÙĦØ©": 4551,
      "ĠØ³Ø¹Ø¯": 4552,
      "ĠØ§ÙĦØŃÙħÙĦØ©": 4553,
      "ĠÙĪØªØ±Ùĥ": 4554,
      "ĠØ±Ø¦ÙĬØ³ÙĬØ©": 4555,
      "ĠÙĪØ³Ø¬ÙĦ": 4556,
      "Ġc": 4557,
      "ĠØµØ±": 4558,
      "ĠØªØªØ¶ÙħÙĨ": 4559,
      "ĠØ§ÙĦÙħÙĦØ¹Ø¨": 4560,
      "Ø«ÙĤ": 4561,
      "ĠÙĪÙĦÙħØ§": 4562,
      "ĠØ¨ÙĥØ«ÙĬØ±": 4563,
      "Ø³ÙĬØ¬": 4564,
      "ĠØ§ÙĦÙħØªØ¨": 4565,
      "ĠÙĪØ¬Ø¯Øª": 4566,
      "ĠÙħØ¦ÙĪÙĬØ©": 4567,
      "Ø§Ø¦ÙģØ©": 4568,
      "Ø¯Ùī": 4569,
      "ĠØ§ÙĦÙħÙĤØ§ÙĦØ©": 4570,
      "ÙĪØ§ÙĬØ§Øª": 4571,
      "ĠÙĪØºÙĬØ±ÙĩÙħ": 4572,
      "ĠØ§ÙĦÙħØŃÙĬ": 4573,
      "Ø§Ø³ÙĪØ¨": 4574,
      "ÙĨØ§Ø·ÙĬØ³ÙĬ": 4575,
      "ÙĬØªØ§ÙĨ": 4576,
      "Ø¨ÙĬØ¹Ø©": 4577,
      "ĠØªØ³Ùħ": 4578,
      "Ø§Ø²ÙĬØº": 4579,
      "ĠÙĨØ¬Ø§ØŃ": 4580,
      "ĠØ¥Ø¹ÙĦØ§ÙĨ": 4581,
      "Ø´Ø±Ø§Ùģ": 4582,
      "ĠØŃØ¬Ø±": 4583,
      "Ø§Ø·ÙĬØ±": 4584,
      "ĠØ³ÙĪÙĤ": 4585,
      "ĠØªØ¹Ø±ÙĬÙģ": 4586,
      "ĠØ§ÙĦØªØ±Ø¬": 4587,
      "ĠØ£ÙĦØ¨ÙĪÙħ": 4588,
      "ÙĥØ´": 4589,
      "ÙĥØ¨Ø±": 4590,
      "37": 4591,
      "os": 4592,
      "ĠØ§ÙĦØ¨ØŃØ±ÙĬÙĨ": 4593,
      "ĠÙĦØ¢": 4594,
      "Ø§Ø¨Ø¯": 4595,
      "ĠØ§ÙĦØŃØ¶Ø§Ø±Ø©": 4596,
      "ÙĩÙĬÙĪÙĨ": 4597,
      "ĠØ§ÙĦØ£ÙĨØ¯ÙĦØ³": 4598,
      "ĠØ§ÙĦÙĥØ§Ø¦ÙĨØ§Øª": 4599,
      "ĠØ£Ø³Ø§Ø³ÙĬ": 4600,
      "ĠØ§ÙĦÙĨÙĬÙĥÙĦ": 4601,
      "ÙĨÙĪÙĨ": 4602,
      "ĠØªÙĬÙħ": 4603,
      "ĠÙħØ¯Ø§Ø±": 4604,
      "Ø³Ø§ÙĪÙĬ": 4605,
      "ĠÙĪØ§ÙĦØªØ±": 4606,
      "ĠØ§ÙĦØ¥ÙĨØªØ±ÙĨØª": 4607,
      "ĠØ§ÙĦØ§ÙĨÙĩÙĬØ§Ø±": 4608,
      "ĠØ§ÙĦØ¹ØµØ¨": 4609,
      "Ø¨ÙĪØ§Ø¨": 4610,
      "Ø§ÙĪÙĨ": 4611,
      "ĠÙĥØ§ÙģØ©": 4612,
      "ĠØ§ÙĦÙģÙĥØ±": 4613,
      "Ø¨ÙĬÙĩ": 4614,
      "ÙĪØªÙĬ": 4615,
      "Ġt": 4616,
      "ĠØ§ÙĨØªØ´Ø±": 4617,
      "ÙĨØº": 4618,
      "ĠØ¬ÙĬ": 4619,
      "ĠÙĨØ¸Ø±": 4620,
      "ĠØ§ÙĦØ¯ÙĬÙħÙĤØ±Ø§Ø·ÙĬ": 4621,
      "ĠÙĦÙĥÙĬ": 4622,
      "ĠÙĬØ¶Ùħ": 4623,
      "ĠØ§ÙĦØ£Ø±Ø¨Ø¹": 4624,
      "ĠÙĪÙħØ¤": 4625,
      "ĠÙħØ·Ø§Ø±": 4626,
      "ĠØ£ÙĤØµÙī": 4627,
      "ĠØ§ÙĦÙħØ¨ÙĥØ±Ø©": 4628,
      "ĠØ§ÙĦØ¬Ø¨Ø§ÙĦ": 4629,
      "ĠØ§ÙĦØ¨Ø±ÙĪØªØ³ØªØ§ÙĨ": 4630,
      "ĠØªØ¯Ø¹Ùī": 4631,
      "ĠØ§ÙĦÙħÙĤØ¯Ø³Ø©": 4632,
      "ĠÙĪÙģØ§Ø²": 4633,
      "ĠØ¯Ø±Ø³": 4634,
      "ĠØ§ÙĦÙĤÙĨØ§Ø©": 4635,
      "ĠØ¹ÙĦØ§Ø¬": 4636,
      "ĠØ§ÙĦØ´Ø±ÙĬÙģ": 4637,
      "ĠØŃÙĬÙĨÙĩØ§": 4638,
      "ÙħØ§ÙĥÙĨ": 4639,
      "ĠÙĨØªØ§Ø¦Ø¬": 4640,
      "36": 4641,
      "ĠØ¥Ø¬ÙħØ§ÙĦÙĬ": 4642,
      "ĠØ§ÙĦØ£Ø³ÙĨØ§ÙĨ": 4643,
      "ĠØ§ÙĦÙħØŃÙĬØ·Ø©": 4644,
      "ĠØ¹Ø±Ø¨ÙĬØ©": 4645,
      "ĠØ·ÙĨ": 4646,
      "ĠØ§ÙĦÙĪØ¸": 4647,
      "ĠÙĪÙĦÙĤØ¯": 4648,
      "ĠØ§ÙĦÙĨØ¸Ø±ÙĬØ©": 4649,
      "ĠÙĦØ°Ø§": 4650,
      "ĠØ§ÙĦØµØŃØ§Ø¨Ø©": 4651,
      "90": 4652,
      "Ø®Ø·Ø·": 4653,
      "ĠÙĦÙĦØªÙģ": 4654,
      "ÙĪÙĥÙĬ": 4655,
      "Ù¾": 4656,
      "ĠÙĦØ®": 4657,
      "Ø§ØªÙĩÙħ": 4658,
      "Ø·Ø¨Ø§Ø¹Ø©": 4659,
      "ĠÙĪØ§ÙĤ": 4660,
      "ĠØµØ§Ø±": 4661,
      "ĠØ³ÙĬÙħØ§": 4662,
      "ĠØ³ÙĦØ·Ø§ÙĨ": 4663,
      "ĠØ§ÙĦØ¥ØºØ±ÙĬÙĤ": 4664,
      "ĠØ¨ÙĬØ±ÙĪØª": 4665,
      "ĠÙĪØ¬Ùħ": 4666,
      "ĠØ³ÙĥÙĨ": 4667,
      "ĠØ§ÙĦØµØŃÙĬØ©": 4668,
      "ĠØ£ÙģÙĦØ§Ùħ": 4669,
      "ÙĦÙĬÙĩ": 4670,
      "ĠØ§ÙĦØ§ÙĦ": 4671,
      "Ġ1995": 4672,
      "ĠØµÙĨØ§Ø¹": 4673,
      "Ġ180": 4674,
      "ĠØ§ÙĦÙģØª": 4675,
      "ÙĪÙģÙĬØ©": 4676,
      "ĠâĢİ": 4677,
      "ÙĥØªÙĦ": 4678,
      "Ø§ÙģØ³Ø©": 4679,
      "ĠØ¶Ø±Ø¨": 4680,
      "ÙĪØ§Ø¬Ùĩ": 4681,
      "ĠÙĦØºØ§Øª": 4682,
      "ĠØ³Ø±Ø¹Ø©": 4683,
      "ĠØ§ÙĦØŃÙĥÙĪÙħÙĬØ©": 4684,
      "Ø§ÙħÙĨ": 4685,
      "Ø¶Ùī": 4686,
      "ĠÙħÙģØªÙĪØŃØ§": 4687,
      "ĠØªÙģØ³ÙĬØ±": 4688,
      "ĠØ§ÙĦØ¨ÙĬØ§ÙĨØ§Øª": 4689,
      "ĠØ¨ÙħØ«": 4690,
      "ÙģÙĬÙĦ": 4691,
      "ØµØ§Ø¨": 4692,
      "ĠØªØ¹ÙĦÙħ": 4693,
      "ÙĪØ§ØŃÙĬ": 4694,
      "Ø§Ø±Ø¯ÙĪ": 4695,
      "ĠÙĩÙĨØ±ÙĬ": 4696,
      "ĠØ£ÙĪÙĦÙī": 4697,
      "ĠÙĬÙĤØ§Ùħ": 4698,
      "Ø¬Ø§ÙĪØ²": 4699,
      "ĠØªØ¤Ø¯ÙĬ": 4700,
      "ĠØ£ÙĪØ³": 4701,
      "ÙĬÙĪØª": 4702,
      "ĠÙĪØ¹ÙĨ": 4703,
      "playst": 4704,
      "playstyle": 4705,
      "ĠØ³Ø§Ø¹Ø©": 4706,
      "Ø§Ø±Ø³Ø©": 4707,
      "ĠØ§ÙĦØ¨ÙĦØ¯": 4708,
      "displaystyle": 4709,
      "ĠÙĪØ±Ø¨": 4710,
      "ØªØµØ§Øµ": 4711,
      "id": 4712,
      "ĠØ¨ÙĦØ¯ÙĬØ©": 4713,
      "ØŃØ±Ùģ": 4714,
      "ĠØ±Ø³Ø§ÙĦØ©": 4715,
      "Ø§ØªÙĬØ©": 4716,
      "Ø¦Ø°": 4717,
      "ĠØ§ÙĦØªØ®": 4718,
      "ĠØ·Ø¨ÙĤØ©": 4719,
      "ÙĥÙĬÙĨ": 4720,
      "ĠÙĩØ§Ùħ": 4721,
      "ĠÙĪØ§ÙĦØ£Ø³": 4722,
      "ØŃØ¯Ø§Øª": 4723,
      "Ø¨Ø¹Ø§Ø¯": 4724,
      "ĠØ§ÙĦÙĪØ¶Ø¹": 4725,
      "ĠÙĤÙĨ": 4726,
      "ĠÙģÙĦÙħØ§": 4727,
      "Ġ1993": 4728,
      "ĠØ§ÙĦØªØ°ÙĥØ§Ø±ÙĬ": 4729,
      "ĠÙģÙĪ": 4730,
      "Ø§ØŃÙĤØ©": 4731,
      "ĠØ§ÙĦØ¹ÙĦØ§ÙĤØ©": 4732,
      "Ø¨Ø±ÙĬ": 4733,
      "ĠØ§ÙĦØ´ÙĩØ±": 4734,
      "ĠÙĪØ§ÙĦÙħØ¹": 4735,
      "ĠØ§Ø¹ØªÙħØ¯": 4736,
      "ĠØªÙħÙĬØ²": 4737,
      "ĠØ£ÙģØ§Ø¯": 4738,
      "ĠØ³ÙĬØ§Ø³Ø©": 4739,
      "ÙĪØ³ÙĪÙģ": 4740,
      "ĠØŃØµÙĦØª": 4741,
      "ĠÙĪÙĬØ¹Ø¯": 4742,
      "ÙĪØ¹ÙĬØ©": 4743,
      "ÙĬÙĪØ§ÙĨØ§Øª": 4744,
      "ĠØŃØ±Ùģ": 4745,
      "ĠØ¨ÙħÙĪØ¬Ø¨": 4746,
      "ĠØ¹Ø«Ø±": 4747,
      "ĠÙĪØ§ÙĦÙħØ³": 4748,
      "Ø§ÙĦÙĬØ¨": 4749,
      "ĠØ§ÙĦØ£Ø±Ø¶ÙĬØ©": 4750,
      "ĠØ¹ÙħÙĦÙĩ": 4751,
      "ÙĨÙĥ": 4752,
      "ĠØ§ÙĦØ¯Ø±Ø§Ø³Ø©": 4753,
      "ĠØ§ÙĦØ¯Ø§Ø®ÙĦÙĬ": 4754,
      "ĠØºØ²Ø©": 4755,
      "ĠØ²ÙĪØ¬ØªÙĩ": 4756,
      "ĠÙĦÙĤÙĬ": 4757,
      "ĠÙĬÙħÙĨ": 4758,
      "ĠØªØŃØ·ÙħØª": 4759,
      "ĠÙĪØ³Ùħ": 4760,
      "ĠÙĪØ§ÙĦØ£ÙĨ": 4761,
      "ĠÙħØ¨Ø§Ø±ÙĬØ§Øª": 4762,
      "ĠÙĨØ¬Øª": 4763,
      "ĠÙĦÙĬÙĥÙĪÙĨ": 4764,
      "ĠÙĬÙĤØ¯Ø±": 4765,
      "ĠØ§ÙĦÙĩØ§Ø¯": 4766,
      "ĠÙĬØ¨Ø¯Ø£": 4767,
      "ĠØ£Ø¹ÙħØ§ÙĦÙĩ": 4768,
      "ĠØ§ÙĦÙĩØ¬Ø±ÙĬ": 4769,
      "ĠØªØ±ÙħÙĬØ²": 4770,
      "Ø§Ø²Ùħ": 4771,
      "ĠØ¬ÙĬÙħØ³": 4772,
      "ĠØ§ÙĦÙĨØ³Ø¨": 4773,
      "ĠØ§ÙĦØ³Ø§ÙħÙĬØ©": 4774,
      "ĠØ§ÙĦÙĤÙĪÙħÙĬØ©": 4775,
      "ĠØ¨ÙħØ«Ø§Ø¨Ø©": 4776,
      "ĠÙĬÙĤØ±Ø¨": 4777,
      "Ø´Ø·Ø©": 4778,
      "Ø¦ÙĬÙĨ": 4779,
      "ĠØ§ÙĦØ´Ø¹ÙĪØ¨": 4780,
      "ÙĨØ²": 4781,
      "ĠØ¨ÙħØ¯ÙĬÙĨØ©": 4782,
      "ĠØ§ÙĦØ¢Ø®Ø±ÙĬÙĨ": 4783,
      "ĠÙħÙĬØ±": 4784,
      "ĠÙħÙĦÙĪÙĥ": 4785,
      "ĠØ§ÙĦØ·Ø¨ÙĬØ©": 4786,
      "Ø¨ÙĪØ±Øº": 4787,
      "ĠØ¥Ø±": 4788,
      "Ø§Ø¨Ø§ÙĬØª": 4789,
      "ĠØ³Ø§Ø¹Ø¯": 4790,
      "ĠØ§ÙĦØ·Ø§Ø¦Ø±Ø©": 4791,
      "ĠØ§ÙĦÙħØ³ØªØ®Ø¯ÙħØ©": 4792,
      "ĠÙĩÙĬÙĦ": 4793,
      "ĠÙĨÙĬÙĥ": 4794,
      "ĠØ§ÙĦØ£ÙħÙĪØ±": 4795,
      "ĠÙĪÙĥÙĨ": 4796,
      "ĠØ§ÙĦÙħÙĩÙħØ©": 4797,
      "ĠÙĬØ£ØªÙĬ": 4798,
      "ĠÙĪØ§ÙĦÙħØŃ": 4799,
      "ĠÙĬØ¶": 4800,
      "ÙĪØ²Ø¹": 4801,
      "ĠØ§ÙĦØ´ØªØ§Ø¡": 4802,
      "75": 4803,
      "ĠØ§ÙĦØ£Ø±Ø«ÙĪØ°ÙĥØ³ÙĬØ©": 4804,
      "Ø±ÙĬØº": 4805,
      "ĠØ³Ø§Ùħ": 4806,
      "ĠØ§ÙĦØŃØ¬Ø±": 4807,
      "ĠØ§ÙĦØ²ÙĪØ§Ø¬": 4808,
      "ĠØ§ÙĦØ¨Ø±ØªØº": 4809,
      "ĠØ¹ÙĨØµØ±": 4810,
      "ĠØ§ÙĦØ¹Ø±Ø´": 4811,
      "ĠØ§ÙĦÙĤÙĪÙĦ": 4812,
      "ÙĪØ¬ÙĬÙĩ": 4813,
      "ĠØ§ÙĦØ§Ø«": 4814,
      "Ø¨ÙĬØ¨": 4815,
      "Ø¦Øª": 4816,
      "ĠÙĪØªØ¯": 4817,
      "ĠØ§ÙĦØ¯ÙĤÙĬÙĤØ©": 4818,
      "ĠØ¥ÙĬØ±": 4819,
      "ĠØ³Ø§ØŃÙĦ": 4820,
      "ĠØ±ÙģØ¹": 4821,
      "ĠØ´ÙĬÙĪØ¹Ø§": 4822,
      "ĠØ´Ø£ÙĨ": 4823,
      "ĠØ¨Ø§ÙĦØ§ÙĨ": 4824,
      "ĠØ§ÙĦØ¯ÙħÙĪÙĬØ©": 4825,
      "ĠÙħÙģÙĩÙĪÙħ": 4826,
      "ĠÙĥØªÙĦØ©": 4827,
      "Ø³ØªÙĬÙĨ": 4828,
      "ĠØ§ÙĦØ¹Ø¨Ø§Ø³": 4829,
      "ÙĬÙĥØ¨": 4830,
      "ÙĩÙĪØ¯ÙĬ": 4831,
      "ĠDNA": 4832,
      "ĠÙĥÙĩØ±Ø¨": 4833,
      "Ġ1945": 4834,
      "38": 4835,
      "ĠØªØ³Ø¬ÙĬÙĦ": 4836,
      "ĠØ§ÙĦÙĤØ§Ø¦Ø¯": 4837,
      "ÙģØ§Ø¹ÙĦØ§Øª": 4838,
      "ĠØ§ÙĦØ£ÙħØ·Ø§Ø±": 4839,
      "Ø¯ÙĨ": 4840,
      "ĠØ§ÙĦÙĨØ®": 4841,
      "ĠØ§ÙĦØ®ÙĬ": 4842,
      "ĠØ§ÙĦØ·ÙĬÙĪØ±": 4843,
      "ĠØ§ÙĦÙĤØ¶Ø§Ø¡": 4844,
      "ØŃØ±ÙĬØ©": 4845,
      "ĠØ¨ÙĬØ¯": 4846,
      "ĠØªØµØ¨ØŃ": 4847,
      "ĠØ§ÙĦØ³ÙĥØ§ÙĨÙĬØ©": 4848,
      "ĠØ§ÙĦØ¨ÙĬØ¶": 4849,
      "ĠØ®ÙĦÙĬÙģØ©": 4850,
      "ĠÙħØ³ÙĬØ±ØªÙĩ": 4851,
      "ĠØ¥ÙĬØ¬": 4852,
      "ÙħÙĪØª": 4853,
      "ĠØ¨Ø´Ø£ÙĨ": 4854,
      "ĠØ§ÙĦØ«ÙĤØ§ÙģÙĬØ©": 4855,
      "ĠÙĤØ§Ø±Ø¦": 4856,
      "ĠÙĪØ§ÙĦØªÙĤ": 4857,
      "ĠÙĥØ¨Ø§Ø±": 4858,
      "ĠØ±Ø¬": 4859,
      "ĠØªØ£Ø«Ø±": 4860,
      "ĠÙĪØ§ÙĨØªÙĩ": 4861,
      "ØªØ©": 4862,
      "ĠØ±Ø¯": 4863,
      "Ø§Ø¯Ùħ": 4864,
      "ÙĬØ¯Ø§Øª": 4865,
      "ØºÙĬÙĬØ±Ø§Øª": 4866,
      "ĠÙħØ¬ÙĦØ¯Ø§": 4867,
      "ĠÙĪØ§Ø¬Ùĩ": 4868,
      "ĠØªØŃÙĪÙĬÙĦ": 4869,
      "ĠØ¨Ø£ÙħØ§ÙĨ": 4870,
      "ĠØ¯Ø§Ø®": 4871,
      "Ø·ÙĨØ©": 4872,
      "ĠÙģÙĥ": 4873,
      "Ġ1989": 4874,
      "ĠW": 4875,
      "Ø«ÙĦØ§": 4876,
      "ĠØ¯Ø§Ø¦Ø±Ø©": 4877,
      "ĠØ§ÙĦÙħÙĬ": 4878,
      "ĠÙĪØ¬Ø¹ÙĦ": 4879,
      "Ø®Ø§ÙĦ": 4880,
      "ĠÙħØªØ§ØŃØ§": 4881,
      "ĠÙħÙĪØ±": 4882,
      "ĠÙĤÙĪØ§Ø¹Ø¯": 4883,
      "ĠÙĦÙĬÙģ": 4884,
      "ĠØ¨Ø§ÙĦØ±ØºÙħ": 4885,
      "ĠØªØµÙĨÙĬÙģ": 4886,
      "ĠØ§ÙĦÙħØ¯ÙĨÙĬØ©": 4887,
      "Ġ2018": 4888,
      "ØŃØ§ÙĤ": 4889,
      "ĠÙĪØªØŃØª": 4890,
      "ĠØŃØ§ÙĥÙħ": 4891,
      "ĠÙĬØ¨Ø¯ÙĪ": 4892,
      "ÙĦÙħØ§ÙĨÙĬØ©": 4893,
      "ĠØ§Ø³ØªÙĤØ±": 4894,
      "ĠØ§ØŃØªÙģ": 4895,
      "ĠØ£Ø¬ÙĩØ²Ø©": 4896,
      "ur": 4897,
      "ĠÙħÙĪØª": 4898,
      "ĠØ§ÙĦØ³ÙģÙĨ": 4899,
      "Ġ747": 4900,
      "ÙĤØ§Ø¨": 4901,
      "Ø«Ùī": 4902,
      "ĠØ¬ÙĪØ²": 4903,
      "ÙģØ§Ø¡": 4904,
      "ĠÙħØ£": 4905,
      "ĠÙĬÙĤÙĦ": 4906,
      "ĠØºÙĬØº": 4907,
      "ĠØ§ÙĦØŃÙħØ±Ø§Ø¡": 4908,
      "ĠØªÙħØªØ¯": 4909,
      "ĠØ§ÙĦØ±ÙĬØ§Ø¶ÙĬØ§Øª": 4910,
      "ĠØ¨ÙĦØ§": 4911,
      "ĠØ£ÙĨÙģØ³ÙĩÙħ": 4912,
      "39": 4913,
      "ĠØ§ØµØ·ÙĨØ§Ø¹ÙĬ": 4914,
      "ĠØ£ÙĦØ¨": 4915,
      "Ø§Ø´ÙĬ": 4916,
      "ĠÙģØ§Ø±Ø³": 4917,
      "ĠØªØ¬Ø§Ùĩ": 4918,
      "ĠØ§ÙĦÙĨÙĩØ§Ø¦ÙĬØ©": 4919,
      "ĠØ§ÙĦÙģÙĤØ±": 4920,
      "ĠØ§ÙĦØ¬ÙĨØ³": 4921,
      "ĠÙħØŃØ¯Ø¯Ø©": 4922,
      "Ġ65": 4923,
      "ĠØ§ÙĦÙĪØ³": 4924,
      "Ø§ÙĦØ§Ø³Ùħ": 4925,
      "ĠÙħÙĨÙĤÙĪØ´Ø©": 4926,
      "ĠØ¥Ø·Ø§Ø±": 4927,
      "Ø³Ø¬Ø©": 4928,
      "am": 4929,
      "ĠØ§ÙĦØ£Ø¨ÙĪØ§Ø¨": 4930,
      "ĠØ§ÙĦØŃÙĤÙĪÙĤ": 4931,
      "ĠÙħÙĤØ§ÙĪÙħØ©": 4932,
      "ĠÙĪØ³ÙĦ": 4933,
      "ĠØ§ÙĦØ£ÙħØ©": 4934,
      "Ø¯ÙĬÙĤØ©": 4935,
      "ĠØ§ÙĦÙĪØ§ØŃØ¯": 4936,
      "ÙĬÙĥØ³": 4937,
      "ĠØ±Ø¦ÙĬØ³ÙĬ": 4938,
      "ĠÙħØ¤Ø³Ø³": 4939,
      "Ġ1980": 4940,
      "Ø°Ø§Ø±": 4941,
      "ĠØ§ÙĦØ¬ÙħØ§Ø¹Ø©": 4942,
      "ĠØŃÙĬØ§Øª": 4943,
      "ĠØ§ÙĦÙģØ¶Ø§Ø¡": 4944,
      "ĠØ®Ø·ÙĪØ·": 4945,
      "ĠØ¨Ø§ÙĦØ´": 4946,
      "ÙĪÙĬØ¶": 4947,
      "Ø§Ø´Ø©": 4948,
      "ÙĪØ¨ÙĬØ§": 4949,
      "ĠÙĪØ§ÙĦÙħØ¯": 4950,
      "Ġ90": 4951,
      "ĠØ³ÙĬØ§Ø³ÙĬ": 4952,
      "Ø£Ø«Ø±": 4953,
      "ĠØ§ÙĦØ·Ø¹Ø§Ùħ": 4954,
      "ÙĬØ§ÙĨØ§": 4955,
      "ĠØªÙĪØ±": 4956,
      "ĠØ§ÙĦÙħØŃÙĥÙħØ©": 4957,
      "ĠÙĪØ£ÙĪÙĦ": 4958,
      "ĠØ§ÙĦÙĥÙĦÙĬØ©": 4959,
      "ĠÙĨØ§Ø¯": 4960,
      "ØªÙĦÙģØ¸": 4961,
      "32": 4962,
      "ĠÙĪØ§ÙĦØ¬ÙĨ": 4963,
      "ĠÙħØ±ÙĥØ²Ø§": 4964,
      "Ġ1970": 4965,
      "ĠØ§ÙĦÙħØ°ÙĩØ¨": 4966,
      "ĠØ±Ø¦Ø§Ø³Ø©": 4967,
      "ĠØ§ÙĦØµÙĬÙģ": 4968,
      "ĠØ§ÙĨØ®ÙģØ§Ø¶": 4969,
      "ØªÙĦØ±": 4970,
      "ĠØ§ÙĦÙħÙĦÙĥØ©": 4971,
      "ĠØ§ÙĦØ¹ÙĤØ¯": 4972,
      "ĠÙĨØ´Ø£Øª": 4973,
      "ĠØ¨Ø²": 4974,
      "ĠØ£ÙħÙĨ": 4975,
      "ĠØ§ÙĦÙħØ²ÙĩØ±Ø©": 4976,
      "ĠØ·ÙĪØ±": 4977,
      "ĠÙĪØ´Ø§Ø±Ùĥ": 4978,
      "ÙģØ¬Ø§Ø±": 4979,
      "ĠØ¨ØŃØ«": 4980,
      "ĠÙģÙĥØ§ÙĨØª": 4981,
      "ĠÙģØ´ÙĦ": 4982,
      "Ø´ØªØ§ÙĬÙĨ": 4983,
      "ÙħØ§Ø·": 4984,
      "ĠØ§ÙĦØ£ÙģÙĦØ§Ùħ": 4985,
      "ÙĤØ§ÙĬØ§": 4986,
      "ĠÙĨØ¨Ø§Øª": 4987,
      "ĠØ¨ÙĬØ¹": 4988,
      "Ø§ÙĦØ±": 4989,
      "Ø§Ø«Ø©": 4990,
      "Ø®ØªØ§Ø±": 4991,
      "ĠÙĪØ£Ø®Ø°": 4992,
      "ĠØ§ÙĦØŃÙĬØ©": 4993,
      "ĠØ³Ø¨Ø¹Ø©": 4994,
      "ÙĬØ·Ø§ÙĨ": 4995,
      "ĠØ¨ÙĤÙĬØ©": 4996,
      "ĠØ°ÙĩØ¨": 4997,
      "ĠØ§ÙĦÙħØªÙħ": 4998,
      "ĠØ§ÙĦØªÙĪØ§ÙĦÙĬ": 4999,
      "ĠÙģØ§Ø³Øª": 5000,
      "ØµØŃ": 5001,
      "ĠÙĩÙĨØ¯": 5002,
      "Ø¬ÙħØ§Øª": 5003,
      "ĠØ¬ÙħØ¹ÙĬØ©": 5004,
      "ĠÙĦØ¨Ø¹Ø¶": 5005,
      "ÙĪØ§Ø±Ø¯": 5006,
      "ĠØ§ÙĦÙĬØ¯": 5007,
      "ĠØ«ÙĨØ§Ø¦ÙĬ": 5008,
      "ĠØ§ÙĦÙĤØ§Ø¯ÙħÙĬÙĨ": 5009,
      "ØµØ§ÙĦØ§Øª": 5010,
      "Ø§Ø¤Ùĩ": 5011,
      "34": 5012,
      "ĠØ¬ÙħØ§ÙĦ": 5013,
      "ÙħÙĨÙĬÙĨ": 5014,
      "ĠØ§ÙĦÙħØ«ÙĦ": 5015,
      "ÙĬÙĤÙĬ": 5016,
      "ĠÙĪØ§ÙĦØ§ÙĨ": 5017,
      "ĠÙħØ§Ø±ÙĬ": 5018,
      "Ø°ÙĨ": 5019,
      "ĠÙģØ±ÙĬØ¯": 5020,
      "Ġ45": 5021,
      "ĠØ§ÙĦØ¬Ø¯ÙĪÙĦ": 5022,
      "Ø´Ø§Ø¨": 5023,
      "ĠØ§ÙĦÙħÙĩØ§Ø¬": 5024,
      "Ø¨ØŃØ§Ø«": 5025,
      "Ġ274": 5026,
      "301": 5027,
      "ĠØ§ÙĦØ¥ÙĬØ±Ø§ÙĨÙĬØ©": 5028,
      "ĠØ®Ø·Ø±": 5029,
      "ĠØ§Ø³ØªØ¹ÙħØ§ÙĦ": 5030,
      "ĠÙĪØ£Ø´": 5031,
      "Ø¹ÙħØ±Ø©": 5032,
      "ĠØ§ÙĦØ£Ø±ÙħÙĨ": 5033,
      "ĠØ£Ø³Ø§Ø³Ø§": 5034,
      "Ø·ÙģÙī": 5035,
      "ĠÙħØŃØªÙĪØ§ÙĩØ§": 5036,
      "ĠØ¥Ø«": 5037,
      "ĠØ§ÙĦØ£Ø³ÙĦØŃØ©": 5038,
      "ĠØ§ÙĦÙĩÙĨØ¯Ø³Ø©": 5039,
      "ĠØ®Ø³": 5040,
      "ĠÙĪØ§ÙĦØ£Ø¯": 5041,
      "ĠÙĬØ®ØªÙĦÙģ": 5042,
      "ĠØ¹Ø¨Ø§Ø³": 5043,
      "ĠØ¨ÙĨØµØ¨": 5044,
      "ĠØ§ÙĦÙĥØ§ÙħÙĦ": 5045,
      "ÙģØ²": 5046,
      "ĠÙĪØ³ÙĦÙħ": 5047,
      "ĠÙĪÙĬØ¯": 5048,
      "ÙĨØ¯Ø³": 5049,
      "ĠØ§ÙĦØ°Ø§ØªÙĬ": 5050,
      "ÙĨØ§Ùĩ": 5051,
      "ĠØ§ÙĦÙĥØªÙĦØ©": 5052,
      "ĠØ§ÙĦÙħØ±ÙĥØ²ÙĬ": 5053,
      "ĠØ§ÙĦØ§Øµ": 5054,
      "as": 5055,
      "ĠØ¨ÙĪØ¬ÙĪØ¯": 5056,
      "ĠØ§ÙĦØ£ÙĦØ¨": 5057,
      "ĠØ§ÙĦÙģÙĬØ±ÙĪØ³": 5058,
      "Ø°Ø©": 5059,
      "ĠØ¨Ø§Ø³ØªØ«ÙĨØ§Ø¡": 5060,
      "ĠÙĥØ§Ø±ÙĦ": 5061,
      "ĠÙĥÙĪÙĬÙĥØ¨": 5062,
      "ĠØ¨ØªØ¹": 5063,
      "Ø®Ø±Ùģ": 5064,
      "ĠØ·Ø§Ø¦Ø±Ø©": 5065,
      "Ġ500": 5066,
      "ĠÙģÙĬÙĪÙĦØ§": 5067,
      "Ġ1956": 5068,
      "ĠØ§ÙĦØ°ÙĥØ±": 5069,
      "ĠÙģÙĪØ±": 5070,
      "ĠØ¹Øµ": 5071,
      "ĠØ§ÙĦØŃÙĬÙĨ": 5072,
      "ĠØ¨Ø¨Ø¹Ø¶": 5073,
      "ÙĪØ§Ø³": 5074,
      "ĠÙħÙĪØ§Ø¯": 5075,
      "ĠØ§ÙĨØ¯ÙĦ": 5076,
      "ĠØ§ÙĦØ§ÙĤ": 5077,
      "ĠØ§ÙĦØ¨Ø§ÙĦØº": 5078,
      "ĠØ§ÙĦØ±ÙĪØ§ÙĬØ©": 5079,
      "ĠØ±ÙħØ¶Ø§ÙĨ": 5080,
      "ĠÙĨÙħÙĪØ°Ø¬": 5081,
      "ĠÙĪØ¨ÙĬ": 5082,
      "ĠÙħØŃØ·Ø©": 5083,
      "ĠØ§ÙĦÙħÙĤØ§ÙĪÙħØ©": 5084,
      "ĠØ§ÙĦÙħØ¤ÙĦÙģ": 5085,
      "ĠØ§ÙĦÙħÙĪØ³ÙĪØ¹Ø§Øª": 5086,
      "ĠØ§ÙĦÙģÙĦØ³Ø·ÙĬÙĨÙĬ": 5087,
      "Ø§ØŃÙĬ": 5088,
      "65": 5089,
      "ĠÙĪØ§ÙĦØªØ¬": 5090,
      "ĠÙĨØ¸Ùħ": 5091,
      "ĠØ¯ÙĬÙħ": 5092,
      "ĠØ§ÙĦÙĨÙĤÙĦ": 5093,
      "ĠØ§ÙĦØ§Ø³ØªØ®Ø¯Ø§Ùħ": 5094,
      "Ø§ÙĪÙĦØ§Øª": 5095,
      "ĠÙĥØ§ÙħÙĦØ©": 5096,
      "ÙĨØ¨ÙĪÙĦ": 5097,
      "ÙĪÙħÙĨ": 5098,
      "ĠØªØº": 5099,
      "ĠÙĪÙĬÙĨØ¯ÙĪØ²": 5100,
      "ĠÙĥØ«Ø§ÙģØ©": 5101,
      "ĠÙħÙħØ«ÙĦ": 5102,
      "ĠØ§ÙĦØ¬ÙħÙĩÙĪØ±ÙĬ": 5103,
      "ÙĪÙĬÙĥÙĬØ¨ÙĬØ¯ÙĬØ§": 5104,
      "ĠØ§ÙĦØªÙĦÙģØ²ÙĬ": 5105,
      "ĠÙĤÙĦØ¹Ø©": 5106,
      "Ø³Ø·ÙĨØ·ÙĬÙĨÙĬØ©": 5107,
      "ÙĬØ´ÙĬØª": 5108,
      "Ø§ÙĬÙĦ": 5109,
      "ĠÙħØ³Ø±ØŃ": 5110,
      "ĠÙĪØ¥Ø°Ø§": 5111,
      "Ø§ÙĥÙĬ": 5112,
      "ĠØºØ¶": 5113,
      "Ø§ÙħØ±": 5114,
      "ĠØ§ÙĦØ®Ø§Ø±Ø¬ÙĬ": 5115,
      "ĠÙħÙĩÙħØ§": 5116,
      "ĠÙģØ±ÙĬ": 5117,
      "ÙĨØ³": 5118,
      "ÙħØ±Ø§Ø±": 5119,
      "Ø¬Ø§Ø¨Ø©": 5120,
      "ĠØªØ¬ÙħØ¹": 5121,
      "ĠØ´Ùħ": 5122,
      "ĠØ§ÙĦØ£Ø«Ø±ÙĬØ©": 5123,
      "ĠÙħÙĬÙĨØ§Ø¡": 5124,
      "Ø±ÙĬÙħØ©": 5125,
      "ÙĪØªØ§": 5126,
      "Ø²ÙĬÙĦ": 5127,
      "ĠÙģÙħØ§": 5128,
      "ĠØ¨Ø±Ø§ÙħØ¬": 5129,
      "ĠØ§ÙĦÙĨØ¬ÙĪÙħ": 5130,
      "ĠØ¹ÙĨÙĪØ§ÙĨ": 5131,
      "ĠØ·Ùģ": 5132,
      "ĠØºÙĬØºØ§Ø¨Ø§ÙĬØª": 5133,
      "Ø¯ÙĬØ±": 5134,
      "Ø³ÙĬÙĪÙĬØ©": 5135,
      "Ø±ÙĥØ§ÙĨ": 5136,
      "ĠØ§ÙĦØ¬ÙĨÙĪØ¯": 5137,
      "ĠØ®Ø¯ÙħØ©": 5138,
      "Ø§Ø·Ø±": 5139,
      "ĠÙħÙĬØ²": 5140,
      "Ø§Ø¯ÙĦØ©": 5141,
      "ĠØ§ÙĦÙĤÙĪØ§ÙĨÙĬÙĨ": 5142,
      "ĠÙħÙĪØ¶ÙĪØ¹": 5143,
      "ØŃÙĨØ©": 5144,
      "ÙĥÙħÙĦ": 5145,
      "ĠØ§ÙĦØ£ÙĪÙĦÙĬØ©": 5146,
      "ĠØ§ÙĦØªØ³ÙĪÙĬÙģ": 5147,
      "ÙĨÙĪ": 5148,
      "ĠâĢİ.": 5149,
      "ĠØ§ÙĦØµÙĪÙħ": 5150,
      "ĠØ¯Ø®ÙĦØª": 5151,
      "ĠÙĬÙĤØ¯Ùħ": 5152,
      "ĠØ¥ÙĦÙĥØªØ±": 5153,
      "Ø§ÙĨÙĬÙĪÙħ": 5154,
      "ĠÙĥØ·Ø¨Ø§Ø¹Ø©": 5155,
      "ĠØ¨ÙĬØ±ÙĬØ´ÙĬØª": 5156,
      "Ġ7473": 5157,
      "Ġ274301": 5158,
      "ĠÙĪØºØ§ÙĦØ¨Ø§": 5159,
      "ĠÙħØªÙĨÙĪØ¹Ø©": 5160,
      "ĠØ§ÙĦÙĨØ³Ø®Ø©": 5161,
      "ĠØ³ÙĬÙģ": 5162,
      "ĠØ®ÙĬ": 5163,
      "Ø§ÙĦÙĬÙĬÙĨ": 5164,
      "ĠØ§ÙĦÙĨÙĪØ§Ø¨": 5165,
      "ĠØ§ÙĦØ±ÙĪØŃ": 5166,
      "ĠÙħØ¹Ø±ÙģØ©": 5167,
      "ĠÙĪØ£ØŃ": 5168,
      "ĠØ§ÙĦÙħØ³Ø§": 5169,
      "198": 5170,
      "ØŃØ¯ÙĩØ§": 5171,
      "ĠÙģØ¬": 5172,
      "ĠÙĪØªÙĥÙĪÙĨ": 5173,
      "ĠØ¹Ø§Øµ": 5174,
      "ĠÙĦÙĪÙĥ": 5175,
      "ĠÙĦÙĦØŃØµÙĪÙĦ": 5176,
      "ĠØ§ÙĦÙĦØ¹Ø¨Ø©": 5177,
      "ĠÙĦÙĬØµØ¨ØŃ": 5178,
      "ĠÙĪØªÙĤØ¹": 5179,
      "ĠØ§ÙĦØ±Ùĥ": 5180,
      "ĠØ§ÙĦØŃØ¬Ùħ": 5181,
      "ĠÙĦÙħØ¹": 5182,
      "ĠØ§ÙĦØŃØ¨": 5183,
      "ĠØ§ÙĦØ¢Ø±": 5184,
      "Ø§ÙħÙĩ": 5185,
      "Ġm": 5186,
      "ĠØ§ÙĦØ§Ø³": 5187,
      "ĠÙĪÙĬØ´": 5188,
      "ÙĪØ§Ø¦Ùģ": 5189,
      "ĠÙħÙĪÙĦ": 5190,
      "ĠØ§ÙĦØ¥Ø±": 5191,
      "ĠØ¨Ø±ÙĬ": 5192,
      "ĠÙħØ¹ÙĩØ§": 5193,
      "ØªÙĬØ§ÙĦ": 5194,
      "ĠØ§ÙĦÙħØ³Ø±ØŃ": 5195,
      "Ø±ÙĬÙģØ©": 5196,
      "Ġ1979": 5197,
      "ĠØ¨ÙĪØ´": 5198,
      "ĠÙĦØ§Ø¹": 5199,
      "ĠÙħØ¹Ø±ÙĪÙģØ©": 5200,
      "ĠØ£Ø·ÙģØ§ÙĦ": 5201,
      "ĠØ§ÙĦØ§Ø´ØªØ±Ø§ÙĥÙĬØ©": 5202,
      "ØºÙĬØ±Ø§Øª": 5203,
      "ĠØ§ÙĦÙĤØ±Ùī": 5204,
      "ĠØªÙĦÙĤÙī": 5205,
      "Ø¬Ø¯ÙĬØ©": 5206,
      "ĠØ§ÙĦÙĤØ·Ø§Ø¹": 5207,
      "ĠØ®Ø§Ø¶": 5208,
      "ĠÙĪØ£ÙħØ§": 5209,
      "ĠÙĥÙĪÙĦÙĪÙħ": 5210,
      "Ø¬ÙħØ©": 5211,
      "Ø§ØŃØ§Øª": 5212,
      "Ø£ÙĦØ©": 5213,
      "Ø§Ø¨ÙĦØ³": 5214,
      "ĠØ³Ùĥ": 5215,
      "ĠØ¹ÙĦØ§ÙĤØ§Øª": 5216,
      "ĠØ§ÙĦØ£ØŃÙĬØ§Ø¡": 5217,
      "ĠØ§ÙĦØ¹ÙĦÙĪÙĬ": 5218,
      "ĠØ£Ø¨Ø±": 5219,
      "ĠØ§ÙĦÙħØ³ØªØ®Ø¯Ùħ": 5220,
      "ĠÙģÙĬØ±ÙĪØ³": 5221,
      "ĠØ§ÙĦØ¹Ø°": 5222,
      "Ø§ÙĥØªØ´": 5223,
      "ĠÙħØ±ÙĥØ¨": 5224,
      "ĠØ§ÙĦØ¢Ø´": 5225,
      "ĠÙħØ±Ø§ÙĥØ²": 5226,
      "ĠÙģØ¦Ø©": 5227,
      "ĠÙĪØ¹ÙħÙĦ": 5228,
      "ØªØ±Ø§Ø¶": 5229,
      "ĠØ§ÙĦØ³ÙĦØ³ÙĦØ©": 5230,
      "Ø±Ø¹": 5231,
      "ĠØ§ÙĦØªØ³ÙħÙĬØ©": 5232,
      "ÙĩØ§ÙĨ": 5233,
      "Ø¹ÙĪ": 5234,
      "ĠØ§Ø³ØªØ®Ø¯ÙħØª": 5235,
      "ĠØ£Ø·ÙĪÙĦ": 5236,
      "ĠØ§ÙĨØ³": 5237,
      "ĠØ§ÙĨØªÙĩØ§Ø¡": 5238,
      "Ø§ØªÙĬÙĨ": 5239,
      "ĠØŃÙģÙĦ": 5240,
      "ĠÙħÙĬÙĨ": 5241,
      "ĠÙĦÙĦØ³ÙĬ": 5242,
      "ĠØ°Ø§": 5243,
      "ĠÙģØªØ²": 5244,
      "ĠØ§ÙĦØ®Ø¯ÙħØ§Øª": 5245,
      "ĠØ§ÙĦØ«ÙĦ": 5246,
      "ÙĨÙĤ": 5247,
      "ØªÙĬØ±": 5248,
      "Ġ1982": 5249,
      "ĠØ§ÙĦØ¹ÙĪØ§ÙħÙĦ": 5250,
      "ĠÙĪØ§ÙĦØ³ÙĦ": 5251,
      "ĠØ³ÙħÙĬ": 5252,
      "33": 5253,
      "ĠÙģØ±ÙĤØ©": 5254,
      "ĠØ¹ÙĬØ¯": 5255,
      "ĠØ´Ø§Ùĩ": 5256,
      "ĠØ´ÙħØ§ÙĦØ§": 5257,
      "Ġ1988": 5258,
      "ĠÙħØ¯Ø±": 5259,
      "Ø·Ø¨Ø§Ø¡": 5260,
      "ĠØ§ÙĦÙģØ¹ÙĦ": 5261,
      "ÙĨØ·ÙĨ": 5262,
      "Ġ1960": 5263,
      "Ø§ÙĩØ§": 5264,
      "ØŃÙĩ": 5265,
      "Ø§Ø±ÙĬØ¹": 5266,
      "ĠØ¨ÙĪÙĨ": 5267,
      "ĠÙģØ±Ø¹": 5268,
      "ĠØ§ÙĦÙĨØŃ": 5269,
      "Ġ300": 5270,
      "Ø²ÙĬØ§Ø¡": 5271,
      "ĠÙĬØŃØµÙĦ": 5272,
      "ĠØ§ÙĦØ¥Ø¯Ø§Ø±ÙĬØ©": 5273,
      "ĠØ¬Ø§Ùĥ": 5274,
      "ĠØ§Ø¹ØªØ¨Ø§Ø±": 5275,
      "ĠØ§ÙĦØ°ÙĩØ¨ÙĬ": 5276,
      "ĠØ¥Ø®": 5277,
      "ĠØ¨Ø§ÙĦØ¨": 5278,
      "ĠØ§ÙĦÙħØ±ÙĥØ¨Ø§Øª": 5279,
      "ÙĩÙĬÙĦ": 5280,
      "ĠÙĪØ°": 5281,
      "ĠÙĪØ°ÙĥØ±": 5282,
      "ĠØ§ÙĦØ¸Ø±ÙĪÙģ": 5283,
      "ĠØ§ÙĦØ³ÙĪÙģÙĬØªÙĬØ©": 5284,
      "Ø§ÙĤØ¨": 5285,
      "ĠØ§ÙĦÙĤØ±ÙĨÙĬÙĨ": 5286,
      "ĠØ§ÙĦØ±Ø£Ø³": 5287,
      "ĠØ§ÙĦÙģÙĦØ³ÙģØ©": 5288,
      "Ø¨ÙĬÙĦ": 5289,
      "ĠÙĪÙĩÙħØ§": 5290,
      "ĠØ£Ø±Ø§Ø¯": 5291,
      "ÙĪØ±ÙĨÙĬØ§": 5292,
      "49": 5293,
      "ÙĤÙĪÙĦ": 5294,
      "ĠØ´Ø¯ÙĬØ¯": 5295,
      "ĠØ¨Ø§ÙĦØ·": 5296,
      "ĠÙĥÙģ": 5297,
      "ĠØ§ÙĦÙħØ±ÙĬØ¶": 5298,
      "ĠÙĬØ¨": 5299,
      "ĠØ§ØŃØªÙĦØ§ÙĦ": 5300,
      "ÙĪÙĬØ¯": 5301,
      "ĠÙħØ¹ÙĩØ¯": 5302,
      "ĠØ£Ø®ÙĬÙĩ": 5303,
      "ĠØ¹ÙĤØ¨": 5304,
      "ĠÙħÙĤØªÙĦ": 5305,
      "ĠØªØµØ¯Ø±": 5306,
      "Ġ150": 5307,
      "ÙĬØ±ÙĪÙĨ": 5308,
      "ĠØ§Ø«ÙĨÙĬÙĨ": 5309,
      "Ø±ÙĬØ¬ÙĬØ§": 5310,
      "Ø§ÙĨÙĩ": 5311,
      "ĠØ§ÙĦØ¹Ø§ÙĦÙĬØ©": 5312,
      "ĠV": 5313,
      "ĠØ§ÙĩØªÙħ": 5314,
      "Ø§ÙģØ¹ÙĬ": 5315,
      "ĠØ¨Ø±Ø¬": 5316,
      "ĠØ§ÙĦÙĤØ§Ø¹Ø¯Ø©": 5317,
      "ÙĬÙĦØ§Ø¡": 5318,
      "ĠÙĬØ¯Ø®ÙĦ": 5319,
      "ĠØ§ÙĦÙħØªØ±": 5320,
      "ĠÙħØ³ÙĦØ³ÙĦ": 5321,
      "Ġ1986": 5322,
      "ĠÙĦØ·": 5323,
      "ĠØ§ÙĦØ£Ø³Ø§Ø³": 5324,
      "ĠØ§ÙĩØªÙħØ§Ùħ": 5325,
      "ĠÙħØ¬Ø¯": 5326,
      "ĠØ§ÙĦÙĩØ§Ø¯Ø¦": 5327,
      "ĠÙĤÙĦÙĬÙĦ": 5328,
      "ĠÙħÙĨØ²ÙĦ": 5329,
      "ĠÙĬØº": 5330,
      "ĠØ§ÙĨØªÙĤ": 5331,
      "ĠØ¨Ø§Ø®": 5332,
      "ĠØ§ÙĦØªØ¹Ø§ÙĪÙĨ": 5333,
      "Ø§Ø¨ÙĬØ¹": 5334,
      "ĠÙĪØ«ÙĦØ§Ø«": 5335,
      "ĠØ³ÙĦØ§ÙĦØ©": 5336,
      "ĠØ§ÙĦØ¹Ø¶ÙĪÙĬØ©": 5337,
      "ØªØ§ÙĦÙĬØ©": 5338,
      "ĠØ£ÙĬØ±ÙĦÙĨØ¯Ø§": 5339,
      "ĠØ±ÙĤ": 5340,
      "ĠÙģØ¥ÙĨÙĩØ§": 5341,
      "ĠØªØ´Ø§Ø±ÙĦØ²": 5342,
      "ĠØªØ·ÙĪØ±Øª": 5343,
      "ĠØ±Ø´ÙĬØ¯": 5344,
      "ĠØ£Ø¯Ø§Ø¡": 5345,
      "ÙĤØ±Ø±": 5346,
      "ĠØ§ÙĦØ¶ÙģØ©": 5347,
      "ĠØ§ÙĦÙħØ°": 5348,
      "ĠØ´ÙĤÙĬÙĤ": 5349,
      "ÙĤØ§Ø·Ø¹Ø©": 5350,
      "Ø²Ø§ÙĬØ¯": 5351,
      "ĠØ§ÙĦÙħØ²ÙĬØ¯": 5352,
      "ĠÙĪØ¬ÙĨÙĪØ¨": 5353,
      "ÙĦÙħØ§ÙĨÙĬØ§": 5354,
      "ĠØ§ÙĦØ¬ÙĦØ¯": 5355,
      "ÙĪØ³Ø·Ø©": 5356,
      "Ø§Ø°Ø§": 5357,
      "ĠÙĪØªØ´ÙħÙĦ": 5358,
      "ÙħØªÙĩØ§": 5359,
      "ĠÙĩØ¯ÙģØ§": 5360,
      "ÙĩØ±ÙĬ": 5361,
      "ĠØ£Ø³ÙĦÙĪØ¨": 5362,
      "ĠØ§ÙĦÙĤÙĬØ§Ø¯Ø©": 5363,
      "ĠØ°Ø±": 5364,
      "ĠØ³Ø¨ÙĤ": 5365,
      "ĠØ§ÙĦØ¯ÙĪØ±Ø©": 5366,
      "ĠÙĩØ§Ø±ÙĬ": 5367,
      "Ø¹ÙĬØ¯Ø©": 5368,
      "ĠØ§ÙĦØ®Ø¯ÙħØ©": 5369,
      "ĠØ¨Ø°": 5370,
      "Ø®Ø·ÙĪØ·": 5371,
      "ĠØ¨Ø·Ø±Ø³": 5372,
      "Ø§ÙĦÙĬÙģÙĪØ±ÙĨÙĬØ§": 5373,
      "ÙģØ§ÙĪØ¶Ø§Øª": 5374,
      "ĠØ§ÙĦÙħØ³Ø§ØŃØ©": 5375,
      "ÙĪÙĨÙĩØ§": 5376,
      "ÙĥÙĬØ±": 5377,
      "ĠØ§ÙĦØºØ²": 5378,
      "Ġ1973": 5379,
      "ĠØ§ÙĦØªÙĬØ§Ø±": 5380,
      "ĠØ¨ÙħØŃ": 5381,
      "ĠØ´ÙĬØ¦Ø§": 5382,
      "ÙħØ§ÙĦÙĬØ©": 5383,
      "ĠÙĦÙĦÙħØ¯ÙĬÙĨØ©": 5384,
      "Ø§Ø±ÙĩØ§": 5385,
      "Ø²Øª": 5386,
      "ing": 5387,
      "ĠÙĦØªÙĤ": 5388,
      "ĠØªÙģØ§Ø¹ÙĦ": 5389,
      "ĠÙĤÙĪØ§ÙĨÙĬÙĨ": 5390,
      "ĠØ§ØŃØªÙħ": 5391,
      "Ø§Ø·ÙĬ": 5392,
      "ĠØ§ÙĦØ·ÙĬØ±Ø§ÙĨ": 5393,
      "ĠØ´ÙĪ": 5394,
      "Ø¬ÙĦØ§Øª": 5395,
      "ĠØ¸ÙĦØª": 5396,
      "ĠØ§ÙĦÙģØ±ÙĤØ©": 5397,
      "ĠØ§ÙĦØ§ØŃØªÙģ": 5398,
      "31": 5399,
      "ĠØªÙĪØ²ÙĬØ¹": 5400,
      "ÙĥÙĦÙģØ©": 5401,
      "Ø³Ø·ÙĨØ¨ÙĪÙĦ": 5402,
      "ĠØ§ÙĦÙħØªØ¹ÙĦÙĤØ©": 5403,
      "Ø¯ÙģØ§Ø¹": 5404,
      "un": 5405,
      "ĠØ§ÙĦÙĥÙĦÙħØ§Øª": 5406,
      "ĠØ§ÙĦØ¨Ø´Ø±ÙĬ": 5407,
      "ĠØŃØ¨": 5408,
      "ĠØ¨Ø«": 5409,
      "ĠØ§ÙĦØ¹ÙĪØ¯Ø©": 5410,
      "ĠÙĩØ²ÙĬÙħØ©": 5411,
      "ĠØ§ÙĦÙħØ§Ø¦ÙĬØ©": 5412,
      "ĠØ§ÙĦÙĤÙĪÙħÙĬ": 5413,
      "ĠÙħØ±Ø§ØŃÙĦ": 5414,
      "ĠØ§ÙĦÙĪÙģ": 5415,
      "ĠÙģØ±Ø§ÙĨØ³": 5416,
      "ĠØ¨ØŃÙĪØ§ÙĦÙĬ": 5417,
      "ĠØ§ÙĦØ·Ø±": 5418,
      "ĠØ§ÙĦØ¥Ø¹ÙĦØ§Ùħ": 5419,
      "Ø¸ÙĦ": 5420,
      "ĠÙĪÙĦØ¹Ø¨": 5421,
      "ĠØ§ÙĤØªØ±ØŃ": 5422,
      "Ø§Ø¬ÙĬ": 5423,
      "ĠØ§ÙĦØ¥ÙĨØ³Ø§ÙĨÙĬØ©": 5424,
      "Ø´Ø§Ø±ÙĥØ©": 5425,
      "ĠÙĥÙĬÙģ": 5426,
      "ĠØŃÙģØ¸": 5427,
      "ĠØ§ÙĦØ§ÙĨØªÙĤ": 5428,
      "ĠÙĪØ¹Ø¨Ø¯": 5429,
      "ĠØ§ÙĦØ´Ø®ØµÙĬØ§Øª": 5430,
      "ĠØ§ÙħØ±Ø£Ø©": 5431,
      "Ø¹ÙĨ": 5432,
      "ĠØ¥ÙĤØ§ÙħØ©": 5433,
      "ĠØ§ÙĦÙħØ³ÙĦØ³ÙĦ": 5434,
      "ĠØ§ÙĦØªØŃÙĥÙħ": 5435,
      "ĠØµØŃÙĬÙģØ©": 5436,
      "ĠÙĪØ±Ø¦ÙĬØ³": 5437,
      "ĠØ±ÙĬØ§ÙĦ": 5438,
      "ĠØ£Ø³Ø¨ÙĪØ¹": 5439,
      "ĠØ§Ø®ØªÙĦØ§Ùģ": 5440,
      "ĠÙĬÙĤØ§Ø±Ø¨": 5441,
      "Ø§ØºØ©": 5442,
      "ĠÙĤØ¯ÙĬÙħØ©": 5443,
      "ÙĪØ§ÙĥØ¨": 5444,
      "ĠØ¨ÙĦÙĤØ¨": 5445,
      "ĠØ§ÙĦØªØŃÙĤ": 5446,
      "Ø¹Ø¯ÙĦ": 5447,
      "Ø±ÙĤØ§Ùħ": 5448,
      "ĠÙĪÙħØ³Øª": 5449,
      "ĠØ§Ø³ØªØ¨Ø¯": 5450,
      "ĠÙħÙħÙĨ": 5451,
      "ĠÙĩØ¯": 5452,
      "ĠØ´Ø§Ø±Ø¹": 5453,
      "ĠÙĪØ¥ÙĨÙħØ§": 5454,
      "ed": 5455,
      "ÙĦÙĬØ§Ùħ": 5456,
      "ĠØºØ§Ø²": 5457,
      "ĠØ¨Ø±ÙĦÙĬÙĨ": 5458,
      "ct": 5459,
      "ĠØ´Ø¯ÙĬØ¯Ø©": 5460,
      "Ø±ÙģØ¹": 5461,
      "ĠØªØ¯Ø±ÙĬØ¬ÙĬØ§": 5462,
      "ÙĪØ±ÙĬÙĨ": 5463,
      "ĠØ§ÙĦÙģØ¹": 5464,
      "ĠØ§ÙĦÙħØ´Ø§Ø±ÙĥØ©": 5465,
      "ÙĬØ§ÙĨØ©": 5466,
      "ÙħÙĥØ§ÙĨ": 5467,
      "ĠØ§ÙĦØµØºÙĬØ±": 5468,
      "ĠØªØªØ±Ø§ÙĪØŃ": 5469,
      "ĠØ§Ø³ØªØº": 5470,
      "Ø§Ø´Ø±Ø©": 5471,
      "ĠØ§ØªØ®Ø°": 5472,
      "ÙĬØ³ÙĬØ§": 5473,
      "ĠÙĬÙĤØ§ÙĦ": 5474,
      "ĠÙĦÙĦØ²": 5475,
      "ĠØ§ÙĦÙĬØ§Ø¨Ø§ÙĨÙĬØ©": 5476,
      "ĠØ§ÙĦØ´ÙĬØ¹Ø©": 5477,
      "ÙģØ§Ø¯": 5478,
      "ĠØ§ÙĦØ±ÙĪØ³ÙĬ": 5479,
      "ĠÙĥØ§ÙĨÙĪÙĨ": 5480,
      "ĠØ¨Ø§ÙĦÙħØ±ÙĪØ±": 5481,
      "ĠØ§ÙĦØªØ·ÙĪØ±": 5482,
      "ĠØ«ÙħØ§ÙĨÙĬØ©": 5483,
      "ĠÙĪÙĥØªØ¨": 5484,
      "ĠØ°ÙĪÙĬ": 5485,
      "ĠØ§ÙĦÙĩÙĨØ¯ÙĬ": 5486,
      "ÙĪØ¶ØŃ": 5487,
      "ĠØ§ÙĦÙħØºØ±Ø¨ÙĬØ©": 5488,
      "ĠÙĦÙĦØ³ÙĦ": 5489,
      "ĠØ§ÙĦÙĤÙĬØ§Ùħ": 5490,
      "ĠØ£Øª": 5491,
      "ĠØ§ÙĦØ¯ÙĪ": 5492,
      "ĠÙĪÙĦÙĦ": 5493,
      "ĠØ³ÙĬØ·Ø±Ø©": 5494,
      "ĠØ¬Ø¹ÙģØ±": 5495,
      "ĠÙģÙĬÙĦ": 5496,
      "ØŃØ¯Ø±": 5497,
      "ĠØ§ÙĦÙħØ¤Ø³Ø³Ø§Øª": 5498,
      "ĠØ§ÙĦÙĤØ³Ø·ÙĨØ·ÙĬÙĨÙĬØ©": 5499,
      "Ø£Ø³ÙĬØ³": 5500,
      "ĠØ§ÙĦÙĩÙĪÙĦÙĨØ¯ÙĬ": 5501,
      "ĠÙģØ±Ø¯": 5502,
      "ĠÙĪØ§ÙĦØ§ÙĤØªØµ": 5503,
      "Ø§ÙĥÙĪ": 5504,
      "ĠØŃÙħØ§ÙĬØ©": 5505,
      "Ġ2020": 5506,
      "Ø§Ø´ÙĬØ©": 5507,
      "ĠØ§ÙĦØ¨Ø±Ø§Ø²ÙĬÙĦ": 5508,
      "ÙĪÙħØ§ÙĨ": 5509,
      "99": 5510,
      "ÙĤØ³Ø§Ùħ": 5511,
      "ĠÙĤÙħØ©": 5512,
      "Ø§ÙģØ§": 5513,
      "ĠÙĪØ¨Ùĩ": 5514,
      "Ġ1974": 5515,
      "ĠØ§ÙĦØªØµÙĪÙĬØ±": 5516,
      "ĠÙĪØ¹Ø¯Ùħ": 5517,
      "ÙĤØ±Ø©": 5518,
      "ĠÙĪØ´ÙħØ§ÙĦ": 5519,
      "ĠØ§ÙĦØ£ÙģØ±Ø§Ø¯": 5520,
      "ĠØµÙģØ±": 5521,
      "ÙģØ§ÙĨ": 5522,
      "ĠØ´Ø¤ÙĪÙĨ": 5523,
      "ØŃÙĬÙī": 5524,
      "ĠÙĤØ§Ø¦ÙĦØ§": 5525,
      "ĠÙĥÙĦÙĬ": 5526,
      "Ø§ÙĦØ¨Ø§Ø¨": 5527,
      "ĠØ¹ÙĩØ¯Ùĩ": 5528,
      "ÙĬØ§Ø¡": 5529,
      "ĠØ±Ø£Ùī": 5530,
      "44": 5531,
      "ĠØ³ØªÙĬ": 5532,
      "ĠÙĩØªÙĦØ±": 5533,
      "ĠÙħØ±ØªÙĬÙĨ": 5534,
      "ĠÙĪØ§ÙĦÙĩÙĨØ¯": 5535,
      "ĠÙħÙĪØ±ÙĬ": 5536,
      "ĠØ§ÙĦÙĦØ¨ÙĨØ§ÙĨÙĬØ©": 5537,
      "ĠØ§ÙĦÙĨØ±": 5538,
      "ÙģÙĬÙĩ": 5539,
      "76": 5540,
      "Ġ1981": 5541,
      "ĠØ§ÙĦØ®Ø·Ø§Ø¨": 5542,
      "ÙĪÙĦÙģ": 5543,
      "ØŃÙĪÙĦ": 5544,
      "ĠØ§ÙĦØ¥Ø«": 5545,
      "ĠÙħØ´Ø§Ø±Ùĥ": 5546,
      "ĠØªØ¹Ø§ÙĦÙī": 5547,
      "ĠØ§ÙĦØ¨Ø®": 5548,
      "ĠØ§ÙĦØ¬ÙĨØ³ÙĬ": 5549,
      "ĠØ§ÙĦØ´Ø§Ø¹Ø±": 5550,
      "ÙĥÙĬØ¯": 5551,
      "ĠØ§ÙĦØ£ÙĦØ¨ÙĪÙħ": 5552,
      "ĠÙĬØ³ÙĪØ¹": 5553,
      "ĠÙĦÙĬÙĦØ©": 5554,
      "ĠÙĥÙĪØ±ÙĬØ§": 5555,
      "ĠØ£ÙĤØ±Ø¨": 5556,
      "ĠØ¨Ø¯Ø±": 5557,
      "ĠØªØ«": 5558,
      "ĠÙĬØªÙħÙĬØ²": 5559,
      "ĠØ§ÙĦÙħÙĥØªØ¨": 5560,
      "ĠÂ°": 5561,
      "ĠÙħØ¬ÙħØ¹": 5562,
      "ÙħÙĪØ¹": 5563,
      "ĠØ§ÙĦØ¥Ø´Ø§Ø±Ø©": 5564,
      "ĠØ§ÙĦØ³ÙĬØ§Ø±Ø§Øª": 5565,
      "ĠØ§ÙĦØ¥Ø¬ÙħØ§ÙĦÙĬ": 5566,
      "ĠØ§ÙĦÙħÙĥØª": 5567,
      "ĠØ£ÙĩÙħÙĩØ§": 5568,
      "ĠØªØ¶ÙħÙĨ": 5569,
      "ĠØ¥ÙĬÙĩ": 5570,
      "ĠØ§ÙĦØ¥Ùģ": 5571,
      "ĠÙĨØ´Ø±Øª": 5572,
      "Ø¬ÙĬØ±": 5573,
      "ĠØ£Ø°": 5574,
      "ĠØ£ÙĨØ¸ÙħØ©": 5575,
      "ĠØ§ÙĦÙĦÙĤØ¨": 5576,
      "ĠØ§ÙĦØ¥Ø´Ø¹": 5577,
      "ÙĪØ¯ÙĬÙĪÙħ": 5578,
      "ĠÙħÙĨØª": 5579,
      "ĠØ§ÙĦÙħÙĪØ³ÙĬÙĤÙĬØ©": 5580,
      "ØªÙģØ¹Ø©": 5581,
      "ĠØ§ÙĦØ´ÙĬÙĪØ®": 5582,
      "Ø¹ÙħØ±Ø§Øª": 5583,
      "ÙĬØªÙĪÙĨ": 5584,
      "ĠØ§ÙĦØ¨ÙĬØ¦Ø©": 5585,
      "ĠÙħØ«Ø§ÙĦ": 5586,
      "ĠØ¹Ø§Ø¦ÙĦ": 5587,
      "ĠK": 5588,
      "ĠØ§ÙĦØ¥Ø·ÙĦØ§ÙĤ": 5589,
      "Ø´Ø³ØªØ±": 5590,
      "ĠO": 5591,
      "ĠÙĦÙĬØ¹": 5592,
      "ĠÙĬØ¹ÙĬØ´ÙĪÙĨ": 5593,
      "ĠØ¨Ø§ÙĦÙħÙĨ": 5594,
      "Ø§Ø·ÙĨ": 5595,
      "ĠØªÙĪØ¬Ùĩ": 5596,
      "ĠØ§ÙĦÙħØ¹Ø±ÙģØ©": 5597,
      "ĠÙĦÙĦØ¨ÙĦØ§Ø¯": 5598,
      "ĠØ°Ùĩ": 5599,
      "ĠÙĪØ§ÙĦÙħØ¤": 5600,
      "ĠØ§ÙĦØ³ÙĦØ§ØŃ": 5601,
      "ĠØ§ÙĦØªØ±Ø§Ø«": 5602,
      "Ø¨ØŃØ«": 5603,
      "ĠØ§ÙĦØ¥ÙĨØ§Ø«": 5604,
      "ĠØ®ØµØ§Ø¦Øµ": 5605,
      "ĠÙĤÙĬÙħ": 5606,
      "ĠØ¨ØªÙĨ": 5607,
      "ĠÙĦØªÙĥÙĪÙĨ": 5608,
      "ĠØ§ÙĦÙĥÙĦØ§Ø³ÙĬÙĥÙĬØ©": 5609,
      "ĠÙĤØ¯ÙħØª": 5610,
      "ĠÙĨØ§ØµØ±": 5611,
      "ĠÙĪÙĪÙģ": 5612,
      "ĠÙĦÙĪØ³": 5613,
      "ØªØ±Ø§ÙĤ": 5614,
      "ĠÙĪØ£Ø¹": 5615,
      "ĠØ§ÙĦÙĩØ±Ùħ": 5616,
      "ĠÙĦÙĬØ³ÙħØŃ": 5617,
      "ĠÙĪØ±ØºÙħ": 5618,
      "ĠÙĥÙĬÙĦÙĪ": 5619,
      "Ø´Ø·": 5620,
      "ĠØ§ÙĦÙĨÙĩØ¶Ø©": 5621,
      "ĠÙĦÙĦØªØ¹": 5622,
      "ĠØ´Ø±ÙĥØ§Øª": 5623,
      "Ø¹ÙĪØ¨Ø©": 5624,
      "Ø·Ø¨Ø©": 5625,
      "ĠØ·ÙĪÙĬÙĦØ§": 5626,
      "ÙĤØ¯ÙħØ©": 5627,
      "ĠØ£Ø·": 5628,
      "ĠÙĬØ³Ø¨Ø¨": 5629,
      "ĠÙĪØªØ³ØªÙĤØ¨ÙĦ": 5630,
      "ĠØ¶Ø¹Ùģ": 5631,
      "ĠØ§ÙĦØµÙģØ±": 5632,
      "ĠØ²Ø§ÙĦ": 5633,
      "ÙĩÙħÙĬØ©": 5634,
      "ĠØ§ÙĦÙĩØ¬ÙĪÙħ": 5635,
      "ĠØ§ÙĦØªØ±Ø¨Ø©": 5636,
      "ĠÙħØ¨ÙĥØ±": 5637,
      "Ø§Ø°Ø¨ÙĬØ©": 5638,
      "ĠØ§ÙĦÙħØ´ØªØ±ÙĥØ©": 5639,
      "ĠØ¥ÙħØ§Ø±Ø©": 5640,
      "ĠØ§ÙĦÙģÙĬØ²ÙĬØ§Ø¡": 5641,
      "Ø¨ØºÙĬ": 5642,
      "Ø¦ÙħØ©": 5643,
      "Ġ1958": 5644,
      "ĠØ¥ÙĤ": 5645,
      "ĠÙħØ³ØªÙĪÙĬØ§Øª": 5646,
      "ØºØ§ÙĨØ³ØªØ§ÙĨ": 5647,
      "ĠØ¹Ø§ÙħÙĦ": 5648,
      "ĠÙĪÙĤØ±": 5649,
      "ĠØ§ÙĦØ³ÙĬØ±": 5650,
      "ĠØªÙĪÙģØ±": 5651,
      "ĠÙĪÙĨØ¸": 5652,
      "ĠØ£ÙĦØ¹Ø§Ø¨": 5653,
      "ĠØ²Ø§ÙĦØª": 5654,
      "ĠÙĬØ´ÙħÙĦ": 5655,
      "ØºØ¨Ø©": 5656,
      "ĠØ¨ÙĦØ¯Ø§ÙĨ": 5657,
      "46": 5658,
      "ÙħÙĨØ©": 5659,
      "Ġ1975": 5660,
      "ÙĦÙĬÙĥ": 5661,
      "ĠÙĪØ´Ø±": 5662,
      "ĠØ§ÙĦÙĥÙĩ": 5663,
      "Ġ1971": 5664,
      "Ø§ÙĪØ²": 5665,
      "ĠÙģØ§Ø³": 5666,
      "ĠØ§ÙĦØ®Ùħ": 5667,
      "ĠØ§ÙĦØ±ÙĤÙħ": 5668,
      "ĠÙĪØ¨Ø¹Ø¯ÙĩØ§": 5669,
      "ĠØªÙĤÙĦÙĬ": 5670,
      "ĠÙħØ¹Ø§ÙĪÙĬØ©": 5671,
      "ÙĬØ¬ÙĬØ©": 5672,
      "Ø§ØŃØ¸Ø©": 5673,
      "ĠØ§ÙĦØªØ§Ø¨Ø¹": 5674,
      "ĠØºØ²ÙĪ": 5675,
      "ĠÙħÙĬÙĦØ§ÙĨ": 5676,
      "ĠØªØ¹Ø±ÙĬÙģØ©": 5677,
      "ĠØ®ÙĦÙĬØ¬": 5678,
      "ĠØŃØ§ÙģØ¸": 5679,
      "ĠÙĪØ§ÙĦÙħØ³Øª": 5680,
      "ĠÙĦÙĦØ¹ÙħÙĦ": 5681,
      "ĠØ³Ø§Ø±": 5682,
      "ÙĬÙħÙĪÙĨ": 5683,
      "Ġ1984": 5684,
      "ĠØ´ÙĩØ§Ø¯Ø©": 5685,
      "ÙĬØ³Ø§ÙĨ": 5686,
      "ĠÙħÙĨØ§Ø®": 5687,
      "Ø§Ø«Ø±": 5688,
      "ĠØ§ÙĦØ¨Ø±Ø§ÙħØ¬": 5689,
      "ĠØªØ´Ø±ÙĬÙĨ": 5690,
      "ĠÙĦÙĦØªÙģØªÙĬØ´": 5691,
      "ĠÙĦØ²": 5692,
      "ĠÙĦÙĬØ¨ÙĬØ§": 5693,
      "ÙĥØªÙĬØ±ÙĬØ§": 5694,
      "ĠØ§ÙĦØªÙĨÙģÙĬØ°": 5695,
      "ĠØ£Ø¬ÙĨ": 5696,
      "ÙĨØ§Ùģ": 5697,
      "ĠÙĪØ³Ø±": 5698,
      "ĠØ§ÙĦÙĨØ¬Ùħ": 5699,
      "ĠØ§ÙĦØ´ÙĩÙĬØ±Ø©": 5700,
      "ĠÙħØŃØ±": 5701,
      "Ø§Ø¸Ø±": 5702,
      "ĠØ§ÙĦØ¹Ø§Ø´Ø±": 5703,
      "ĠØ§ÙĦÙħØ¬ØªÙħØ¹Ø§Øª": 5704,
      "ĠØ§ÙĦØ¨ÙĬØ²ÙĨØ·ÙĬØ©": 5705,
      "ĠØªØªÙħØªØ¹": 5706,
      "ĠÙĦØ³ÙĨØ©": 5707,
      "ĠÙħÙĪÙĤ": 5708,
      "ĠØ£ÙĤÙĬÙħØª": 5709,
      "ĠØ´ÙĬØ®": 5710,
      "ĠØ§ÙĦØ«ÙħØ§ÙĨ": 5711,
      "ĠØ§ÙĦØ£Ø±Ø¯ÙĨÙĬØ©": 5712,
      "ĠØ§ÙĦØŃØ¯ÙĬØ¯ÙĬØ©": 5713,
      "ĠØ§ÙĦØŃÙģØ§Ø¸": 5714,
      "ĠÙĪØªØ²Ø®Ø±Ùģ": 5715,
      "ĠØ§ÙĦÙĤØ§Ø¦ÙħØ©": 5716,
      "ĠÙģØ±ÙĪØ¹": 5717,
      "ĠØ§ÙĦÙħÙĥØ³ÙĬÙĥ": 5718,
      "ÙĬØ±Ùĩ": 5719,
      "ĠØ±ÙĬØªØ´": 5720,
      "ĠØ§ÙĦØ±Ø¤": 5721,
      "ØªÙĩØ§Ø¨": 5722,
      "ĠØµÙĨ": 5723,
      "ĠÙĪØ§ÙĦØ£Ø±": 5724,
      "ÙĦØ§ÙĨØ¯": 5725,
      "ĠÙĨÙĪØ¨ÙĦ": 5726,
      "ĠØ§ÙĦØ³Ø§Ø¦ÙĦ": 5727,
      "ĠØ§ÙĦØªØ±ÙĥÙĬØ¨": 5728,
      "ĠØ¨Ø£ØºØ±Ø§Ø¶": 5729,
      "ÙĪØ¨ÙĬÙĨ": 5730,
      "ĠØ°Ø§Ùĥ": 5731,
      "ĠÙĦÙĦÙħÙĪ": 5732,
      "ĠØ£Ø¹Ø¸Ùħ": 5733,
      "ĠØ§ÙĦØ¯ÙĬÙĨÙĬ": 5734,
      "ĠÙģØªØ²ÙĬÙĨ": 5735,
      "ĠØ³ÙģØ±": 5736,
      "ĠØ§ÙĦÙħØŃØ§ÙģØ¸": 5737,
      "ÙħÙĦÙĪÙĥ": 5738,
      "ĠØŃØ¶Ø±": 5739,
      "ĠØ£ÙĤØ±": 5740,
      "Ø´Ø§": 5741,
      "Ø±ÙĬÙĥØ§": 5742,
      "ĠØŃØ¯Ø¯": 5743,
      "ĠØ§ÙĦØºØ§Ø²": 5744,
      "Ġ36": 5745,
      "ĠÙĦÙĦØº": 5746,
      "ĠØªØ±ØªÙĬØ¨": 5747,
      "ĠØ§ÙĦÙĤØ·Ø¨ÙĬØ©": 5748,
      "ĠÙģØ¥Ø°Ø§": 5749,
      "ĠØ§ÙĦÙĥÙĩØ±": 5750,
      "ĠØ£Ø¨ÙĬÙĩ": 5751,
      "ĠØ³ÙĩÙĦ": 5752,
      "ĠØ£Ø³Ø¨Ø§Ø¨": 5753,
      "ĠØ£ÙĨØªØ¬": 5754,
      "ĠØ·Ø¨ÙĬØ¹ÙĬØ©": 5755,
      "ĠØ§ÙĦØ§Ø¨ØªØ¯": 5756,
      "ĠÙĥÙĪÙħ": 5757,
      "ĠØ§ÙĦÙĪØ«": 5758,
      "ĠÙħØ³Ø§": 5759,
      "ÙĪØ§ÙĨØ¨": 5760,
      "ĠØªØ®Ø±Ø¬": 5761,
      "ĠÎ": 5762,
      "ĠÙĪØ¨ÙĦ": 5763,
      "ĠØ§ÙĦØ§ØªØ¬Ø§Ùĩ": 5764,
      "ĠØ§ÙĦÙĤØ±ÙĪÙĨ": 5765,
      "ĠÙĪØ§Ø´ÙĨØ·ÙĨ": 5766,
      "ĠØ§ÙĦØ´ÙĩÙĬØ±": 5767,
      "ĠØ§ÙħØªØ¯Øª": 5768,
      "ĠÙĥØ§ÙĦÙĬÙģÙĪØ±ÙĨÙĬØ§": 5769,
      "ĠÙħØ³Ø¨": 5770,
      "ĠØ§ÙĦÙĨÙĤØ¯": 5771,
      "ĠØ¯Ø³ØªÙĪØ±": 5772,
      "ĠÙĪØ§ÙĦØ§Ø¬ØªÙħØ§": 5773,
      "ĠØ¹Ø³ÙĥØ±ÙĬ": 5774,
      "ĠÙĦÙĦØªØŃ": 5775,
      "ĠØ§ÙĦØºØ°Ø§Ø¦ÙĬØ©": 5776,
      "ĠÙģØ´": 5777,
      "ĠØ§ÙĦÙħÙĨØª": 5778,
      "ĠÙħØ¬Ø±Ø¯": 5779,
      "ĠØ§ÙĦØªÙĩØ§Ø¨": 5780,
      "ÙĦÙĬÙĤ": 5781,
      "ĠØµÙĦÙī": 5782,
      "ĠØ£ÙħØ§ÙĥÙĨ": 5783,
      "ØµØ§Øµ": 5784,
      "ÙĬØªÙĪ": 5785,
      "ĠØ§ÙĦØŃÙĤÙĬÙĤÙĬ": 5786,
      "Ø¯ÙħØ§Ø¬": 5787,
      "ĠÙª": 5788,
      "ĠØ«ÙĦ": 5789,
      "ØŃØ¯Ø«ÙĬÙĨ": 5790,
      "ĠØ§ÙĦÙĦØŃ": 5791,
      "ĠÙħØ³Ø§ÙģØ©": 5792,
      "ĠÙĬØ±ÙĬØ¯": 5793,
      "ĠÙĪÙĤØ¨ÙĦ": 5794,
      "ĠØ§ÙĦØ·Ø§Ø¦Ø±Ø§Øª": 5795,
      "ĠÙĪØ¹Ø¯": 5796,
      "ĠØ§ÙĦØ®ÙĦØ§Ùģ": 5797,
      "ĠØ¯Ø±Ø§Ø³ØªÙĩ": 5798,
      "ĠØ§ÙĦÙģØ±Ø³": 5799,
      "ĠØ§ÙĦÙĨØµÙĪØµ": 5800,
      "Ø³ØªÙĪÙĨ": 5801,
      "ĠØ§ÙĦØ¹Ø«ÙĪØ±": 5802,
      "ĠÙĥØ´": 5803,
      "ĠØ¨Ø§ÙĦØº": 5804,
      "ĠØ§ÙĦØµÙĦØ§Ø©": 5805,
      "ØŃÙĪØ§ÙĦ": 5806,
      "ĠØ¨Ø§": 5807,
      "ĠØ§ÙĦÙĥÙĩØ±Ø¨Ø§Ø¦ÙĬ": 5808,
      "ÙĪØªÙĩØ§": 5809,
      "Ġ1962": 5810,
      "ĠØªÙħÙĨ": 5811,
      "ĠÙħÙĨÙĩÙħØ§": 5812,
      "ĠØ¹Ø¯Ø§": 5813,
      "ĠØ§ÙĦÙħØ°Ùĥ": 5814,
      "ĠØ¨Ø´Ø¯Ø©": 5815,
      "ĠØ¥Ø³Øª": 5816,
      "Ø§Ø¯ØªÙĩ": 5817,
      "ĠÙħØ¯ÙĬØ±": 5818,
      "ĠØ§ÙĦØ¹Ø¨Ø§Ø³ÙĬØ©": 5819,
      "ĠØ³ÙĬÙĦ": 5820,
      "ĠÙĥØ±ÙĬØ³Øª": 5821,
      "ĠØªÙĨÙĤØ³Ùħ": 5822,
      "ÙĦØ§ÙĪØ©": 5823,
      "ĠÙĪØ±Ø¨ÙħØ§": 5824,
      "ĠØ´ÙĩØ±Ø©": 5825,
      "Ø¦ÙĬØ§": 5826,
      "ĠØ§ÙĦÙħØ¤Ø±Ø®ÙĬÙĨ": 5827,
      "95": 5828,
      "ĠØªØ±ØªØ¨Ø·": 5829,
      "ĠØ§ÙĦØºØ§ÙĦØ¨": 5830,
      "ÙĪØ§Ø±Ø¹": 5831,
      "ĠØºØ§ÙĦØ¨ÙĬØ©": 5832,
      "Ġ1968": 5833,
      "Ø¯ÙħØ¬": 5834,
      "Ø¨ÙĪÙĨ": 5835,
      "ĠØ£ÙĨØ¯": 5836,
      "ÙĨØ¯ÙĤ": 5837,
      "ĠØ§ÙĦØŃÙħØ¶": 5838,
      "ĠØ§ÙĦÙĤØµØ©": 5839,
      "ĠØ§ÙĦØµÙĬØ¯": 5840,
      "ĠØ§ÙĦÙģÙĨÙĪÙĨ": 5841,
      "ĠØ§ÙĦØ¨ØµØ±Ø©": 5842,
      "Ø´Ø±ÙĪÙĨ": 5843,
      "ĠU": 5844,
      "ĠÙĪØ¢Ø®Ø±": 5845,
      "ĠÙħØ¨Ø§Ø´Ø±": 5846,
      "ĠØ§ÙĦØ³ÙħØ§Ø¡": 5847,
      "ĠØ§ÙĦØŃØ§Ø¬": 5848,
      "and": 5849,
      "ĠØ£ÙĬÙĨ": 5850,
      "ĠÙĤØ§Ø¯Ø©": 5851,
      "Ø§ÙĦØ¨Ø©": 5852,
      "ĠØ±Ùģ": 5853,
      "ĠÙħØ¹ÙĨÙī": 5854,
      "ĠØ§ÙĦØºØ§Ø¨Ø§Øª": 5855,
      "85": 5856,
      "ÙĪØ³ÙĬÙĤÙī": 5857,
      "ÙĦØ§ÙĦØ§Øª": 5858,
      "ĠØ§ÙĦØ£ØŃØ²Ø§Ø¨": 5859,
      "ÙģØµØ§ÙĦ": 5860,
      "ÙĦÙĤØ§Øª": 5861,
      "ĠØ¬ÙĨÙĪØ¨Ø§": 5862,
      "Ġ1978": 5863,
      "ig": 5864,
      "ĠØ§ÙĦÙħÙĬØ«": 5865,
      "ĠØ±ÙĪÙĨ": 5866,
      "ĠØ§ÙĦØ¯Ø¹Ùħ": 5867,
      "ĠØ¥ÙĦÙĬÙĩÙħ": 5868,
      "ĠØ§ÙĦØŃØ¬Ø§Ø²": 5869,
      "ÙĬØ³Ùī": 5870,
      "ĠÙĪÙħØ§Øª": 5871,
      "ĠØªØ±ÙĥÙĬØ¨": 5872,
      "ÙĪÙĤØ§Øª": 5873,
      "ĠØ§ÙĦØºØ²ÙĪ": 5874,
      "ĠØ§ÙĦÙģÙĨÙĬ": 5875,
      "ĠØ§ÙĦÙħØ±Ø¶Ùī": 5876,
      "ĠÙħÙĬØª": 5877,
      "ĠÚ": 5878,
      "ĠÙĤÙĪÙħ": 5879,
      "Ø´ÙĬØ§Ø¡": 5880,
      "ĠØªØ¨ÙĤÙī": 5881,
      "ĠØ§ÙĦÙĥÙĦØ§Ùħ": 5882,
      "ĠÙħØ§Ø¡": 5883,
      "ĠØ§ÙĦÙħØªØ£": 5884,
      "ĠÙħÙħØ§Ø«": 5885,
      "ĠØ§Ø±ØªØ¨Ø§Ø·": 5886,
      "Ø§ØµØ¨": 5887,
      "ĠØŃÙĥÙħÙĩ": 5888,
      "ĠÙĪÙĪØ¶Ø¹": 5889,
      "Ø§ÙĩØ¨": 5890,
      "ĠÙĤØ¯Ø±Ø©": 5891,
      "ĠØ§ÙĦÙħÙħØªØ§Ø²": 5892,
      "ĠÙĪÙĬØ¹ØªÙĤØ¯": 5893,
      "Ø¨Ø±Øº": 5894,
      "Ø±ÙĥÙĬØ©": 5895,
      "ĠÙĦØ¹Ø¨Ø©": 5896,
      "ĠØ§ÙĦÙĨÙĪØ±": 5897,
      "ĠØ§ÙĦÙħØ¯Ø±Ø¨": 5898,
      "ĠØ§ÙĦØ³ÙĥØ±": 5899,
      "ĠØ£ÙĬØ¯ÙĬ": 5900,
      "Ø²Ø§Ø¨ÙĬØ«": 5901,
      "Ø§ÙĦØ´": 5902,
      "ĠØ§ÙĦØ±Ø£ÙĬ": 5903,
      "ÙĨØ¬": 5904,
      "ĠØ§ÙĦÙħØ¹Ø§Ø±Ø¶Ø©": 5905,
      "ĠØªØ¬Ø§Ø±ÙĬØ©": 5906,
      "ĠÙħØ´ÙĥÙĦØ©": 5907,
      "ĠØ§ÙĦÙħØ·Ø§Ùģ": 5908,
      "ĠØ§ÙĦÙĪÙĦØ§Ø¯Ø©": 5909,
      "ĠØ¨ÙĨÙģØ³Ùĩ": 5910,
      "ÙĥÙĨØ©": 5911,
      "ĠØ§ÙĦØ®Ø¶Ø±": 5912,
      "ĠØ§ÙĦØºÙĦØ§Ùģ": 5913,
      "ĠØ¨Ø§ÙĦÙģØ¹ÙĦ": 5914,
      "Ø·ÙĬØ©": 5915,
      "ĠØ¨ÙħÙĪ": 5916,
      "ĠØ¥Ùģ": 5917,
      "ĠØ¨Ø§ÙĦØµ": 5918,
      "ĠÙĨÙģÙĪØ°": 5919,
      "ĠÙĬØ¨ÙĤÙī": 5920,
      "ĠØŃØ¯Ø«Øª": 5921,
      "ĠØ§ÙĦØŃÙĦÙģØ§Ø¡": 5922,
      "Ø¯ÙĬÙĪ": 5923,
      "ĠØ§ÙĦØ¯Ùĩ": 5924,
      "Ø¯ÙĬÙĦØ§": 5925,
      "ĠÙĪØªÙĪÙģÙĬ": 5926,
      "ĠÙĬÙħÙĦÙĥ": 5927,
      "ĠÙĥÙĨØ¯Ø§": 5928,
      "ÙĪØ§Ùĩ": 5929,
      "Ø§Ø±ØªÙĩ": 5930,
      "ĠØ¨Ø§ÙĦØ¥ÙĨ": 5931,
      "ĠØ§ÙĦÙģØªØŃ": 5932,
      "ĠØ§ÙĦØµØŃØ©": 5933,
      "ĠØ§ÙĦØªÙĤØ¯Ùħ": 5934,
      "ĠØ§ÙĦÙģØ§Ø±Ø³ÙĬØ©": 5935,
      "ĠÙĪØ¬Ø§Ø¡": 5936,
      "ĠØ§ÙĦØ´ÙĬÙĪØ¹ÙĬ": 5937,
      "ĠØµØŃÙĬØŃ": 5938,
      "Ġ1985": 5939,
      "ĠÙĦØ¹Ø¯Ø©": 5940,
      "ĠØ§ÙĦØ¬ÙĩØ©": 5941,
      "ĠÙĪØ§ÙĦØ¬Ø²": 5942,
      "Ø§ÙĬØ§": 5943,
      "ĠØ¨ØªØ±": 5944,
      "ĠÙĪÙģØ±ÙĨØ³Ø§": 5945,
      "ĠÙħØ¬Ø§ÙĦØ§Øª": 5946,
      "ÙĨØ±": 5947,
      "ĠØ³ÙĤØ·": 5948,
      "ĠØ±ØŃÙĦØ©": 5949,
      "ÙģØ§Ø±": 5950,
      "ĠØµØ±Ø§Ø¹": 5951,
      "Ø³Ø§Ø³": 5952,
      "Ø¶ÙħØ§Ùħ": 5953,
      "ĠØ¬Ø§Ø¡Øª": 5954,
      "ĠÙĪØªØªÙħ": 5955,
      "ØµÙĦØ©": 5956,
      "ĠØŃØ¬": 5957,
      "ĠØ§ÙĦØµÙĩÙĬÙĪÙĨ": 5958,
      "ĠÙĪÙĬÙĪ": 5959,
      "ÙħØ§Ùĩ": 5960,
      "ĠØªØ§Ø±ÙĬØ®ÙĬØ§": 5961,
      "ĠØ¨ÙĬÙĥ": 5962,
      "ĠØ§ÙĦØ¬ÙĦÙĬ": 5963,
      "ĠØ§ÙĦØ¬Ø¨ÙĩØ©": 5964,
      "ĠØ£Ø¨Ø§": 5965,
      "ĠØ§ÙĦØŃÙĬÙĪØ§ÙĨ": 5966,
      "ĠÙĦÙĦÙħØ±": 5967,
      "Ø·Ø¨ÙĤ": 5968,
      "ĠØ¯ÙĬÙĨÙĬØ©": 5969,
      "Ø§Ø¯Ø«Ø©": 5970,
      "ĠØ´ØºÙĦ": 5971,
      "ĠØ§Ø¨ÙĨØ©": 5972,
      "78": 5973,
      "ÙĦÙĬÙĪ": 5974,
      "ĠØ¥ØµÙĦØ§ØŃ": 5975,
      "ĠØ§ÙĦÙĪØŃØ¯Ø§Øª": 5976,
      "ĠØ§ÙĦØ£Ø±Ø¬ÙĨØªÙĬÙĨ": 5977,
      "Ø¯ÙĩØ±": 5978,
      "ĠØªØ´Ø±": 5979,
      "Ø§ÙĦØ³ÙĬ": 5980,
      "ĠÙĪØ§ÙĦØ¶": 5981,
      "ĠØ§ÙĦÙħØµØ¯Ø±": 5982,
      "ĠØ§ÙĦÙħØ´Ø±": 5983,
      "Ġ+": 5984,
      "ÙĨÙĬÙĪÙħ": 5985,
      "Ġ1961": 5986,
      "ĠØ§ÙĦØ³Ø·ØŃ": 5987,
      "ĠØ¢Ø¯Ùħ": 5988,
      "ĠØ¢Ø¨": 5989,
      "ĠØ§ÙĦØªØ¬Ø§Ø±ÙĬ": 5990,
      "ĠØ§ÙĦØ±Ùħ": 5991,
      "ØªÙĩØ§Ø¡": 5992,
      "ĠØ§ÙĦØ£Ø³ÙħØ§Ùĥ": 5993,
      "Ø¨Ø§ÙĬ": 5994,
      "ĠØ§ÙĦØ®Ø·ÙĪØ·": 5995,
      "ÙĪØ³Ø©": 5996,
      "ĠÙģØ¯": 5997,
      "ĠÙĪØ¹ÙĬÙĨ": 5998,
      "ĠÙħØªØŃÙģ": 5999,
      "ĠØ¯ÙĪÙĦÙĬØ©": 6000,
      "Ø³ÙĪÙħ": 6001,
      "79": 6002,
      "ĠØ¢Ø®Ø±ÙĬÙĨ": 6003,
      "41": 6004,
      "Ġo": 6005,
      "ĠÙĦØ¥ÙĨØªØ§Ø¬": 6006,
      "ĠØ£Ø¹ÙĬØ¯": 6007,
      "ĠÙĦÙĦÙĬ": 6008,
      "ĠØ§ÙĦÙĪØ·ÙĨ": 6009,
      "ĠØ§ÙĦØ¹ØµØ¨ÙĬ": 6010,
      "Ø²Ùģ": 6011,
      "ĠØªØµÙĪÙĬØ±": 6012,
      "ĠÙħØ¬ØªÙħØ¹": 6013,
      "Ø®Ø±ÙĬØ©": 6014,
      "ĠØ¨Ø·ÙĦ": 6015,
      "ØŃÙĬÙĨ": 6016,
      "ĠØ¥Ø´Ø§Ø±Ø©": 6017,
      "ĠØ§ÙĦØ¬Ø²ÙĬ": 6018,
      "ÙĤÙĬÙħ": 6019,
      "ĠØ§ÙĦØ¨ÙĦØ¯Ø©": 6020,
      "ĠØµÙģÙĪÙģ": 6021,
      "Ø§Ø¯Ùī": 6022,
      "Ø±Ø¨Ø¹ÙĬÙĨ": 6023,
      "ĠØ§ÙĦÙħÙģØª": 6024,
      "ĠÙħØµØ·ÙģÙī": 6025,
      "ĠØ¥ÙĥØ³": 6026,
      "ĠÙĪØªØµ": 6027,
      "ĠØ§ÙĦÙħÙĪØ¬ÙĪØ¯": 6028,
      "Ø´ÙĦÙĪÙĨØ©": 6029,
      "Ø¶ÙĬÙģ": 6030,
      "ĠÙĪÙĨØ´Ø±": 6031,
      "Ø§Ø¤ÙĩØ§": 6032,
      "Ø£Øª": 6033,
      "ĠÙħØ¤ÙĤØª": 6034,
      "Ø§ÙĤÙĦ": 6035,
      "ĠÙĨÙĪØ¹Ø§": 6036,
      "ĠØ§ÙĦØ¯ÙĨÙĬØ§": 6037,
      "ĠÙĤØ±ÙĨ": 6038,
      "ĠØ§ÙĦØ±Ø´ÙĬØ¯": 6039,
      "ot": 6040,
      "ĠØ£Ø¨Ø¯Ø§": 6041,
      "ĠØ±Ø¨ÙĬØ¹": 6042,
      "ĠØ§ÙĦØ¯Ø³Øª": 6043,
      "ĠØ§ÙĦØ§Ø¬ØªÙħØ§Ø¹": 6044,
      "Ġ1920": 6045,
      "Ġ1964": 6046,
      "ĠØ§ÙĦØµÙĪØ±Ø©": 6047,
      "Ø¶Ø§Ø¹": 6048,
      "Ġ75": 6049,
      "Ø´ÙĪØ±": 6050,
      "ĠØŃÙĪØ¶": 6051,
      "ĠØ§ÙĦÙģÙĬÙĦ": 6052,
      "ĠØ¬ÙĨÙĬÙĩ": 6053,
      "ĠØ§ÙĦØ´Ø¹Ø¨ÙĬ": 6054,
      "ĠØ§ÙĦÙħÙĨØ²ÙĦ": 6055,
      "ĠØ§ÙĦØ§": 6056,
      "ĠÙĥÙĨØª": 6057,
      "ÙĬØ³Ø±Ø§": 6058,
      "ĠØ¥Ø³Ø·ÙĨØ¨ÙĪÙĦ": 6059,
      "ent": 6060,
      "Ù¬": 6061,
      "Ø§ÙĦØªÙĬ": 6062,
      "ÙħØ¬ÙĬØ§Øª": 6063,
      "ĠØ§ÙĦØ£Ø¯ÙĪÙĬØ©": 6064,
      "ĠØ®Ø·Ø©": 6065,
      "Ø®Ø·ÙĬØ·": 6066,
      "ÙĪÙĦÙĪØ¬ÙĬ": 6067,
      "ĠØ§ÙĦØµØ¯Ø±": 6068,
      "Ø±Ø¬Ø§ÙĦ": 6069,
      "ĠØ§ÙĦØ¬ÙĨØ±Ø§ÙĦ": 6070,
      "ĠÙĨØ¬Ùħ": 6071,
      "43": 6072,
      "ÙĪØ²ÙĬ": 6073,
      "ĠØ¹Ø§ÙĦÙħÙĬØ§": 6074,
      "ĠØªÙĪØŃÙĬØ¯": 6075,
      "Ø¯Ø±Ø§ÙĨ": 6076,
      "ĠØ§ÙĦÙĦØ§Ø¹Ø¨ÙĬÙĨ": 6077,
      "Ø¶Ø¨Ø©": 6078,
      "ĠÙħØ³Ø§ØŃØªÙĩØ§": 6079,
      "ĠÙĬØ§Ø³": 6080,
      "ĠØ§ÙĦÙĨØµØ±": 6081,
      "ĠØ§ÙĦØ¹ÙĤÙĦ": 6082,
      "ĠÙĪØ£ÙĦ": 6083,
      "ĠØªÙĨØªÙħÙĬ": 6084,
      "ĠØ§ÙĦØµØ®ÙĪØ±": 6085,
      "ĠØªØ´ØºÙĬÙĦ": 6086,
      "ĠØ¨ÙģØ¶ÙĦ": 6087,
      "ĠØªØŃØ§ÙĦÙģ": 6088,
      "ÙħØ§Ø©": 6089,
      "ĠØ§ÙĦØ³ÙĥÙĨ": 6090,
      "ØªØ¨Ø§Ø±Ø§": 6091,
      "ĠÙĦÙĦÙħØŃ": 6092,
      "ĠØ¨Ø¹ÙĬØ¯Ø§": 6093,
      "ĠÙĤÙĦÙĬÙĦØ§": 6094,
      "ĠØ§ÙĦØ£Ø¹Ø±Ø§Ø¶": 6095,
      "ĠÙĬØ³ØªØ¹ÙħÙĦ": 6096,
      "ÙĤØ±Ø§Ø¶": 6097,
      "ĠØ¹ÙĪØ¯": 6098,
      "ĠÙĨØ¬Ø§ØŃØ§": 6099,
      "ĠÙħÙĬØ´": 6100,
      "ĠØ§ÙĦØ¹Ø¸Ø§Ùħ": 6101,
      "ĠÙħØ¹ÙĦ": 6102,
      "ĠØ§ÙĦÙĩØ§": 6103,
      "Ġ1976": 6104,
      "ĠØ§ÙĦØ·ÙĦØ§Ø¨": 6105,
      "ĠØªØªØ£ÙĦÙģ": 6106,
      "ĠØ¥ÙĬÙģ": 6107,
      "ĠØ§ÙĦØ£ÙĬØ§Ùħ": 6108,
      "ĠØ§ÙĦØªØŃØ§ÙĦÙģ": 6109,
      "ĠØ£Ø³ÙģÙĦ": 6110,
      "ĠÙĦØ£ÙĥØ«Ø±": 6111,
      "ĠØ¥ÙħÙĥØ§ÙĨÙĬØ©": 6112,
      "ĠØ§ÙĦØµØ¨Ø§ØŃ": 6113,
      "ĠØªØ§Ø±ÙĬØ®ÙĩØ§": 6114,
      "ĠØ§ÙĦØ±Ø§Ø¨Ø·Ø©": 6115,
      "ĠÙĬÙĨØ¸Ø±": 6116,
      "ĠØ¨ØªÙĤ": 6117,
      "Ø®ÙĦÙĤ": 6118,
      "Ġ1949": 6119,
      "ĠÙĪØªØ³ÙħÙī": 6120,
      "ĠØ§ÙĦØ°ÙĩØ¨ÙĬØ©": 6121,
      "Ø®Ø§Ø°": 6122,
      "ĠÙħØµØ±ÙĬ": 6123,
      "ĠØ§ÙĦØµÙĪØªÙĬØ©": 6124,
      "ÙĪØ£": 6125,
      "ĠÙģÙĪÙĨ": 6126,
      "ĠØ¨ØµÙģ": 6127,
      "ĠØ§ÙĦØ§Ø³ØªØ¹ÙħØ§Ø±": 6128,
      "ĠØ§ÙĦØ´Ø¨ÙĥØ©": 6129,
      "ĠØ¹ÙĪØ§ÙħÙĦ": 6130,
      "ĠÙħØµÙĨ": 6131,
      "Ġ1983": 6132,
      "ĠÙħÙĬØ¯": 6133,
      "ĠÙĬÙħØªØ¯": 6134,
      "ĠÙĪØ¶Ø¹Øª": 6135,
      "ĠØ§ÙĦÙĤØ±Ø§Ø±": 6136,
      "ĠØ§ÙĦØŃÙĤÙĬÙĤØ©": 6137,
      "ĠØ§ÙĦØµØºØ±": 6138,
      "ĠÙħØ°": 6139,
      "ĠÙħØ´Ø§ÙĥÙĦ": 6140,
      "ÙĤØ¨Ø§ÙĦ": 6141,
      "ĠØ´Ø±ÙĤØ§": 6142,
      "ĠØ£Ø±Ø¨": 6143,
      "ÙģÙī": 6144,
      "ĠØ±ÙĪØŃ": 6145,
      "Ġ32": 6146,
      "ĠØªÙĨØ§ÙĪÙĦ": 6147,
      "ĠÙĪØ¨Ø³Ø¨Ø¨": 6148,
      "Ø®ÙĦØ§ÙĤ": 6149,
      "ĠÙĤÙĪÙĬ": 6150,
      "ĠØ²Ø§Ø¯": 6151,
      "ĠØ³Ø¨Ø¹": 6152,
      "ĠØ§ÙĦØ£ÙħØ§ÙĥÙĨ": 6153,
      "ĠØ§ÙĦØŃØ±ÙĬØ©": 6154,
      "ĠØ¨ÙĨÙĬØ©": 6155,
      "ĠâĢĮ": 6156,
      "ĠÙħÙĨØ²": 6157,
      "ĠØ¥Ø¬": 6158,
      "ÙĬÙĪÙħ": 6159,
      "Ġ1963": 6160,
      "ĠÙĦØ§ÙģÙĬÙĨ": 6161,
      "ĠÙĬÙĪØŃ": 6162,
      "ĠØªØ£Ø³Ø³": 6163,
      "ĠØ·Ø¨ÙĬØ¹Ø©": 6164,
      "ĠØŃÙĦØ¨": 6165,
      "Ø¨Ø±Ùĩ": 6166,
      "ĠÙĪÙĦÙĩØ°Ø§": 6167,
      "ĠØ§ÙĦØ£ÙĨØ¯ÙĬØ©": 6168,
      "ĠÙĪÙħÙĦ": 6169,
      "ĠØ§ÙĦØŃØ§Ø³ÙĪØ¨": 6170,
      "ĠØ§ÙĦÙĥÙĬÙħÙĬØ§Ø¦ÙĬ": 6171,
      "ÙĩÙĦØ§Ùĥ": 6172,
      "ĠÙĤØ§ÙĦØª": 6173,
      "ĠØ¯Ùģ": 6174,
      "ĠØ§ÙĦØ·ÙģÙĦ": 6175,
      "ÙĪÙĤÙĬØ©": 6176,
      "ĠØ£ÙĦÙģØ§": 6177,
      "ĠÙĨØµØ±": 6178,
      "Ġ\\": 6179,
      "ut": 6180,
      "Ø³Ø¨ÙĤ": 6181,
      "ĠØ£ÙĦÙĬ": 6182,
      "ÙĥÙĨÙĪÙĦÙĪØ¬ÙĬØ§": 6183,
      "ĠØ²Ø¹ÙĬÙħ": 6184,
      "ĠØ±Ø³ÙħÙĬ": 6185,
      "ĠØ¨Ø³ÙĬØ·Ø©": 6186,
      "Ġ1972": 6187,
      "ĠØ§ÙĦØ¨ÙĨÙĬØ©": 6188,
      "ĠØ§ÙĦØ¥Ø°": 6189,
      "ĠØ¥Ø¨": 6190,
      "ĠÙĨØ§Ø¬": 6191,
      "ØªÙħÙĦ": 6192,
      "ĠØ§ÙĨØªØ®Ø§Ø¨": 6193,
      "ĠÙħØ±ÙĬÙħ": 6194,
      "ĠÙĪØ§ÙĦÙģÙĦ": 6195,
      "ĠØŃÙĦÙģ": 6196,
      "ĠØ§ÙĨØªÙĤØ§ÙĦ": 6197,
      "ĠÙĪØ¯Ø®ÙĦ": 6198,
      "ĠÙĨÙĤØ§Ø·": 6199,
      "ĠÙħØ±ÙĥØ¨Ø§Øª": 6200,
      "ĠÙĨØ§Ø¦Ø¨": 6201,
      "ØŃØ§Ø¨ÙĬ": 6202,
      "Ø§ÙĨØº": 6203,
      "ĠÙĪØ£ÙħØ±": 6204,
      "ĠØ§ÙĦØ¯ÙĨÙħØ§Ø±Ùĥ": 6205,
      "ÙĪØ§ÙĩØ±": 6206,
      "ĠÙĤØ¶ÙĬØ©": 6207,
      "ÙĪØªÙĬÙĨ": 6208,
      "ĠØ§ÙĦØ£Ø¬ÙĨØ¨ÙĬØ©": 6209,
      "ÙĪØ³ÙĪÙģØª": 6210,
      "ÙĪÙĤØ©": 6211,
      "ÙĤØ¯Ø©": 6212,
      "ĠØ¨Ø§ÙĦØ®": 6213,
      "ĠØ§ÙĨØªÙĤÙĦØª": 6214,
      "ĠØ§Ø³ØªÙĨ": 6215,
      "ĠÙĪØ§Ø¬": 6216,
      "ÙĬÙħÙĨØ©": 6217,
      "ÙģØ±Ø¹": 6218,
      "ĠØ¨ÙĤÙĪØ©": 6219,
      "ÙĩØ§Ø¡": 6220,
      "ĠØ¨ÙĨÙĬØª": 6221,
      "Ø§ØµÙĦØ©": 6222,
      "ĠÙĪØ¹Ø§Ø¯Ø©": 6223,
      "ĠØ³Ø±Ø¹Ø§ÙĨ": 6224,
      "ÙĪÙĥØ§": 6225,
      "ĠÙĪÙĦØ¯Øª": 6226,
      "ĠÙģØªØ±Ø§Øª": 6227,
      "ĠØ¨ÙĪÙĦÙĨØ¯Ø§": 6228,
      "77": 6229,
      "ĠØ§ÙĦØ¥ÙĨØ²ÙĬÙħ": 6230,
      "ÙĥÙĦÙħ": 6231,
      "ĠÙĬØ´Ø§Ø±": 6232,
      "ĠÙĨØ¬ØŃ": 6233,
      "Ø±ÙĬØ§ÙĨ": 6234,
      "ĠØ§ÙĦØµÙĦÙĬØ¨ÙĬØ©": 6235,
      "Ġb": 6236,
      "ĠØ¬ÙĬØ±": 6237,
      "ĠØ§ÙĦØ°Ø±Ø©": 6238,
      "ĠÙĤØ±Ùī": 6239,
      "ÙĬÙĥØ±ÙĪØ³ÙĪÙģØª": 6240,
      "Ø®ØµÙĪØµØ§": 6241,
      "ĠØ§ÙĦØ´Ø§ÙģØ¹ÙĬ": 6242,
      "ĠØ§ÙĦØ£ÙĥØ§Ø¯ÙĬÙħÙĬØ©": 6243,
      "Ġ1950": 6244,
      "ĠÙĦÙĥÙĪÙĨ": 6245,
      "ĠÙĪØ£Ø¨ÙĪ": 6246,
      "196": 6247,
      "ĠØ³Ø±Ø·Ø§ÙĨ": 6248,
      "ĠØ§ÙĨØªÙĩÙī": 6249,
      "ĠØ§ÙĦØ¹Ø´": 6250,
      "Ġ1987": 6251,
      "ØŃØ§Ø«": 6252,
      "ĠÙĩØ§Ø¬Ø±": 6253,
      "ĠØ§Ø³ØªØ®Ø¯Ø§ÙħÙĩØ§": 6254,
      "ĠÙĦÙĬÙĪÙĨØ§Ø±Ø¯ÙĪ": 6255,
      "ĠØ§ÙĦØªØ¶": 6256,
      "ØªØ±ØŃ": 6257,
      "ĠØ±ÙĪØ¨Ø±Øª": 6258,
      "ĠØ§ÙĦÙĪØ¬Ùĩ": 6259,
      "ĠØ§ÙĦØ£ÙĦÙħØ§ÙĨ": 6260,
      "Ø§Ø¶Ø·Ø±Ø§Ø¨Ø§Øª": 6261,
      "Ø®ÙĬÙĨ": 6262,
      "ĠÙĪÙħØ±ÙĥØ²": 6263,
      "ĠØºØ§Ø¯Ø±": 6264,
      "ĠØªÙĨØªØ´Ø±": 6265,
      "ĠØ§ÙĦÙĨØ·Ø§ÙĤ": 6266,
      "ÙģØ±ÙĤØ©": 6267,
      "ĠØ±ÙĬØªØ´Ø§Ø±Ø¯": 6268,
      "ÙĤØ·Ø§Ø¹": 6269,
      "ĠØ§ÙĦØ¹Ø«ÙħØ§ÙĨÙĬÙĬÙĨ": 6270,
      "Ø§Ø¯ÙĬÙĨ": 6271,
      "Ġ%": 6272,
      "ĠÙĥØ¹": 6273,
      "Ø´Ø§Ø±Ø§Øª": 6274,
      "ØµØ¯ÙĤ": 6275,
      "ĠØªÙĤÙĪÙĦ": 6276,
      "ĠØ§ÙĦØªÙĪÙĨØ³ÙĬ": 6277,
      "Ø£Ùħ": 6278,
      "im": 6279,
      "ØŃÙĬØ§Ø¡": 6280,
      "ÙĨÙĬØ§": 6281,
      "ĠØ§ÙĦØ£Ø«": 6282,
      "ĠØ§ÙĦØ¥ÙĬÙħØ§ÙĨ": 6283,
      "ĠØªØ¯ÙħÙĬØ±": 6284,
      "ĠØ´Ø¹Ø§Ø±": 6285,
      "ĠØªØ§Ø±ÙĬØ®Ùĩ": 6286,
      "ĠØ§ÙĦÙģÙħ": 6287,
      "ĠÙĥÙħÙĬØ§Øª": 6288,
      "ĠÙĤÙĬØ¯": 6289,
      "ÙĨØ¯ÙĪÙĤ": 6290,
      "ĠØªØ¹Ø±Ø¶Øª": 6291,
      "ĠØ±Ø¤ÙĬØ©": 6292,
      "ĠØ§ÙĦÙħÙħØ«ÙĦ": 6293,
      "ĠØ§ÙĦØ£Ø´Ø¹Ø©": 6294,
      "ĠØ§ÙĦÙħÙĩØ§Ø¬Ø±ÙĬÙĨ": 6295,
      "ÙĪØ±ÙĬØ§Øª": 6296,
      "ĠØ¨Ø¹ÙĬØ¯": 6297,
      "ĠØ¨Ø§Ø¹ØªØ¨Ø§Ø±ÙĩØ§": 6298,
      "Ø¯Ø§Ø¨": 6299,
      "ĠØ¨Ø§ÙĦÙĩ": 6300,
      "ĠØºÙĦ": 6301,
      "ÙģÙĬØ±": 6302,
      "ĠØ§ÙĦÙħØµØ±ÙĬÙĬÙĨ": 6303,
      "Ø§ÙĤØ´": 6304,
      "ĠØ¸Ø±ÙĪÙģ": 6305,
      "ĠØ§ÙĦØ«ÙĤØ§ÙģÙĬ": 6306,
      "ĠÙĪØ¹Ø±Ø¶": 6307,
      "ĠÙĦØ¶": 6308,
      "Ø±ÙĨØ³ÙĬØ©": 6309,
      "ÙĪØ¶Ø©": 6310,
      "ÙĨØ§Ø·ÙĬØ³ÙĬØ©": 6311,
      "ĠØ§ÙĦØªÙĤÙĦÙĬØ¯ÙĬ": 6312,
      "ĠÙĪÙĪØµÙĦ": 6313,
      "ĠØ§ÙĦØ¨Ø³ÙĬ": 6314,
      "Ġ1977": 6315,
      "ĠÙĬØŃÙĬÙī": 6316,
      "ĠØ§ÙĦØ¬ÙĬ": 6317,
      "ĠØ§ÙĦÙĬÙĪÙĨØ§ÙĨÙĬ": 6318,
      "ĠØªØ¨Ø¹": 6319,
      "ĠØ¬ÙĬÙĦ": 6320,
      "ĠØ£Ø¹Ø±Ø§Ø¶": 6321,
      "ĠØ§ÙĦÙĥØ«Ø§ÙģØ©": 6322,
      "Ø§ÙħØ¹": 6323,
      "ĠÙĬÙħØ±": 6324,
      "ĠØ£ÙĨØ§": 6325,
      "Ø¨Ø±ÙĨ": 6326,
      "ÙĬØ²Ø§": 6327,
      "ĠÙĪÙĦÙĪ": 6328,
      "ĠØ£ÙģÙĥØ§Ø±": 6329,
      "ĠØ§ÙģØªØªØ§ØŃ": 6330,
      "ÙĤÙĪØ¨": 6331,
      "ĠÙĩØ²Ùħ": 6332,
      "ĠØ§ÙĦÙĦØ§ØŃÙĤØ©": 6333,
      "ÙĪØªØ±": 6334,
      "ÙģØ±Ø©": 6335,
      "ĠÙĪÙĬÙĦÙĬØ§Ùħ": 6336,
      "ĠØ§ÙĦÙĦØ¹Ø¨": 6337,
      "ÙĤÙĬØ§Ùħ": 6338,
      "Ġ1969": 6339,
      "ĠÙħØ§ÙĨØ´Ø³ØªØ±": 6340,
      "ĠÙĪØŃØ¯Ø§Øª": 6341,
      "ÙĤØ§Ø·": 6342,
      "ĠØ§ÙĦÙĥØ±Ø¯": 6343,
      "ĠØ§ÙĦØ£ÙħÙĬÙĨ": 6344,
      "ĠØ£ÙĦØ§": 6345,
      "Ø¬ÙĪÙĨ": 6346,
      "ĠÙħØªÙģ": 6347,
      "ĠØ§ÙĦÙĨØŃÙĪ": 6348,
      "ĠÙĪÙĬØ²": 6349,
      "ĠØªÙĪÙĤÙģ": 6350,
      "ĠØ§ÙĦÙħØ±Ø©": 6351,
      "ĠØ§ÙĦØ¯Ø¹ÙĪØ©": 6352,
      "ÙħØ§ÙĦÙĬÙĥ": 6353,
      "Ø¬ÙĩØ§Ø²": 6354,
      "ĠØ§ÙĦØ¬Ø³ÙĬÙħØ§Øª": 6355,
      "ĠØ§ÙĦØ¥Ø®ÙĪØ§ÙĨ": 6356,
      "ĠÙĬÙĪØŃÙĨØ§": 6357,
      "96": 6358,
      "ĠÙĪÙĬÙĤÙĪÙĦ": 6359,
      "ĠÙĪÙħØŃÙħØ¯": 6360,
      "}}": 6361,
      "Ø§ÙħØ³": 6362,
      "Ø§ÙĦÙĬØ§Øª": 6363,
      "ĠØ§ÙĦØ¬Ø§ÙħØ¹Ø§Øª": 6364,
      "ĠÙĥÙĬÙĨ": 6365,
      "ĠÙĥÙĦÙģ": 6366,
      "ÙĪÙħÙĬÙĨ": 6367,
      "Ø§Ø²ÙĬØºÙĬØ©": 6368,
      "ĠØªØ³ÙħØŃ": 6369,
      "ĠÙĩØ§": 6370,
      "ĠØ´ÙĥÙĦØª": 6371,
      "ĠØ¨Ø³ÙĩÙĪÙĦØ©": 6372,
      "Ø±Ø¨Ø§": 6373,
      "Ġ38": 6374,
      "ĠØ£Ø¹ÙĤØ§Ø¨": 6375,
      "Ø¸ÙĬÙģ": 6376,
      "Ø³ÙĬØ·Ø±": 6377,
      "ĠØ°Ø§ØªÙĩ": 6378,
      "ĠÙħÙĪØ¶Ø¹": 6379,
      "ĠÙĦØªØµØ¨ØŃ": 6380,
      "ĠØ§ÙĦÙĦÙĬÙĦ": 6381,
      "Ø±ÙĬØ§Ø¶": 6382,
      "ĠÙĤØµÙĬØ±": 6383,
      "ĠØ£Ø¹Ø¯": 6384,
      "ÙĪÙĦÙĪ": 6385,
      "Ø±ÙĬØ¨ÙĬØ©": 6386,
      "ÙħØ±Ø¯": 6387,
      "ĠÙĪØ¨ÙĨØ§Ø¡": 6388,
      "Ø¶Ø§Ùģ": 6389,
      "Ø®ØªØ¨Ø±": 6390,
      "ÙħÙĬÙĨÙĬØ§": 6391,
      "ĠØ¬Ø°": 6392,
      "ĠØ§ÙĦÙĨØ§Ø¬": 6393,
      "ĠØªØ£ØªÙĬ": 6394,
      "ĠØ§ÙĦÙĥÙĦÙĬ": 6395,
      "ĠØ§ÙĦØ§ÙĨØªØ®": 6396,
      "ĠØ§ÙĦØ¨Ø§ØŃØ«ÙĬÙĨ": 6397,
      "ĠØ±Ø¨Ø·": 6398,
      "ÙĪØ±ÙĬÙĬÙĨ": 6399,
      "Ġ1947": 6400,
      "ĠÙĩØ§ÙĨ": 6401,
      "Ø§Ø¶Ø·": 6402,
      "Ø§Ø°Ø¬": 6403,
      "ÙĤØ³": 6404,
      "ĠØ§ÙĦØ¥Ø¨": 6405,
      "ØºØ±Ø§ÙģÙĬØ©": 6406,
      "ĠØ³ÙĦØ§Ùħ": 6407,
      "55": 6408,
      "ĠØ¶Ø®ÙħØ©": 6409,
      "ĠÙħÙĤØ§Ø¨ÙĦØ©": 6410,
      "ĠÙĪØ§ÙĦÙħÙĦ": 6411,
      "ĠØŃØ¯ÙĬØ«Ø§": 6412,
      "ĠÙĬØŃØªØ§Ø¬": 6413,
      "ĠØªØ³ØªØ·ÙĬØ¹": 6414,
      "ĠØ§ÙĦÙħÙĬØª": 6415,
      "ĠØ¯Ø¹Ø§": 6416,
      "Ġ48": 6417,
      "ĠØ§ÙĦÙģØ¶ÙĦ": 6418,
      "98": 6419,
      "ØŃÙī": 6420,
      "ĠØ§ÙĦØ£Ø³ÙħØ§Ø¡": 6421,
      "ĠÙĪØ§ÙĦØ¹Ø¯ÙĬØ¯": 6422,
      "ĠØ§ÙĨØªØ´Ø±Øª": 6423,
      "ĠÙħÙĪØ²": 6424,
      "ÙĪØ§Ø±ÙĬØ®": 6425,
      "Ø¯Ø§Ø©": 6426,
      "ĠØ¥ÙĨØ´": 6427,
      "ĠØ§ÙĦÙħÙĨØ®ÙģØ¶Ø©": 6428,
      "Ø¹ÙĬÙĨÙĬØ§Øª": 6429,
      "74": 6430,
      "ĠØ·Ø±Ø¯": 6431,
      "ĠØ£Ø®Ø°Øª": 6432,
      "Ø³ÙĪÙģ": 6433,
      "ĠÙĪØ¹Ø±Ùģ": 6434,
      "ĠÙĥØ§Ø¨": 6435,
      "ĠØ§ÙĦØ¥Ø¹ÙĦØ§ÙĨ": 6436,
      "ĠÙĥÙĬÙĦÙĪÙħØªØ±Ø§": 6437,
      "Ġ400": 6438,
      "ĠÙĬØªÙħÙĥÙĨ": 6439,
      "ĠØ§ÙĦÙĪÙĦÙĬØ¯": 6440,
      "ĠØ§ÙĦØªÙħØ«ÙĬÙĦ": 6441,
      "ĠÙĪÙĤØªÙĩØ§": 6442,
      "ĠØ²ÙĬØ¯": 6443,
      "ĠØ§ÙĦØ¨Ø±Ùħ": 6444,
      "ĠØ§ÙĦØ´Ø±ÙĬØ¹Ø©": 6445,
      "ĠØªØ²ÙĬØ¯": 6446,
      "ĠØ§ÙĦØ£ÙģØ±ÙĬÙĤÙĬØ©": 6447,
      "ĠØ¯Ø¨": 6448,
      "ĠÂ»": 6449,
      "ĠØ§ÙĦÙĥÙĬÙħÙĬØ§Ø¡": 6450,
      "ĠÙĥÙĦÙħØ§Øª": 6451,
      "ĠØ§ÙĦÙħÙĪØ§ÙģÙĤØ©": 6452,
      "ĠÙĥÙĪÙĨÙĩ": 6453,
      "Ø³ÙĪØ±": 6454,
      "ĠØŃÙĦÙĤØ©": 6455,
      "ÙģÙĬÙģØ©": 6456,
      "Ø¬ÙħØ¹Ø§Øª": 6457,
      "ĠØ§ÙĦØ£ÙĨØ¸ÙħØ©": 6458,
      "ĠÙĪÙĬÙģ": 6459,
      "ĠØ§ÙĦØ§ØªØµØ§ÙĦ": 6460,
      "Ø³Ø·ÙĬÙĨÙĬÙĬÙĨ": 6461,
      "ĠØ§ÙĦØ³Ø±Ø·Ø§ÙĨ": 6462,
      "ØªÙĩÙħØ§": 6463,
      "ĠÙĪÙĨÙĤÙĦ": 6464,
      "ĠØ§ÙĦÙĥØ§Ø±ÙĬ": 6465,
      "ÙĬØ²Ø§Øª": 6466,
      "ĠØ§ÙĦØ£Ø¬Ø³Ø§Ùħ": 6467,
      "op": 6468,
      "ĠÙĦÙĦØªÙĨ": 6469,
      "ĠØ²Ø¹Ùħ": 6470,
      "Ø§ÙĤØ¯": 6471,
      "ĠØ§ÙĦØµÙĪØ±": 6472,
      "ĠÙĪÙħØ¯": 6473,
      "ĠÙĪÙĤÙģ": 6474,
      "ĠØ¬ÙĨØ¯ÙĬ": 6475,
      "ĠØ§ÙĦÙħØºÙĪÙĦ": 6476,
      "Ø¬ÙĬÙĥØ§": 6477,
      "ĠØ£ÙĤØ§Ùħ": 6478,
      "ĠÙĪÙħØµØ±": 6479,
      "ĠØ§ÙĦØ£Ø®Ø¶Ø±": 6480,
      "ĠØ§ÙĦÙĥÙĪÙĬØªÙĬ": 6481,
      "ĠÙĪØ§Ùħ": 6482,
      "ĠØ£ÙħÙĦ": 6483,
      "ĠÙĤÙĪÙĦ": 6484,
      "Ø§ÙĥØ³": 6485,
      "ĠØ§Ø¨ØªØ¯Ø§Ø¡": 6486,
      "ĠØªØºØ·ÙĬ": 6487,
      "ĠØ§ÙĦØ¯Ø§Ø®ÙĦ": 6488,
      "Ø§Ø¦ØŃØ©": 6489,
      "ÙĦÙĤØ§Ø¨": 6490,
      "ĠØ§ÙĦÙĥØ§ØªØ¨": 6491,
      "ĠØºÙĬØ±ÙĩØ§": 6492,
      "ĠØ§ÙĦØµÙĪØ¯ÙĬÙĪÙħ": 6493,
      "ÙĬÙĪÙģ": 6494,
      "ĠØ§ÙĦÙģØµÙĬÙĦØ©": 6495,
      "Ø§Ø¦ÙĬÙĬÙĨ": 6496,
      "Ġ1955": 6497,
      "ĠØ§ÙĦÙĦØ§Ø²ÙħØ©": 6498,
      "ĠØªØ´Ø¨Ùĩ": 6499,
      "ĠÙħÙĦØŃÙĪ": 6500,
      "ĠØ§ÙĦÙĤÙĬÙħØ©": 6501,
      "ÙĬÙĨÙĬÙĪÙĨ": 6502,
      "Ø§ÙĦØ°ÙĬ": 6503,
      "Ø¬ÙĦÙĪØ³": 6504,
      "ĠØ§ÙĦØ¥ÙĦÙĥØªØ±ÙĪÙĨØ§Øª": 6505,
      "ĠØ§ÙĦØ³ÙĬÙĨÙħØ§": 6506,
      "ĠØªØŃØ³ÙĬÙĨ": 6507,
      "ĠØ§ÙĦØ£ØµÙĪØ§Øª": 6508,
      "ĠØ§ÙĦØŃØ§Ø¬Ø©": 6509,
      "ĠÙĦÙĦÙħØ³": 6510,
      "ĠÙĤÙĬÙĦ": 6511,
      "Ø§ÙĬØªØ¯": 6512,
      "Ø§Ø³Ø§ÙĨ": 6513,
      "ĠØ§ÙĦÙħØŃØ±": 6514,
      "Ø¦Ø±": 6515,
      "ĠÙĪØ¨Ø¯Ø£Øª": 6516,
      "ĠØ³Ø§Ø¹Ø§Øª": 6517,
      "Ġ1966": 6518,
      "ĠØ§ÙĦÙĨØ³Ø¨ÙĬØ©": 6519,
      "ĠØ§ÙĦØ£ÙĤØµÙī": 6520,
      "ĠØ¨ÙĤØ§ÙĬØ§": 6521,
      "ĠÙĬØªØ±": 6522,
      "ĠØ´Ø±ÙĬÙĥ": 6523,
      "ĠØ±Ø§Ø¨Ø·Ø©": 6524,
      "ĠØ§ÙĦØ¢Ø³ÙĬÙĪÙĬØ©": 6525,
      "Ø®Ø¯ÙħØ§Øª": 6526,
      "ĠØ¬ÙħÙĬØ¹Ø§": 6527,
      "Ø§ØªÙģ": 6528,
      "ĠÙħØŃØ§ÙģØ¸": 6529,
      "ĠØ£Ø´Ø§Ø±": 6530,
      "ÙĩØ¬": 6531,
      "ĠØ§ÙĦÙħØŃØ¯": 6532,
      "ĠØ²ÙĬÙĨ": 6533,
      "ĠØ§ÙĦØ¨Ø¹Ø«": 6534,
      "Ø§Ø³Ø§": 6535,
      "ÙĬØªØ§": 6536,
      "ĠØ§ÙĦÙħØ¨Ø§ÙĨÙĬ": 6537,
      "ĠÙĤØ·Ø¹Ø©": 6538,
      "ĠÙħØªÙĪ": 6539,
      "ĠØ§ÙĦÙħØ¬ÙħØ¹": 6540,
      "ĠØ§ÙĦØ£Ø´Ø¬Ø§Ø±": 6541,
      "ĠØ¬ÙĬÙĨ": 6542,
      "ĠØ±ÙĪØ¯": 6543,
      "ĠØ§ÙĦØŃÙĤØ¨Ø©": 6544,
      "ĠÙĬØ´Ø¨Ùĩ": 6545,
      "ĠØ§ÙĦÙĤÙĦØ¹Ø©": 6546,
      "Ø¬ØªÙħØ¹": 6547,
      "ĠØ§ÙĦØ·ÙĪÙĦ": 6548,
      "ĠØ¨Ø§ÙĦÙħÙĤ": 6549,
      "ĠÙĬÙħØªÙĦÙĥ": 6550,
      "ĠØ§Ø®ØªØ§Ø±": 6551,
      "ĠØ¨Ø§ØªØ¬Ø§Ùĩ": 6552,
      "ÙĬØ§ÙĤ": 6553,
      "ĠØ¨ÙĨØŃÙĪ": 6554,
      "ĠØŃÙĬÙĨÙħØ§": 6555,
      "ĠØ±ÙĪØ²": 6556,
      "âĢĿ": 6557,
      "ĠØ§ÙĦØ³ØªÙĬÙĨ": 6558,
      "ĠØ§ÙĦÙħÙĨÙĪØ±Ø©": 6559,
      "ĠÙĥÙĪÙĨÙĩØ§": 6560,
      "ĠØ§ÙĦØ³ÙģÙĦÙĬ": 6561,
      "ÙĬØ³ÙĥÙĪ": 6562,
      "ĠÙĦØªØ³": 6563,
      "ĠØ¥Ø³ØªØ±": 6564,
      "Ø§ÙĤÙģ": 6565,
      "ĠØ¨Ø¬Ø§ÙĨØ¨": 6566,
      "ĠØ«ÙĤØ§ÙģØ©": 6567,
      "ĠØ§ÙĦØ¥Ø¬": 6568,
      "Ø¯Ø§ÙĪÙĦ": 6569,
      "ĠØ§ÙĦÙĥØ¨Ø±ÙĬØª": 6570,
      "ĠØ§ÙĦÙĩÙĬØ¦Ø©": 6571,
      "ĠÙĨØ§Ø¨ÙĦÙĬÙĪÙĨ": 6572,
      "Ø³Ø§Øª": 6573,
      "ĠÙĪØ§Ø³ØªØ·Ø§Ø¹": 6574,
      "ĠØ§ÙĦØ³ÙĨÙĬÙĨ": 6575,
      "ĠØ¹Ø§ÙĦÙħÙĬØ©": 6576,
      "Ø¹ÙĬØ§": 6577,
      "ĠØ§ÙĦØ£ØªØ±Ø§Ùĥ": 6578,
      "ÙĤÙĬÙĨ": 6579,
      "Ø®Ø±Ø§": 6580,
      "ĠÙģÙĬÙĦÙĬØ¨": 6581,
      "ĠØ¯ÙĦÙĬÙĦ": 6582,
      "Ø±ØºÙħ": 6583,
      "ĠØ¨ÙĪØ³": 6584,
      "ÙģØµÙĦØ©": 6585,
      "ÙģØ°": 6586,
      "ĠÙħÙĨØµØ¨Ùĩ": 6587,
      "ĠØ§ÙĦÙĩÙĪÙĦÙĨØ¯ÙĬØ©": 6588,
      "ÙĥØªÙĦÙĨØ¯Ø§": 6589,
      "ĠØ§ÙĦÙħØºÙĨØ§Ø·ÙĬØ³ÙĬ": 6590,
      "ĠÙģØ£ÙĨ": 6591,
      "ĠÙĦØ¬ÙħÙĬØ¹": 6592,
      "ĠØ±ØŃÙĦ": 6593,
      "ÙħÙĨØ§": 6594,
      "Ø«ÙħØ§Ø±": 6595,
      "Ø²ÙĪØ¬": 6596,
      "ĠØ§ÙĦÙĤØ§ÙĨÙĪÙĨÙĬØ©": 6597,
      "ĠØ¹Ø±Ø¨": 6598,
      "ĠÙĪØ¬ÙĩØ©": 6599,
      "Ġ1954": 6600,
      "ĠØ§ÙĦÙħÙģØ±": 6601,
      "Ø·Ø¨ÙĬÙĤ": 6602,
      "ĠÙħÙĪØ§Ø¬ÙĩØ©": 6603,
      "ĠØ§ÙĦÙĦÙĬØ¨Ø±": 6604,
      "ĠØ§ÙĦÙħÙĦÙĪÙĥ": 6605,
      "ÙĦØªØ§": 6606,
      "ĠØ·Ø¨ÙĤØ§": 6607,
      "ĠØ§ÙĦØ«Ø¯ÙĬ": 6608,
      "ØªÙĦØ§ÙģØ§Øª": 6609,
      "Ø§ÙĦÙĦ": 6610,
      "Ø§ØºÙĪ": 6611,
      "ĠØ§ÙĦØ£Ø¯Ø¨ÙĬØ©": 6612,
      "ĠØ§ÙĦØºØ±": 6613,
      "ĠØ¹ÙħÙĩ": 6614,
      "ĠÙĬØªÙħØªØ¹": 6615,
      "ĠØ³ÙĦÙħ": 6616,
      "ĠÙĪØ¸ÙĬÙģØ©": 6617,
      "Ġ'": 6618,
      "Ø§ÙĥØ±": 6619,
      "ĠÙĤØ§Ø¯Ø±Ø©": 6620,
      "ĠÙħØ·ÙĦØ¹": 6621,
      "Ø§Ø±ÙĬØ³": 6622,
      "ĠÙĬØªØ¶ÙħÙĨ": 6623,
      "ĠÙĤØ±ÙĪÙĨ": 6624,
      "ĠÙħØ³ÙĦ": 6625,
      "ĠØµÙĬ": 6626,
      "ĠØ³ÙĦØ§ØŃ": 6627,
      "ĠØ§ÙĦØªØ´ØºÙĬÙĦ": 6628,
      "ĠØ¹Ø±ÙĤ": 6629,
      "ĠÙĦÙĨØ§": 6630,
      "ĠØµØ¨": 6631,
      "Ġ1941": 6632,
      "ĠØªØ£ÙĦÙĬÙģ": 6633,
      "ĠØ§ÙĦØªØ¹Ø¨ÙĬØ±": 6634,
      "ĠØ§ÙĦØ²Ø¨ÙĬØ±": 6635,
      "ĠØ£ÙħÙĩ": 6636,
      "ĠÙĪØ§ÙĦØ¨ÙĬ": 6637,
      "ĠØ¨Ø§ÙĦÙħØ¯ÙĬÙĨØ©": 6638,
      "ĠÙĪØ§ÙĦÙĪÙĦØ§ÙĬØ§Øª": 6639,
      "ĠØªØ¯ÙĪØ±": 6640,
      "92": 6641,
      "Ø§Ø«ÙĬØ©": 6642,
      "):": 6643,
      "ac": 6644,
      "ĠÙĪØ¨ÙĨ": 6645,
      "ĠÙĪÙĥØ§ÙĨÙĪØ§": 6646,
      "ĠØ§ÙĦØ³ÙĦÙĪÙĥ": 6647,
      "ĠØ³Ø¨Ø§ÙĤ": 6648,
      "ÙħØ§Ø¶": 6649,
      "ĠØ§ÙĦØ£ÙĪØ³": 6650,
      "ĠÙħØ¹Ø¨Ø¯": 6651,
      "Ø§ÙĦØµ": 6652,
      "ĠÙĥØ³Ø±": 6653,
      "ÙĬØ³Ø±": 6654,
      "ĠØ§ÙĦÙħÙĤØ§Ø·Ø¹Ø©": 6655,
      "ÙĦÙģØ§Øª": 6656,
      "ĠÙĦÙĦØ¢": 6657,
      "ĠØ§ÙĦØ±Ø¬": 6658,
      "ĠØ¨Ø±Ø´ÙĦÙĪÙĨØ©": 6659,
      "ĠÙħØ³Ø§Ø¹Ø¯": 6660,
      "ĠØ¹ÙĦÙĪÙħ": 6661,
      "ĠÙħÙĨØ®ÙģØ¶Ø©": 6662,
      "ĠØ¸Ø§ÙĩØ±Ø©": 6663,
      "Ġ1952": 6664,
      "ÙĬÙĬØ¯": 6665,
      "ĠØ¥Ø®Ø±Ø§Ø¬": 6666,
      "ĠÙħØ¯Ø§Ø±Ø³": 6667,
      "ĠÙĪØ¸ÙĦ": 6668,
      "ĠÙħØ¦Ø§Øª": 6669,
      "Ø¨Ùĥ": 6670,
      "ØªÙģØ¹Ø§Øª": 6671,
      "ĠØ§ÙĦØ±Ø¨ÙĬØ¹": 6672,
      "ĠØ¨Ø£ÙħØ±": 6673,
      "Ġ1965": 6674,
      "ĠØ§ÙĦÙħØ±Ø§ÙĥØ²": 6675,
      "ĠÙĪØ¸ÙĩØ±": 6676,
      "ÙĪØ¯Ùĩ": 6677,
      "ĠÙħÙĦÙĥØ§": 6678,
      "ĠØ³Ø¯": 6679,
      "ĠØªØ³ØªØ¹ÙħÙĦ": 6680,
      "ØªØ±ÙĬ": 6681,
      "ĠÙĪÙĦÙĩØ§": 6682,
      "ÙĤØ±ÙĬØ©": 6683,
      "42": 6684,
      "ĠØĽ": 6685,
      "ÙĤØ§Ø°": 6686,
      "ĠÙħØ´ØªØ±Ùĥ": 6687,
      "ÙħØ§Øª": 6688,
      "ØªÙĬÙĦ": 6689,
      "ĠÙĦÙĦØ¶": 6690,
      "ĠØ§ÙĤØªØµØ§Ø¯ÙĬØ©": 6691,
      "ĠØ§ÙĦÙħÙĨØ§Ø¹Ø©": 6692,
      "ÙģØ¹Ø§ÙĦ": 6693,
      "ĠØ£ÙĬØ©": 6694,
      "ÙĤØ±Ø§Ø·ÙĬØ©": 6695,
      "ul": 6696,
      "Ø§Ø·ÙĬØ©": 6697,
      "Ø§ÙĦÙĬÙĪÙĨ": 6698,
      "ĠØ¨Ø¯ÙĪØ±ÙĩØ§": 6699,
      "ĠÙĤØ¯ÙĬÙħØ§": 6700,
      "ĠÙĪØ§ÙĦØ±Ø§Ø¨Ø¹Ø©": 6701,
      "ØŃØ§ÙĨ": 6702,
      "ĠÙĦØªØµ": 6703,
      "Ø§Ø²Ø©": 6704,
      "ĠÙĪØ§ÙĦØ´Ø±": 6705,
      "ĠØ¨Ø·ÙĪÙĦ": 6706,
      "ĠÙĤØ±Ø§Ø¨Ø©": 6707,
      "ĠØ§ÙĦØ³Ø¬ÙĨ": 6708,
      "ĠØ£ÙħÙĬÙĨ": 6709,
      "ØºØ±Ø³": 6710,
      "ĠÙĪØ§Ø¶ØŃ": 6711,
      "ØŃÙĬÙĦ": 6712,
      "ĠØ§ÙĦØ£ØµØºØ±": 6713,
      "ĠØ§ÙĦÙĥØ¨Ø¯": 6714,
      "ĠØ§ÙĦØ£ÙĨÙĩØ§Ø±": 6715,
      "em": 6716,
      "ĠÙħÙĩØ±Ø¬Ø§ÙĨ": 6717,
      "ĠØ¢ÙĬ": 6718,
      "ĠØ§ÙĦØ³Ø§Ø¯Ø³Ø©": 6719,
      "ĠØ§ÙĦÙĦÙħ": 6720,
      "ĠÙĦØªÙħ": 6721,
      "ĠØ³ØªØ§ÙĦÙĬÙĨ": 6722,
      "ĠØ¬Ø±Ùī": 6723,
      "ĠØ´Ø§Ø±ÙĥØª": 6724,
      "ĠØ§ÙĦØ¶ÙĪ": 6725,
      "ĠØ§ÙĦØ£Ø¬ÙĩØ²Ø©": 6726,
      "ĠÙĨØ¨": 6727,
      "Ġ1946": 6728,
      "ĠÙĪÙħÙĨÙĩÙħ": 6729,
      "ÙĨØ¯ÙĪÙĨ": 6730,
      "ĠØ§ÙĦØ¹Ø¨Ø§Ø³ÙĬ": 6731,
      "ĠØªØ¤Ø«Ø±": 6732,
      "ĠØ¬ÙĪØ§Ø¦Ø²": 6733,
      "ĠØ®Ø¯Ùħ": 6734,
      "ĠÙĪÙħØµ": 6735,
      "ĠÙĪØ¬Ø²": 6736,
      "ĠÙħÙĤØ¹Ø¯": 6737,
      "72": 6738,
      "ĠÙħØ¬Ø¯Ø¯Ø§": 6739,
      "ĠØ²Ø§Ø±": 6740,
      "Ø§Ø¡Ø§Øª": 6741,
      "ĠØ§ÙĦØ³ÙģØ±": 6742,
      "ĠØ§ÙĦØ®ÙĦÙģØ§Ø¡": 6743,
      "ĠØ§ÙĦØµÙĨØ§Ø¹Ø©": 6744,
      "%.": 6745,
      "Ø³Ø§Ø¯": 6746,
      "ÙĥØªØ¨": 6747,
      "ĠØ¢Ø®Ø±ÙĪÙĨ": 6748,
      "Ø³ØªØ§Ø°": 6749,
      "ĠØ§ÙĦÙĦÙĩØ¬Ø§Øª": 6750,
      "ĠÙĤÙĪÙī": 6751,
      "Ø§Ø·ÙĬÙĨ": 6752,
      "ĠÙĦØªÙĦÙĥ": 6753,
      "Ø·Øª": 6754,
      "ĠÙĦÙĦØ³ÙĥØ§ÙĨ": 6755,
      "Ġf": 6756,
      "ĠØ£ÙĤÙĪÙī": 6757,
      "ĠØ§ÙĦÙħØ¹Ø§ØµØ±": 6758,
      "ĠÙĩØ¬ÙĪÙħ": 6759,
      "ĠØªØ§Ø±ÙĬØ®ÙĬØ©": 6760,
      "ĠÙĦØªØ±": 6761,
      "ĠÙĪÙħØª": 6762,
      "ĠÙĪØ§ÙĦØ¨ÙĦ": 6763,
      "ĠÙħÙĪØ³ÙĥÙĪ": 6764,
      "ĠØ¥Ø¯ÙĪØ§Ø±Ø¯": 6765,
      "ÙģÙĪÙĨ": 6766,
      "ĠØªÙħØ«ÙĬÙĦ": 6767,
      "ØŃÙĪØ«": 6768,
      "ĠØ¨ØŃØ±ÙĬØ©": 6769,
      "ĠÙĥØ§Ùģ": 6770,
      "Ø±ÙĬØ®": 6771,
      "ĠØ£ØŃØ¯Ø«": 6772,
      "Ġ*": 6773,
      "ĠØ«Ø§Ø¨ØªØ©": 6774,
      "ÙĥØ±Ø±": 6775,
      "ĠØ§ÙĦØªÙĤÙī": 6776,
      "ĠØ§ÙĦØ£ÙħÙĪØ§ÙĦ": 6777,
      "ĠØ§ÙĦÙĥØ§Ùħ": 6778,
      "ĠÙĪÙĬØ¤": 6779,
      "ĠØ¬ÙĪØ²ÙĬÙģ": 6780,
      "ØºÙĪÙĦ": 6781,
      "Ġ33": 6782,
      "ĠØ§ÙĦØ¨ØŃØ±ÙĬ": 6783,
      "ĠÙĪØ®ØµÙĪØµØ§": 6784,
      "ĠØ§ÙĦØªÙĨØ¸ÙĬÙħ": 6785,
      "ĠØ§ÙĦØ¢Ø±Ø§ÙħÙĬØ©": 6786,
      "ÙĩÙĪØ±Ø©": 6787,
      "ĠÙĪÙĬØŃØª": 6788,
      "Ø®Ø§Ø±": 6789,
      "ĠØ§ÙĦÙħÙĨØ´": 6790,
      "ĠØ§ÙĦÙħÙĨØµØ¨": 6791,
      "73": 6792,
      "ĠØ§ÙĦØ£Ø¬Ø²Ø§Ø¡": 6793,
      "ÙĤÙĬÙĩ": 6794,
      "ĠÙĦÙĦØ£ÙħÙħ": 6795,
      "ĠØªØ·ÙĦ": 6796,
      "Ġ1917": 6797,
      "ĠØ³ÙħØŃ": 6798,
      "ĠØ®Ø¯ÙħØ§Øª": 6799,
      "Ø¯Ø§Ùħ": 6800,
      "ĠØ³ÙĬÙĥÙĪÙĨ": 6801,
      "ĠÙĬÙĥØªØ¨": 6802,
      "ĠØ¨Ø±Ùĥ": 6803,
      "ĠØ¨Ø§Ø¨ÙĦ": 6804,
      "ĠØ§ÙĦÙĤØ§Ø¯Ø©": 6805,
      "ĠØ§ÙĦØ¹ÙĨØµØ±": 6806,
      "ÙĬÙĪØªØ±": 6807,
      "ĠØ§ÙĨØªØ®Ø¨": 6808,
      "ĠØ®ÙĬØ±": 6809,
      "ØŃÙĪØ§ÙĦÙĬ": 6810,
      "ĠÙģÙĤØ§Ùħ": 6811,
      "ĪĴ": 6812,
      "ĠØ§ÙĦÙħØµØ§Ø¨ÙĬÙĨ": 6813,
      "ĠÙĪØ²Ø±Ø§Ø¡": 6814,
      "ĠÙĬØµÙģ": 6815,
      "ÙģÙĪØ±Ø¯": 6816,
      "ĠÙĪØªØ¹Ø±Ùģ": 6817,
      "ĠÙĪØ£ØŃØ¯": 6818,
      "ĠØ§ÙĦÙħØ±ØªØ¨Ø·Ø©": 6819,
      "ad": 6820,
      "ÙĬÙħØ§": 6821,
      "ĠØ¨Ø§ÙĦØ§Ø³Øª": 6822,
      "ĠØ¨Ø±ÙĨ": 6823,
      "ĠØ¬Ø²ÙĬØ¦Ø§Øª": 6824,
      "ÙĪØ³Ø§": 6825,
      "ĠØ§ÙĦÙħØ¹Ø§Ø¯ÙĨ": 6826,
      "Ø´Ø§Ùħ": 6827,
      "ĠØ§ÙĦÙĨÙĪØ§Ø©": 6828,
      "ĠÙħØŃÙĥÙħØ©": 6829,
      "ĠØ¥ÙĨØªØ±": 6830,
      "ĠÙĪØ§ÙĦØ¯ØªÙĩ": 6831,
      "ĠÙĦÙĦÙĪ": 6832,
      "ĠØ²ÙĪØ¬ÙĩØ§": 6833,
      "ĠØ§ÙĦØ¨Ø±ÙĪØªÙĬÙĨØ§Øª": 6834,
      "ĠÙħÙħØ§Ø±Ø³Ø©": 6835,
      "ĠÙĪØ¹Ø§Ø¯": 6836,
      "ĠÙģÙĥØ±": 6837,
      "ĠØ§ÙĦØ¯ÙĬØ§ÙĨØ©": 6838,
      "ir": 6839,
      "ĠØ§ÙĦÙĤØ¨Ø·": 6840,
      "ĠÙĪØ£Ø¹ÙĦÙĨ": 6841,
      "Ġ1957": 6842,
      "ĠØ§ÙĦØªØ§Ø±ÙĬØ®ÙĬ": 6843,
      "iv": 6844,
      "ĠØ§ÙĦØ£Ø³Ø¨ÙĪØ¹": 6845,
      "ĠÙĪØ£Øµ": 6846,
      "ĠØ§ÙĦÙħÙĪØ³ÙĬÙĤÙĬ": 6847,
      "ĠØ§ÙĦØµÙĨØ§Ø¹Ø§Øª": 6848,
      "ĠÙĪÙĬÙĥ": 6849,
      "ĠØ¹Ø¸Ùħ": 6850,
      "ĠØ¹ÙĪØ¯Ø©": 6851,
      "ĠØ¬ÙĦØ¨": 6852,
      "ĠÙħØ±ØªØ¨Ø·Ø©": 6853,
      "ĠÙħÙĨØªØ¬": 6854,
      "ĠÙĦØ¹Ø¨Øª": 6855,
      "Ø¹Ø¨Ø¯": 6856,
      "ĠØ¨ØªØ´": 6857,
      "ĠØ§ÙĦÙĤØ·Ø¨": 6858,
      "ĠØŃÙĤÙĬÙĤØ©": 6859,
      "ĠØ§ÙĦØ¥ØµØ¯Ø§Ø±": 6860,
      "ĠÙħÙĪØ¸": 6861,
      "ĠØ§ÙĦØ¨Ø±ØªØºØ§ÙĦ": 6862,
      "Ø¸ÙĬÙħØ©": 6863,
      "ĠÙĪØªÙĪØ¬Ø¯": 6864,
      "ĠØ¨Ø¹Ø«": 6865,
      "ÙĦØ§ÙĨ": 6866,
      "Ø¯Ø±Ø§ÙĦÙĬØ©": 6867,
      "Ø§ØŃÙĬÙĨ": 6868,
      "ĠØ§ÙĦØ³Ø±ÙĬØ¹": 6869,
      "ĠØ§ÙĦØºØ§Ø²Ø§Øª": 6870,
      "ĠØ§ÙĦØ¢ÙĦÙĩØ©": 6871,
      "ĠØ§ÙĦÙģØ±ÙĨØ³ÙĬÙĬÙĨ": 6872,
      "ĠØ§ÙĦØŃØ¬Ø±ÙĬ": 6873,
      "ĠØ§ÙĦØ£Ø¹Ø¸Ùħ": 6874,
      "ĠÙĤØµØµ": 6875,
      "ĠÙĬØ·": 6876,
      "ĠØ§ÙĦØ£ÙĦÙģ": 6877,
      "ØºÙĪØ·": 6878,
      "ĠÙĪØªØ¬": 6879,
      "ĠÙĪÙħØ¹Ø¸Ùħ": 6880,
      "ĠÙħØ³ØªØ´ÙģÙī": 6881,
      "ĠÙĬØ«": 6882,
      "ĠØ¬ÙĩÙĪØ¯": 6883,
      "ĠØ§ÙĦÙĨØªØ±": 6884,
      "ĠØ§ÙĦØªØ¹Ø§ÙħÙĦ": 6885,
      "ĠÙĪØ§Ø¶ØŃØ©": 6886,
      "ĠÙĬÙĪÙĨØ§ÙĬØªØ¯": 6887,
      "ÙĤÙĦØ¨": 6888,
      ".:": 6889,
      "ĠÙħÙĬÙĪÙĨ": 6890,
      "ĠÙĪØ§ÙĦÙĤØ±": 6891,
      "ĠØ§ÙĦØ¹Ø¨Ø±ÙĬØ©": 6892,
      "ĠÙĦÙĦØ§ØªØŃØ§Ø¯": 6893,
      "ĠØ§ÙĦØ¬Ø§ÙħØ¹": 6894,
      "ĠØ§ÙĦÙħØºØ±Ø¨ÙĬ": 6895,
      "ĠÙĨÙĬÙĦ": 6896,
      "ĠÙĬØ¹Ø§ÙĨÙĪÙĨ": 6897,
      "ĠØ·Ø¨ÙĤØ§Øª": 6898,
      "ĠÙĪØ¯Ùģ": 6899,
      "ĠØ§ÙĦØ¹Ø¨ÙĬØ¯": 6900,
      "ĠØ§ÙĦÙģÙĥØ±Ø©": 6901,
      "ĠØ§ÙĦÙĬÙĩÙĪØ¯ÙĬ": 6902,
      "ĠØ§ÙĦØªØ±ÙĥÙĬ": 6903,
      "ĠØ§ÙĦØ£ØºØ§ÙĨÙĬ": 6904,
      "ĠØ¨ÙĪØª": 6905,
      "ĠÙħÙĪØ³ÙĬÙĤÙī": 6906,
      "ØªØ¯Ø©": 6907,
      "ĠØ§ÙĦØŃØ§Ø¶Ø±": 6908,
      "ĠØ£ØºØ§ÙĨÙĬ": 6909,
      "ĠØ£Ø¹ÙĪØ§Ùħ": 6910,
      "Ø§Ø¯ÙĨ": 6911,
      "ÙĪØ·Ø©": 6912,
      "ĠØ¬Ø¯ÙĬØ¯Ø§": 6913,
      "ĠÙĦÙĨÙģØ³": 6914,
      "ĠØªÙĤØ±ÙĬØ±": 6915,
      "ĠØ§ÙĦÙĩÙĬÙĥÙĦ": 6916,
      "ĠÙĪØ§ÙĦÙħØ¹Ø±ÙĪÙģ": 6917,
      "ĠØªØ¨Ø¹Ø¯": 6918,
      "ĠØ§ÙĨØ¹": 6919,
      "ĠØ§Ø³ØªØ¹ÙħÙĦ": 6920,
      "88": 6921,
      "ĠØ§ÙĦØ§Ø¨ÙĨ": 6922,
      "ĠØ§ÙĦÙĨÙĬ": 6923,
      "ĠØ§Ø®ØªØ±Ø§Ø¹": 6924,
      "ØºÙĦØ§ÙĤ": 6925,
      "ĠØ³ÙĪØ±Ø©": 6926,
      "ĠØ¬ÙĬØ¯Ø©": 6927,
      "ĠØ¹ÙĬØ³Ùī": 6928,
      "ĠÙĦÙĦØ£Ø³": 6929,
      "ĠØ§ÙĦÙħØµÙĨ": 6930,
      "ĠØŃØ§Ùħ": 6931,
      "Ø§Ø³ÙĬØ§": 6932,
      "ĠØ§ÙĦÙģØ§Ø·": 6933,
      "ĠÙģÙĬØª": 6934,
      "ĠØ¥Ø±Ø³Ø§ÙĦ": 6935,
      "ĠØ¬ÙĨØ¨": 6936,
      "ĠØ§ÙĦØ£Ø¯ÙĨÙī": 6937,
      "ÙĤÙĬÙĬÙħ": 6938,
      "ĠÙĬØ¤ÙħÙĨ": 6939,
      "ĠØ¯ÙħØ¬": 6940,
      "Ø§Ø±Ø«": 6941,
      "Ø¯ÙĪ": 6942,
      "ĠÙĤØ±ÙĬØ´": 6943,
      "ĠØ§ÙĦØŃØ±ÙĥØ§Øª": 6944,
      "ÙĬØ¶": 6945,
      "Ø§ÙĥØª": 6946,
      "ĠØªØ±ÙĥÙĬØ²": 6947,
      "ĠÙĥÙĪØ¨": 6948,
      "ĠÙĥØ¬Ø²Ø¡": 6949,
      "ĠÙħØŃÙĦÙĬØ©": 6950,
      "ĠØ§ÙĦØ¬ÙĬÙĪØ´": 6951,
      "ĠØ¨Ø§ÙĥØ³ØªØ§ÙĨ": 6952,
      "ĠØ§ØŃØªÙĬ": 6953,
      "ĠØ§ÙĦØ¶Ø±Ø§Ø¦Ø¨": 6954,
      "ĠØªÙħÙĪØ²": 6955,
      "Ġ1000": 6956,
      "ĠØ§ÙĦÙĨØªØ§Ø¦Ø¬": 6957,
      "ĠØ§ÙĦÙģØµÙĦ": 6958,
      "ĠØ£Ø·ÙĦÙĤØª": 6959,
      "ĠÙĪØ£ÙĪ": 6960,
      "ĠÙĪØ·ÙĨÙĬØ©": 6961,
      "ĠØ§ÙĦØªØ·Ø¨ÙĬÙĤ": 6962,
      "ĠØ§ÙĦØ¹ØµØ¨ÙĬØ©": 6963,
      "ĠØ¨ÙĪØµÙģ": 6964,
      "ĠÙĬØ¯ÙĦ": 6965,
      "ĠØ§ÙĦØµØºØ±Ùī": 6966,
      "ĠØ¨Ø«ÙĦØ§Ø«": 6967,
      "ĠØ£ÙģØºØ§ÙĨØ³ØªØ§ÙĨ": 6968,
      "ĠØ¬ÙĬØ¯": 6969,
      "ĠØ§Ø®ØªÙĦÙģ": 6970,
      "ĠÙĪÙħØ´": 6971,
      "ĠØ§Ø¹ØªØ¨Ø§Ø±Ø§": 6972,
      "ĠØªØŃÙĪÙĬ": 6973,
      "ĠÙħØ´ØªØ±ÙĥØ©": 6974,
      "ÙĦÙĥÙĬØ©": 6975,
      "ĠØ°ÙĥØ±Øª": 6976,
      "ĠØ¥Ø²Ø§ÙĦØ©": 6977,
      "Ø²ÙĤ": 6978,
      "Ø³Ø¨Ø§ÙĨÙĬØ©": 6979,
      "ÙĨØ§ÙĬØ©": 6980,
      "ĠØ³ÙĪØ±ÙĬØ©": 6981,
      "ĠØ§ÙĦÙħÙĨØªØ¬Ø§Øª": 6982,
      "ĠÙĪÙĦØ§ÙĬØ§Øª": 6983,
      "ĠØ§ÙĦØ£ÙĩØ¯Ø§Ùģ": 6984,
      "ĠØ§ÙĦØ£Ø´ÙĬØ§Ø¡": 6985,
      "ĠØ¨ØªØ³": 6986,
      "ĠÙĪØªÙħØª": 6987,
      "ØªÙĬØ¨Ø©": 6988,
      "ĠØ¬ÙĬØ¯Ø§": 6989,
      "ĠÙĪÙģÙĬÙĩØ§": 6990,
      "Ġ1939": 6991,
      "ĠØ§ÙĦÙĪØ¬ÙĪØ¯": 6992,
      "ĠØ£ÙħØ«Ø§ÙĦ": 6993,
      "ĠØ§ØŃØª": 6994,
      "Ø±ÙĬØ·Ø©": 6995,
      "ĠÙĦÙĦÙĤÙĪØ§Øª": 6996,
      "ĠØ±ÙħØ²": 6997,
      "ĠØ¨Ø¯Ø¡Ø§": 6998,
      "ĠØ§ÙĦØ³Ø§Ø¨Ø¹Ø©": 6999,
      "ĠØ¯Ø¨ÙĬ": 7000,
      "ĠÙħÙĪÙĤÙģ": 7001,
      "ĠØ§ÙĦÙħØ®Ø±Ø¬": 7002,
      "ĠØ¥ÙħØ¨Ø±Ø§Ø·": 7003,
      "ĠÙħÙĥØªØ¨Ø©": 7004,
      "ĠÙĪÙĬÙĤØ¹": 7005,
      "ĠØ¹Ø¨ÙĬØ¯": 7006,
      "ĠÙĦÙĪØŃØ©": 7007,
      "Ø¬Ø§ØŃ": 7008,
      "ĠØ§ÙĦÙħØ·Ø±": 7009,
      "ĠÙĪØ§ÙĦØ°ÙĬÙĨ": 7010,
      "ĠÙĨÙħØ·": 7011,
      "86": 7012,
      "ĠØ§ÙĦØ£Ø³Ø¨Ø§Ø¨": 7013,
      "ĠØ¨ÙħØ³Ø§Ø¹Ø¯Ø©": 7014,
      "Ø¨Ø§Ø¹": 7015,
      "ĠØ¨Ø±Ø¦Ø§Ø³Ø©": 7016,
      "ĠØ£ÙĦÙĥ": 7017,
      "ĠØ§ÙĦÙħØ´Ø§ÙĥÙĦ": 7018,
      "ĠØ§ÙĦÙħÙĩØ¯ÙĬ": 7019,
      "ĠØ·Ø¨ÙĬØ¹ÙĬ": 7020,
      "ĠÙĨÙĪØ§Ø©": 7021,
      "ÙĨØªÙĪØ³": 7022,
      "ĠØ±ÙĬØ§Ø¶": 7023,
      "ÙĥÙħØ§ÙĦ": 7024,
      "ĠÙĪØ£ÙĩÙħ": 7025,
      "ĠÙĪØ£Ø®ÙĬØ±Ø§": 7026,
      "Ø§ÙĤØµ": 7027,
      "ĠØ«Ø±": 7028,
      "ĠØ§ÙĦØ±ÙĬØ§ØŃ": 7029,
      "ĠØªÙħÙĦÙĥ": 7030,
      "ĠØ¨ÙĬØ§ÙĨ": 7031,
      "ĠØ¥ÙĦÙĬØ²Ø§Ø¨ÙĬØ«": 7032,
      "ĠØ§ÙĦÙħØ¨Ø§Ø´Ø±": 7033,
      "ĠÙĪÙĬØ³ÙħÙī": 7034,
      "ĠØ§ÙĦØ³ÙĬÙĨÙħ": 7035,
      "ĠÙĪØŃØ±": 7036,
      "ĠØ¹Ø§Ø¦": 7037,
      "Ø§Ø±ÙĬØ±": 7038,
      "ĠÙĬØ¬Ø¯": 7039,
      "ĠØ¥ØŃØµØ§Ø¡": 7040,
      "ĠÙĪØªØ¶Ùħ": 7041,
      "ĠØ§ÙĦØªØµÙħÙĬÙħ": 7042,
      "ÙĦÙĬØ§ÙĨ": 7043,
      "ĠØ§ÙĦØ£Ø±Ø¯ÙĨÙĬ": 7044,
      "ĠØ§ÙĦØ£ÙģÙĥØ§Ø±": 7045,
      "ĠÙĪØ³Ø¨": 7046,
      "ĠØ£Ø¬Ø±ÙĬØª": 7047,
      "ĠÙĪØ§ÙĦØ³ØªÙĬÙĨ": 7048,
      "ĠØ§ÙĦØ¬ÙħÙĩÙĪØ±": 7049,
      "ÙĤØ§ÙĨ": 7050,
      "Ø§ÙĩÙĬØ©": 7051,
      "Ø´ÙģÙĬØ§Øª": 7052,
      "ĠÙĬØ¹Ø·ÙĬ": 7053,
      "ĠØ£Ø³Ø§Ø³ÙĬØ©": 7054,
      "ĠØ§ÙĦÙħÙĤØ§Ùħ": 7055,
      "Ġn": 7056,
      "ĠØ§ÙĦØŃØ±Ø¨ÙĬØ©": 7057,
      "Ø²Ø§Øª": 7058,
      "ĠØ£Ø¸ÙĩØ±Øª": 7059,
      "ĠØ§ÙĦÙħÙĨØªØ¬": 7060,
      "ĠØ²ÙĪØ§Ø¬": 7061,
      "ĠÙĬØ±ØªØ¨Ø·": 7062,
      "ĠØ§ÙĦØ´Ø¯ÙĬØ¯": 7063,
      "Ġ1918": 7064,
      "ØªØ±Ø¨": 7065,
      "ĠâĢľ": 7066,
      "ĠÙģØ§Ø¹": 7067,
      "Ø§Ø±ÙĬÙĪ": 7068,
      "ĠÙĦÙĦØ¨Ø±": 7069,
      "ĠØ¥ÙĨÙĩØ§": 7070,
      "ÙĦØ¹Ø§Ø¨": 7071,
      "ĠØ£Ø±Ø¯": 7072,
      "Ø¯ÙĬØ³": 7073,
      "ĠØ£Ø²ÙħØ©": 7074,
      "ØªØµØ§Ø±Ø§": 7075,
      "Ø§Ø¨ÙĩØ§": 7076,
      "ĠØŃØ¶Ø§Ø±Ø©": 7077,
      "ĠÙĨØ§Øª": 7078,
      "ĠÙĪØªØ¨ÙĦØº": 7079,
      "ĠÙģØ±ØµØ©": 7080,
      "ĠØªØ´Ø±Ø´ÙĦ": 7081,
      "od": 7082,
      "ØºÙĨ": 7083,
      "ĠØ±ØªØ¨Ø©": 7084,
      "ĠØ§ÙĦØ¶Ø¨Ø§Ø·": 7085,
      "ĠØ£ÙĩÙĦÙĩØ§": 7086,
      "ĠÙĪÙĪØ²": 7087,
      "ĠØ§ÙĦØŃØ±Ø§Ø±ÙĬØ©": 7088,
      "ĠØ§ÙĦØŃØ¶Ø±ÙĬØ©": 7089,
      "ĠØ§ÙĦØ¥ÙĦÙĥØªØ±ÙĪÙĨ": 7090,
      "ĠÙĬØ³Ùħ": 7091,
      "Ø§Ø²ÙħØ§": 7092,
      "ĠØ§ÙĦØ¥ÙĨØ¬ÙĦÙĬØ²": 7093,
      "ĠØ§ÙĦÙĬÙĪÙħÙĬØ©": 7094,
      "ĠØ§ÙĦØ£ÙģØ§Ø±ÙĤØ©": 7095,
      "ĠÙĥØ¨Ø±Ùī": 7096,
      "ĠØ¬Ø²Ø¦ÙĬØ§": 7097,
      "ĠÙĪØ§ÙĦØ¯ÙĬÙĨ": 7098,
      "ĠØ§ÙĦØ¨Ø±ÙĬ": 7099,
      "ĠØ§ÙĦØ·Ø¨ÙĤØ§Øª": 7100,
      "ØªÙĦØ·": 7101,
      "ĠØ§Ø¨Øª": 7102,
      "ØªÙĤØ©": 7103,
      "ĠØ¹Ø±Ø¨ÙĬ": 7104,
      "ÙĬÙĦÙĪÙĦ": 7105,
      "ĠØ§ÙĦÙħÙĪØµÙĦ": 7106,
      "ĠÙĬØªÙĨ": 7107,
      "ĠØ£ØµÙĬØ¨": 7108,
      "ĠØ¨Ø§Ø¹ØªØ¨Ø§Ø±Ùĩ": 7109,
      "ÙħÙĨØª": 7110,
      "Ø¶Ø¨": 7111,
      "ĠÙĤØ§Ø±Ø©": 7112,
      "ĠØ§ÙĦÙħØ³ØªÙĤÙĦØ©": 7113,
      "ĠØ¥ÙħØ¨Ø±Ø§Ø·ÙĪØ±ÙĬØ©": 7114,
      "ĠÙĪÙĬØ¹Ø±Ùģ": 7115,
      "ĠØ¨ÙĨÙī": 7116,
      "ĠJ": 7117,
      "ĠØ¥Ø³ØŃØ§ÙĤ": 7118,
      "ĠØ§ÙĦØ³Ø±ÙĬØ§ÙĨÙĬØ©": 7119,
      "ĠÙĪØ¯ÙĬ": 7120,
      "ĠØŃØ¸": 7121,
      "ĠØ§ÙĦØ³Ø¯": 7122,
      "ĠØ¹Ø§Ø¯Øª": 7123,
      "ĠØ§ÙĦØ¯Ø§Ø¦Ø±Ø©": 7124,
      "ĠÙħØ³ØªÙĤÙĦ": 7125,
      "ĠØ¹Ø§ÙĦ": 7126,
      "ÙĪØ±Ø§ÙĨÙĬÙĪÙħ": 7127,
      "ÙĤÙĬØ¨": 7128,
      "Ø¯Ø±Ø§Ø¦ÙĬØ©": 7129,
      "ĠÙĪÙħÙĤ": 7130,
      "ĠØ§ÙĦØ£Ø³Ø§Ø·ÙĬØ±": 7131,
      "Ø¬ÙĬØ¹": 7132,
      "ĠØ§ÙĦØŃÙĤÙĬÙĤÙĬØ©": 7133,
      "Ø²ÙĬØ¬": 7134,
      "ĠØ¨Ø¨ÙĨØ§Ø¡": 7135,
      "ĠÙħØ°ÙĩØ¨": 7136,
      "ĠØ¨ÙĪÙĦØ§ÙĬØ©": 7137,
      "ÙħØ±Øª": 7138,
      "Ø§Ø³Ø¨Ø§Øª": 7139,
      "ØŃÙĬØ§ÙĨØ§": 7140,
      "ĠÙĪØªÙĦ": 7141,
      "ĠØ§ÙĦØ¬ÙħØ¹": 7142,
      "ĠÙĨØ®": 7143,
      "Ġ1953": 7144,
      "ĠÙĪØªÙģ": 7145,
      "ĠÙħØ³ØªÙĤØ¨ÙĦ": 7146,
      "ĠÙĪØ¨ØŃÙĦÙĪÙĦ": 7147,
      "ĠØ§ÙĦÙħÙĨØ¸ÙħØ§Øª": 7148,
      "ĠÙĪÙĨØµÙģ": 7149,
      "ĠØ§ÙĦÙħØ¶Ø§Ø¯Ø©": 7150,
      "ĠÙĪØ§ÙĦØ¹ÙĦÙĪÙħ": 7151,
      "Ø§Ø¶ÙĪÙĦ": 7152,
      "ĠØ§ÙĦÙħØ¤Ø³Ø³Ø©": 7153,
      "ĠÙĦØ§Ø¨ÙĨ": 7154,
      "ĠØ§ÙĦØªØµÙĪÙĬØª": 7155,
      "ÙĨØ§ÙĩØ§": 7156,
      "ĠØªØ§ÙĬÙĦ": 7157,
      "ØªØ´Ùģ": 7158,
      "ĠØ§ÙĦØ¨Ø±ÙĪÙĨ": 7159,
      "ĠØ§ÙĦÙģØ±Ø¹": 7160,
      "ĠØ§ÙĦØ§Ø´ØªØ±Ø§ÙĥÙĬ": 7161,
      "Ø§ÙĦØŃØ©": 7162,
      "ĠØ³Ø§ØŃ": 7163,
      "ĠÙĪØ§ÙģÙĤ": 7164,
      "Ø²ÙħØ©": 7165,
      "ĠØ§ÙĦÙħÙĨØ¯": 7166,
      "ĠØ§ÙĦÙħØ³Ø§Ø¬Ø¯": 7167,
      "Ø³ÙħØ©": 7168,
      "ĠØ§ÙĦØŃÙħØ§ÙĬØ©": 7169,
      "ĠØ§ÙĦÙĤØ¶Ø§ÙĬØ§": 7170,
      "ĠÙĥÙĦØºØ©": 7171,
      "Ø³Ø¹": 7172,
      "ĠØ§ÙĦÙĩØ§Ø´": 7173,
      "ĠØ§ÙĦØ£Ø³ÙĦÙĪØ¨": 7174,
      "ĠÙĪØ§ÙĦØªØ¹ÙĦÙĬÙħ": 7175,
      "ĠÙĦÙħØ¯ÙĬÙĨØ©": 7176,
      "Ø§ÙĨÙĥ": 7177,
      "ĠØ¬ÙĪÙĦ": 7178,
      "Ø§ÙģØŃØ©": 7179,
      "ØªÙģØ§Ø¶Ø©": 7180,
      "ĠØ§ÙĦØ¹ÙĨÙģ": 7181,
      "ĠØ¨Ø§ÙĬ": 7182,
      "ØºØ§Ùħ": 7183,
      "ĠÙħØªØ£": 7184,
      "ĠÙħÙĪØ¬ÙĪØ¯": 7185,
      "ÙĤØ§Ø¦ÙĤ": 7186,
      "ĠØ§ÙĦØ³Ø§Ùħ": 7187,
      "ĠØ§ÙĦÙĤØµØµ": 7188,
      "ĠÙĬØ£Ø®Ø°": 7189,
      "Ø·ÙĪØ¨Ø©": 7190,
      "ÙģÙĬØ§ÙĨ": 7191,
      "ĠÙħÙĪØ§Ø³Ùħ": 7192,
      "ĠÙĪØ§ÙĦÙĪ": 7193,
      "ĠÙħØ±ØªØ¨Ø©": 7194,
      "ÙĬØºØ§ÙĨ": 7195,
      "ĠØ§ÙĦØªØºÙĬÙĬØ±Ø§Øª": 7196,
      "ĠØ£Ø«Ø¨Øª": 7197,
      "ĠØ³Ø§ÙĦ": 7198,
      "ĠØ¨Ø³ÙĦ": 7199,
      "ĠØ¨Ø£ÙĬ": 7200,
      "ĠÙħØ¯ÙĬÙĨ": 7201,
      "ĠØ¨ØªØµ": 7202,
      "ĠÙĬØŃÙĥÙħ": 7203,
      "ĠØªØ°ÙĥØ±": 7204,
      "Ø§Ø¯ÙĩØ§": 7205,
      "ĠØ£ÙĨØª": 7206,
      "ĠØªØªÙĨ": 7207,
      "ĠØ£Ø®ÙĬØ±Ø§": 7208,
      "ĠØ§ÙĦØ³Ø§ØŃÙĦÙĬØ©": 7209,
      "ĠØ³Ø§ÙģØ±": 7210,
      "ĠØ´ÙĨ": 7211,
      "ĠØ£ÙĨØ´Ø¦Øª": 7212,
      "ĠØ§ÙĦØ±Ø§Ø¯": 7213,
      "Ù¡": 7214,
      "ĠÙĪØ§ÙĦÙħØª": 7215,
      "ĠÙĪØ§ÙĦØ£Ùħ": 7216,
      "ØµÙĪØ±Ø©": 7217,
      "ĠØ§ÙĦØ·ÙĪØ§Ø¦Ùģ": 7218,
      "ÙĪØ±ÙĬÙĪØ³": 7219,
      "ĠÙĦÙĦÙħØ³Øª": 7220,
      "ĠØ¯ÙģØ§Ø¹": 7221,
      "ĠØ¹Ø§ÙħØ±": 7222,
      "ÙĬØªÙĩÙħ": 7223,
      "ĠØ§ÙĦØ¬ÙħÙĬØ¹": 7224,
      "ĠØ´Ø®ØµØ§": 7225,
      "ĠÙĬÙĨØªÙħÙĬ": 7226,
      "ĠÙĪØªØ¹ÙĨÙĬ": 7227,
      "ØªÙĬØ§Ø²": 7228,
      "ØŃØ§ÙĬØ§": 7229,
      "ĠØ§ÙĦØ¬Ø¨ÙĦÙĬØ©": 7230,
      "ĠÙĪØ§Ø³": 7231,
      "ĠØ§ÙĦØ£Ø¨Ø¬Ø¯ÙĬØ©": 7232,
      "ĠØŃØ¯ÙĬØ«Ø©": 7233,
      "ĠØ§ÙĦØ§Ø¹ØªØ±Ø§Ùģ": 7234,
      "ØŃÙĬØŃØ©": 7235,
      "ĠØ§ÙĦÙĥØ§Ø«ÙĪÙĦÙĬÙĥ": 7236,
      "ĠØ§ÙĦØ¨Ùĩ": 7237,
      "ĠØ§ÙĦÙħØ¯ÙĨÙĬ": 7238,
      "ĠØ²ÙĬØ§Ø±Ø©": 7239,
      "ĠÙĩÙĦ": 7240,
      "ĠØ£ÙĥØ¯": 7241,
      "ĠØ§ÙĦÙĨØ§ØªØ¬Ø©": 7242,
      "Â°": 7243,
      "Ø²Ø§ÙĦ": 7244,
      "ĠÙĬØªØ·ÙĦØ¨": 7245,
      "ĠØªØ¬Ø§ÙĪØ²": 7246,
      "ĠÙħØ¹Ø¯ÙĦØ§Øª": 7247,
      "ĠÙĪØ§ÙĦØ¹ÙĦÙħ": 7248,
      "ĠÙĦÙĦØ¥Ø´Ø§Ø±Ø©": 7249,
      "ĠØ§ÙĦØªÙĪÙĨØ³ÙĬØ©": 7250,
      "ĠÙĤØ¨Ø±Øµ": 7251,
      "ØªØ§Øª": 7252,
      "ĠØ§ÙĦÙħØ§ÙĦÙĬ": 7253,
      "ĠÙĥÙĦÙĩ": 7254,
      "Ø±Ø¯ÙĨ": 7255,
      "ĠÙħØ´Ø§Ø±ÙĥØ©": 7256,
      "Ġ120": 7257,
      "ĠÙĪÙĪØµÙģ": 7258,
      "ĠØ¥ÙĨÙħØ§": 7259,
      "ĠÙħÙĥÙĪÙĨØ©": 7260,
      "Ġ,": 7261,
      "ĠØ¨Ø¹Ø¯Ø©": 7262,
      "Ø§Ø±ÙĬÙĨ": 7263,
      "Ø¬Ø±Ø¯": 7264,
      "ĠØ³Ø¬ÙĦØª": 7265,
      "ĠØ§ÙĦØ£ÙħÙĪÙĬØ©": 7266,
      "ĠØ¨Ø¬Ø§ÙħØ¹Ø©": 7267,
      "ĠØ§ÙĦØ¹Ø¶ÙĦØ§Øª": 7268,
      "ÙĪÙĤØª": 7269,
      "Ø¯Ø¹": 7270,
      "ĠØ§ÙĦÙģÙĬÙĨÙĬ": 7271,
      "ĠØµÙĬÙģ": 7272,
      "ĠØ§ÙĦÙħÙĪØ§Ø±Ø¯": 7273,
      "ĠØ³ÙĬÙħ": 7274,
      "ĠØ·ÙĪÙĦÙĩ": 7275,
      "ĠØºØ±ÙģØ©": 7276,
      "ØªØ´Ø±Ø©": 7277,
      "ĠØ§ÙĦØ¹Ø¯ÙĪÙī": 7278,
      "ĠØ¨Ø§ÙĦØªØŃ": 7279,
      "ĠØªÙĦÙĤ": 7280,
      "ĠØ§ÙĦØµÙĬÙģÙĬØ©": 7281,
      "ĠØ§ÙĦÙĨØ§Ø´": 7282,
      "ĠÙĦÙĪØŃ": 7283,
      "ÙĪØ±Ø³": 7284,
      "ĠØµØ¯Ø±Øª": 7285,
      "ĠØ§ÙĦÙħØ³ØªÙĪØ·": 7286,
      "ĠØ§ÙĦØ£Ø´ÙĥØ§ÙĦ": 7287,
      "Ø·ÙĨ": 7288,
      "ĠØ§ÙĦÙĪÙĤÙĪØ¯": 7289,
      "ĠØªÙĪÙħØ§Ø³": 7290,
      "71": 7291,
      "ÙĬÙĦØ§Øª": 7292,
      "ÙĬÙĥÙĪØ³": 7293,
      "ĠØ§ÙĦØ·ÙĪÙĬÙĦØ©": 7294,
      "ĠØ§ÙĦØ£ÙģØ±ÙĬÙĤÙĬ": 7295,
      "ĠØ¨Ø¯ÙĪØ±Ùĩ": 7296,
      "ĠØªØ±Ø¨Ø·": 7297,
      "Ø¶ÙĬØ±": 7298,
      "Ø§Ø³ÙģØ©": 7299,
      "ĠØ§ÙĦØ¬ÙħØ¹Ø©": 7300,
      "ĠÙĬØ³Ø§Ø¹Ø¯": 7301,
      "ĠØ³Ø¬ÙĨ": 7302,
      "ĠØ£ÙĨØµØ§Ø±": 7303,
      "ĠØ§Ø³ØªÙĤØ§ÙĦ": 7304,
      "ĠØ§ÙĦÙħØ¤ÙħÙĨÙĬÙĨ": 7305,
      "Ø§Ø¶Ø·ÙĩØ§Ø¯": 7306,
      "Ø§ØªÙĬÙĥØ§ÙĨ": 7307,
      "Ø¶ÙĪØ±": 7308,
      "ĠØ§ÙĦØªÙĨÙħÙĬØ©": 7309,
      "ĠØ§ÙĦØ¹Ø§Øµ": 7310,
      "ĠØ§ÙĦØ¥ÙĤÙĦÙĬÙħÙĬØ©": 7311,
      "ĠØ§ÙĦÙħÙħØ§ÙĦÙĬÙĥ": 7312,
      "ĠÙĪØ§ÙĦÙģØ±": 7313,
      "ĠØ§ÙĦØ§Ø³ØªØ¹Ùħ": 7314,
      "ĠØ§ÙĦØ¹Ø¯ÙĪ": 7315,
      "ĠÙĬØ¹ÙĤÙĪØ¨": 7316,
      "ĠØ§ÙĦÙħÙĪØ§Ø·ÙĨÙĬÙĨ": 7317,
      "ĠÙĬØªØ±Ø§ÙĪØŃ": 7318,
      "Ø§ÙĦØ³ÙĬÙĪÙħ": 7319,
      "ĠÙĩØ¬Ø±": 7320,
      "Ġ1936": 7321,
      "58": 7322,
      "ĠØ¬Ø±Øª": 7323,
      "ĠØ³ÙĬØªÙĬ": 7324,
      "Ø¸Ø§Ø±": 7325,
      "ĠØ§ÙĨÙĩÙĬØ§Ø±": 7326,
      "ÙģØ±Ø¯Ø©": 7327,
      "500": 7328,
      "ĠÙĩÙĬØ¯Ø±": 7329,
      "ÙĦÙĬÙģØ©": 7330,
      "ĠØ§ÙĦÙħØ¹ÙĬØ´": 7331,
      "ĠØ§ÙĦØªØ¹Ø±ÙĬÙģ": 7332,
      "ĠØ§ÙĦÙħØ¸": 7333,
      "ĠØªØ¬Ø¹ÙĦ": 7334,
      "ÙĩÙĦÙĥ": 7335,
      "ĠØ£ÙĤØ³Ø§Ùħ": 7336,
      "ĠÙĪØ¸Ø§Ø¦Ùģ": 7337,
      "ĠØ¯Ø³Øª": 7338,
      "ĠØ§ØªØµØ§ÙĦ": 7339,
      "ĠØ¨ÙħØ±": 7340,
      "ĠØ§ÙĦÙģÙĬØ¯ÙĬ": 7341,
      "ĠÙħØ¹Ø³ÙĥØ±": 7342,
      "ĠÙĪØ£ÙĥØ¨Ø±": 7343,
      "Ġ1940": 7344,
      "ÙħØµ": 7345,
      "ĠÙħØ³ØªØ¹ÙħØ±Ø©": 7346,
      "ĠÙĪÙĤØ§ÙħØª": 7347,
      "ĠÙĥØªØ¨Øª": 7348,
      "ĠÙģÙĤØ±": 7349,
      "ĠÙĥÙĩ": 7350,
      "ÙĥØ§ÙĨÙĬÙĥØ§": 7351,
      "ÙĪØ¬Ø§Øª": 7352,
      "ĠØ¢ÙĦØ©": 7353,
      "ĠØ§ÙĦÙħØ´ØªØ±Ùĥ": 7354,
      "Ø§ÙĬÙĬØ±": 7355,
      "ĠÙģÙĩØ±": 7356,
      "ĠØ§ÙĦØ§Ùģ": 7357,
      "ÙĦÙģÙĩ": 7358,
      "ĠÙħØ§ÙĬÙĥÙĦ": 7359,
      "Ø±Ø¨ÙĬØ¬Ø§ÙĨ": 7360,
      "ĠØ³Ø±Ø§": 7361,
      "ĠØ£Ø±ÙħÙĬÙĨÙĬØ§": 7362,
      "ĠÙĤØ§Ø¯Ø±": 7363,
      "ĠÙĪØ¬ÙĬØ²Ø©": 7364,
      "ĠØ§ÙĦØ²ÙħØ§ÙĨ": 7365,
      "ĠØ§ÙĦØµÙĨØ§Ø¹ÙĬ": 7366,
      "ĠÙĪÙĪÙģÙĤØ§": 7367,
      "ĠÙĪØ§Ùģ": 7368,
      "Ø¨ÙĬØ¹Ø§Øª": 7369,
      "Ø±ÙĬØ·Ø§ÙĨÙĬØ§": 7370,
      "ĠØ±Ø¦": 7371,
      "ĠØ¨ÙĤÙĬØª": 7372,
      "ĠÙĪÙĥØ±": 7373,
      "ĠØ¬Ø°ÙĪØ±": 7374,
      "ĠÙĦÙĦÙĪÙĦØ§ÙĬØ§Øª": 7375,
      "ĠÙĪØ§ÙĦÙĦÙĩ": 7376,
      "ĠØ§ÙĦÙĪÙĩØ§Ø¨": 7377,
      "ĠØªØŃÙĪÙĦØª": 7378,
      "Ø®ÙĦØ§Ùģ": 7379,
      "ÙĦØ§Ø¹": 7380,
      "Ø§Ø±ØªÙĩØ§": 7381,
      "âĢ¢": 7382,
      "ĠØªØµÙĨÙĬØ¹": 7383,
      "ĠØ§ÙĦØ§ÙĩØªÙħØ§Ùħ": 7384,
      "ĠØ§ÙĦØ§ÙĨØªÙĤØ§ÙĦ": 7385,
      "ĠØ§ÙĦØ«ÙĦØ§Ø«ÙĬ": 7386,
      "ĠØ§ÙĦØ§Ø¨ØªØ¯Ø§Ø¦ÙĬØ©": 7387,
      "ĠØ£Ø±Ø¬": 7388,
      "ĠØªØ¬Ø±Ø¨Ø©": 7389,
      "ĠØ§ÙĦØ³ÙĪÙĬØ¯": 7390,
      "ĠÙĪØ§ÙĦÙĥÙĨ": 7391,
      "Ø±ÙĬØ²": 7392,
      "ÙģÙĬØ²": 7393,
      "ĠØ§Ø³ØªØ®Ø¯Ø§ÙħÙĩ": 7394,
      "ĠØ§ÙĦØ³ÙĬØ¯Ø©": 7395,
      "ØªØ¯ÙĦ": 7396,
      "ation": 7397,
      "ĠØ§ÙĦÙĪØ§Ø¯ÙĬ": 7398,
      "ĠØ§ÙĦØ£ÙħÙĪÙĬ": 7399,
      "ĠÙĥÙĬÙģÙĬØ©": 7400,
      "ĠØ§ÙĦØ«Ø§Ø¨Øª": 7401,
      "ĠØ§ÙĦÙħØ¹ÙĩØ¯": 7402,
      "ĠÙĪØ§ÙĦØ«Ø§ÙĨÙĬØ©": 7403,
      "ĠØ¨ÙĬÙĨÙĩ": 7404,
      "ØªØ¨Ø§Ø±Ø§Øª": 7405,
      "ĠØ¨ÙĪØªØ±": 7406,
      "ĠØ§ÙĦÙģÙĦØ³Ø·ÙĬÙĨÙĬÙĬÙĨ": 7407,
      "ĠÙĤÙĪÙĦÙĩ": 7408,
      "ÙĪØ¹Ø§": 7409,
      "ĠØ§ÙĦØŃÙĨ": 7410,
      "ĠØ±Ø¨Ø¹": 7411,
      "ĠØ®Ø±ÙĪØ¬": 7412,
      "ĠØ§ÙĦÙħÙĪØ¶ÙĪØ¹": 7413,
      "ĠÙĪØ§ÙĦØªØµ": 7414,
      "ĠØ§ÙĦØ¬Ø°": 7415,
      "Ø¸Ø±ÙĬØ©": 7416,
      "Ġ1919": 7417,
      "ĠÙĪØªÙħÙĥÙĨ": 7418,
      "ĠØ§ÙĦØ¨Ø§Ø±Ø¯Ø©": 7419,
      "ĠÙĥÙĤ": 7420,
      "ĠØ§ÙĦØ°Ø±ÙĬØ©": 7421,
      "ĠØ§ÙĦØ²ÙĬ": 7422,
      "Ø³ÙĨØ¯Ø±": 7423,
      "ĠØ¨ØµÙģØ©": 7424,
      "ĠÙĦÙĬÙĦ": 7425,
      "Ø£Ø±": 7426,
      "ĠØ¨Ø§ÙĦØ°ÙĥØ±": 7427,
      "ĠØ§ÙĦØ£Ø³Ø¯": 7428,
      "ĠØ§ÙĦØªÙĤÙĨÙĬØ©": 7429,
      "ĠØ£ØµØ¯Ø±Øª": 7430,
      "ĠØ§ÙĦØ§Øº": 7431,
      "Ø§Ø¨ÙĩØ©": 7432,
      "Ø§Ø¦ÙĥØ©": 7433,
      "Ø¬Ø²ÙĬØ±Ø©": 7434,
      "ÙĬØ³Øª": 7435,
      "ĠÙģØ®": 7436,
      "ĠØ¨ÙĬØ§ÙĨØ§Øª": 7437,
      "ĠØ§ÙĦÙģØ¦Ø©": 7438,
      "ÙħÙĪÙĬÙĦ": 7439,
      "ĠØ´Ø±ÙĤÙĬ": 7440,
      "ĠÙĦØªØŃØ¯ÙĬØ¯": 7441,
      "ĠØ§ÙĦØ£Ø¨ØŃØ§Ø«": 7442,
      "ĠÙĤØ§Ø¨": 7443,
      "ĠØ§ÙĦÙĩÙĦØ§ÙĦ": 7444,
      "ÙĥÙħØ§": 7445,
      "ĠØ§ÙĦØ¬Ø²ÙĬØ¦Ø§Øª": 7446,
      "ĠØ¨ÙĨÙĪ": 7447,
      "ĠÙĪÙĬÙĦØ²": 7448,
      "ĠÙħØ³Ø¹ÙĪØ¯": 7449,
      "ĠÙĪØ£Ø±Ø³ÙĦ": 7450,
      "ĠØŃØ±ÙĬØ©": 7451,
      "ÙĥØªÙĪØ±ÙĬØ§": 7452,
      "ĠÙĦÙĦØ¹Ø¯ÙĬØ¯": 7453,
      "Ġ1922": 7454,
      "Ø«ÙĬÙĪØ¨ÙĬØ§": 7455,
      "ĠØ§ÙĦØ¬ÙħØ§Ø¹Ø§Øª": 7456,
      "ĠØ¯ÙĪÙĦØ§Ø±Ø§": 7457,
      "ĠØªÙĦÙģØ²ÙĬ": 7458,
      "ĠØ§ÙĦØ±Ø³Ùħ": 7459,
      "ĠÙĪØ¨Ø´ÙĥÙĦ": 7460,
      "ĠØ§ÙĦØ£Ø¯ÙĦØ©": 7461,
      "ĠØ§ÙĦØŃØ¯Ø«": 7462,
      "Ø³ÙĬÙĤ": 7463,
      "ĠØ¨ÙĬØªÙĩ": 7464,
      "ÙĪÙĨÙĬÙĪÙħ": 7465,
      "ĠØ¨ØŃÙĥÙħ": 7466,
      "ĠØ§ÙĦÙħØ¬Ø§ÙĦØ§Øª": 7467,
      "Ø·Ø§Ø¬": 7468,
      "ĠÙĬÙĪÙģ": 7469,
      "ĠØ¯Ø§Ùģ": 7470,
      "ĠÙħØŃØ§ÙĪÙĦØ§Øª": 7471,
      "ĠØ§ÙĦØ±Ø¹Ø§ÙĬØ©": 7472,
      "Ø·ÙĪØ±Ø©": 7473,
      "ĠÙĦØ´Ø±ÙĥØ©": 7474,
      "ĠÙĤØ¶Ùī": 7475,
      "ÙĦÙĬÙĩØ§": 7476,
      "ĠØ§ÙĦØ®ÙĪØ§Ø±": 7477,
      "ĠØ§ÙĦØ£ÙĨØ³Ø¬Ø©": 7478,
      "ØµÙĬØ¯": 7479,
      "ĠØªØ¬Ø§Ø±Ø©": 7480,
      "ÙģØªØ§Ø¡": 7481,
      "ĠÙħØ§Ø³": 7482,
      "Ø¹ÙħÙĦÙĬØ§Øª": 7483,
      "ÙħÙĬÙĬØ²": 7484,
      "ĠØ§ÙĦØ¬Ø²Ø§Ø¦Ø±ÙĬØ©": 7485,
      "ĠÙĬØ®Ø±Ø¬": 7486,
      "ĠØ§ÙĦØ£Ø·Ø±Ø§Ùģ": 7487,
      "ĠÙĪØ§ÙĦØŃØ±": 7488,
      "ĠÙĪØªÙĪ": 7489,
      "ĠØ§ÙĦÙĤØ±Ø¶": 7490,
      "ÙĪØªØ´": 7491,
      "ĠÙĪÙħÙĨØ·ÙĤØ©": 7492,
      "ĠØ§ÙĦØ¶Ø¹": 7493,
      "ĠØ³ÙĬØ¯ÙĬ": 7494,
      "ĠÙĪØ«ÙĬÙĤØ©": 7495,
      "ĠØ§ÙĦÙģÙĪÙĦ": 7496,
      "oc": 7497,
      "ÙĨÙĩØ§ÙĬØª": 7498,
      "ÙĪÙĬÙĤ": 7499,
      "ĠÙĥÙĦÙħØ§": 7500,
      "ĠØ§ÙĦÙħØ¹Ø¯ÙĨÙĬØ©": 7501,
      "ĠØ¬Ø±ÙĬØ¯Ø©": 7502,
      "ĠØ¥Ø¶Ø§ÙģÙĬØ©": 7503,
      "ĠØ®Ø²": 7504,
      "ĠÙĬÙĨØ¨ØºÙĬ": 7505,
      "ĠØ§ÙĦÙħÙĤØ§Ø·Ø¹Ø§Øª": 7506,
      "ĠÙħØªØ¨": 7507,
      "ĠØ§ÙĦÙģØ§ØªÙĬÙĥØ§ÙĨ": 7508,
      "ĠØªÙĨØµ": 7509,
      "ĠÙĪÙĤØ¯Ùħ": 7510,
      "ĠØªØ³Ø¹Ø©": 7511,
      "Ø§ÙĨØ¯ÙĬ": 7512,
      "ĠÙħØ¹Ø±Ø¶": 7513,
      "Ø¨ÙĦØ§Ø¡": 7514,
      "ĠØ§ÙĦØµØ¹ÙĬØ¯": 7515,
      "ĠØ¥ÙĦØºØ§Ø¡": 7516,
      "Ġ2021": 7517,
      "ĠØ§ÙĦÙĪØ¬": 7518,
      "ĠÙĨØŃ": 7519,
      "Ø®ØµØ©": 7520,
      "ĠØ§ÙĦØ£ÙĦÙĪØ§ÙĨ": 7521,
      "ĠØ§ÙĦÙĤØ¶ÙĬØ©": 7522,
      "ĠÙģÙĬÙĩÙħ": 7523,
      "ĠÙĬØ¬ÙħØ¹": 7524,
      "ĠØ§ÙĦØ¥Ø¹ÙĦ": 7525,
      "ØŃØ§Ø¯ÙĬØ«": 7526,
      "ÙģÙĦÙĪÙĨ": 7527,
      "ĠØ±Ø£ÙĬ": 7528,
      "ØµÙĦØŃØ©": 7529,
      "ĠÙĩÙĨØ§ÙĦÙĥ": 7530,
      "ÙĪØ±Ø§ÙĨ": 7531,
      "ĠØ¹Ø§ÙħÙĬÙĨ": 7532,
      "ĠØ´Ø±ÙĪØ·": 7533,
      "Ø®ÙĬØ±": 7534,
      "ĠØ¬Ø³Ø±": 7535,
      "ÙĪØ¯ÙĪØ±": 7536,
      "ĠØ¯ÙĬÙģÙĬØ¯": 7537,
      "ĠØªÙĤØ¯Ø±": 7538,
      "ĠÙĩØ§ÙħØ©": 7539,
      "ĠØ¬Ø²ÙĬ": 7540,
      "ĠØ°Ø±Ø©": 7541,
      "ĠØ§ÙĦØ£ÙħØ«ÙĦØ©": 7542,
      "ĠØ§ÙĦÙħØŃÙħ": 7543,
      "ĠØ§ÙĦØ´Ø±Ø¹ÙĬØ©": 7544,
      "ĠÙĬÙĪØ±ÙĪ": 7545,
      "Ø§Ø±Ø³Ø§Øª": 7546,
      "ĠÙĪØ²ÙĪØ¬": 7547,
      "Ġ)ØĮ": 7548,
      "ĠÙĦÙĦØŃØ²Ø¨": 7549,
      "ĠØ¹Ø§Ø¦ÙĦØªÙĩ": 7550,
      "ĠÙĪØ£Ø·ÙĦÙĤ": 7551,
      "ĠÙģØ§Ø²Øª": 7552,
      "ÙĬÙĪØ³": 7553,
      "ĠØ³ÙĦÙĪÙĥ": 7554,
      "Ø£Ø¨ÙĪ": 7555,
      "ĠØ§ÙĦØ¥ÙģØ±ÙĬÙĤÙĬØ©": 7556,
      "ĠØµÙĨÙģ": 7557,
      "ĠØªÙĤÙĨÙĬØ©": 7558,
      "ĠÙĪØ«ÙĤ": 7559,
      "ĠØ§ÙĦØªÙĨÙģØ³": 7560,
      "ĠØ³ÙĨØªÙĬ": 7561,
      "ĠØ³ÙħØ¹": 7562,
      "Ø¯Ø±Ø§Ùĥ": 7563,
      "ĠÙĬØ¤Ø«Ø±": 7564,
      "ĠØªÙĪÙģÙĬØ±": 7565,
      "ÙĦÙĬÙĦØ©": 7566,
      "ĠÙħÙħØ«ÙĦØ©": 7567,
      "ĠØ§ÙĦÙĥÙĪÙĦ": 7568,
      "ÙĪÙĤØ§Ø²": 7569,
      "Ø³ÙĦÙħÙĬÙĨ": 7570,
      "ĠØ§ÙĦØ¯Ø§Ø±": 7571,
      "ĠØŃØ±ÙĪØ¨": 7572,
      "ĠØ®Ø¨Ø±": 7573,
      "ĠØ§ÙĦÙħØ¹Ø§ØµØ±Ø©": 7574,
      "ĠÙģÙĤØ¯Ø§ÙĨ": 7575,
      "ĠÙĪØ²ÙĨ": 7576,
      "ĠÙģØ£Ø±": 7577,
      "ĠØºÙĬØ§Ø¨": 7578,
      "ÙĥØ±ÙħØ©": 7579,
      "Ġ1959": 7580,
      "Ø¨ÙĪÙĦ": 7581,
      "ĠØ§ÙĨØªØµØ§Ø±": 7582,
      "ĠÙħØ³Ø§Ø¹Ø¯Ø©": 7583,
      "Ø¯ÙĩØ§Ø±": 7584,
      "ĠÙĦØ³ÙĦ": 7585,
      "ĠÙħØ¨Ø§Ø¯Ø¦": 7586,
      "Ø¯ÙĪØ±": 7587,
      "Ø¬Ø§Ùħ": 7588,
      "ĠØªØ¨ÙĬÙĨ": 7589,
      "Ø³ØªÙĨ": 7590,
      "ĠÙĪØ´ÙĩØ¯": 7591,
      "Ø¦Ø§Ø¨": 7592,
      "ĠØºØ±Ø¨Ø§": 7593,
      "ĠØ£ÙĪØ±ÙĪØ¨ÙĬØ©": 7594,
      "ĠØ£Ø³Ø³Øª": 7595,
      "ĠØ§ÙĦØ§ÙĨÙģØ¬Ø§Ø±": 7596,
      "ĠØ§ÙĦØ£ÙħØ±Ø§Ø¡": 7597,
      "ĠØªÙĪÙĤ": 7598,
      "ĠØªØŃØµÙĦ": 7599,
      "ĠÙĪØªØ³ØªØ®Ø¯Ùħ": 7600,
      "ĠØ§ØŃØªØ¬": 7601,
      "56": 7602,
      "93": 7603,
      "ĠÙĪØ¹ÙħØ±": 7604,
      "ĠØ£ÙħØ±Ø§Ø¶": 7605,
      "ÙĦØ§ÙĩÙĪØª": 7606,
      "ĠØ§ÙĦØµÙĩÙĬÙĪÙĨÙĬØ©": 7607,
      "ÙĪÙĦØ§ÙĨ": 7608,
      "ĠÙĪØ§Ø³ØªÙħØ±Øª": 7609,
      "Ø³ÙĪ": 7610,
      "ĠØ¬Ø§ÙħØ¹": 7611,
      "ĠØ§ÙĦØ¹Ø§Ø¯ÙĬØ©": 7612,
      "ĠØ£Ø«ÙĬÙĨØ§": 7613,
      "ĠØ§ÙĦÙħÙĦØŃ": 7614,
      "ĠÙħØ³Ø±ØŃÙĬØ©": 7615,
      "Ø§ÙĨÙĪÙĬ": 7616,
      "ĠÙĤØ§Ø¨ÙĦØ©": 7617,
      "Ø³ØªÙĬØ±": 7618,
      "ĠÙħØ±ÙĪØ§ÙĨ": 7619,
      "ĠØ§ÙĦÙħØ¹ÙĨÙī": 7620,
      "ĠØ´Ø¹ÙĪØ¨": 7621,
      "ĠØ¨ÙĪØ¶Ø¹": 7622,
      "ĠØ§ÙĦØ·ÙĪÙĬÙĦ": 7623,
      "ĠØ§ÙĦÙĥÙĩØ±Ø¨Ø§Ø¡": 7624,
      "ĠØ§ÙĦØ¥ÙģØ±ÙĬÙĤÙĬ": 7625,
      "ÙĪØ§ÙĬØ§": 7626,
      "53": 7627,
      "ØªØŃØª": 7628,
      "ĠÙĥØ§Ø³": 7629,
      "ÙĪÙĤØ§": 7630,
      "ĠÙĪØ¨Ø§ÙĦØ±ØºÙħ": 7631,
      "ĠØ§ÙĦÙħØªØ¹": 7632,
      "ĠØ¹Ø´Ø±ÙĬÙĨ": 7633,
      "Ø¬ÙħØ¹ÙĬØ©": 7634,
      "Ġa": 7635,
      "ĠÙħÙĩØ¯": 7636,
      "ĠÙħØŃÙĬØ·": 7637,
      "ĠÙĬØ¹ÙĦÙħ": 7638,
      "ĠØ¹ÙĦÙħÙĬØ©": 7639,
      "ĠØªØ³Ø§Ø¹Ø¯": 7640,
      "ĠØªØ±Ø¬Ø¹": 7641,
      "ÙĪØ¯ÙĩØ§": 7642,
      "ĠØŃØµÙĪÙĦ": 7643,
      "Ø°Ø§Ø¡": 7644,
      "Ø¯Ø±Ø§Øª": 7645,
      "ĠÙħØ³ØªÙħØ±": 7646,
      "ĠØ§ÙĦØ¹ÙĤÙĬØ¯Ø©": 7647,
      "Ø±ÙĪ": 7648,
      "ĠØ§ÙĦÙħØ·Ø§Ø±": 7649,
      "ÙĨÙĪØ¯": 7650,
      "ÙĩØ±ÙĬØ©": 7651,
      "ĠØ£ÙħÙĪØ±": 7652,
      "ĠÙħÙĨÙģØµÙĦØ©": 7653,
      "ĠØ®Ø´": 7654,
      "ĠÙĬØŃØ§ÙĪÙĦ": 7655,
      "ĠØ¹ÙĦØ§ÙħØ©": 7656,
      "ĠØ§ÙĦØ¯Ø®ÙĦ": 7657,
      "ĠØ§ÙĦØ§ØªØŃØ§Ø¯ÙĬØ©": 7658,
      "ĠÙĪØ´ÙĥÙĦ": 7659,
      "ĠØ§ÙĦÙĨÙħØ·": 7660,
      "ØªØ¯ÙĬ": 7661,
      "ĠØ§ÙĦÙĤØµÙĬØ±Ø©": 7662,
      "ĠÙģØ¨": 7663,
      "ĠØ¨Ø§ÙĦØ²": 7664,
      "ĠÙħØ§ÙĦÙĬ": 7665,
      "ÙĥØ§Ø©": 7666,
      "ĠÙĥØ±Ø¯": 7667,
      "ĠØ§ÙĦØªØ¬Ø§Ø±Ø¨": 7668,
      "ĠØ§ÙĦÙĪØ§ØŃØ¯Ø©": 7669,
      "ĠØ§ÙĦØ£Ø¹Ø¯Ø§Ø¯": 7670,
      "ĠØ³Ø§ØŃØ©": 7671,
      "ĠØ§ÙĦÙħØ¤Ø±Ø®ÙĪÙĨ": 7672,
      "ĠÙħÙĥØ§ÙĨØ©": 7673,
      "%ØĮ": 7674,
      "ÙĪØ§Ø¨": 7675,
      "ÙĪØ§Ø·": 7676,
      "ĠØ§ÙĦØ°Ø§ØªÙĬØ©": 7677,
      "ĠØ¬ÙĨØ¨Ø§": 7678,
      "ØµØ§Øª": 7679,
      "Ø°ÙĬØ¨": 7680,
      "ĠÙĪØ¨ÙĤÙĬ": 7681,
      "ĠÙĪØ³ÙĬÙĦØ©": 7682,
      "Ø¨Ø¹Ø«": 7683,
      "Ġ1938": 7684,
      "ĠÙģØ¹ÙĦÙī": 7685,
      "ĠØ¨Ø¥ÙĨØ´Ø§Ø¡": 7686,
      "ĠØ£ÙħØ±ÙĬÙĥÙĬØ©": 7687,
      "ÙĬÙĨØª": 7688,
      "ĠØ¨Ø§ÙĦØ¶": 7689,
      "ĠØ¨Ø¹Ø¯Ùħ": 7690,
      "Ġ1930": 7691,
      "ĠÙĦÙĦØ¬ÙĬØ´": 7692,
      "ĠØ§ÙĦØ£ÙĪØ§Ø¦ÙĦ": 7693,
      "94": 7694,
      "ĠÙĥÙĬØ±": 7695,
      "ĠØ´Ø¨Ø§Ø¨": 7696,
      "ĠØ±Ø§Ùģ": 7697,
      "ĠØ§ÙĦÙģÙĬØ¯Ø±": 7698,
      "Ġ1921": 7699,
      "Ø°Ø§ÙĨ": 7700,
      "Ø±Ø¨Ø±": 7701,
      "ĠØ§ÙĦÙĥØ´Ùģ": 7702,
      "ĠØ§ÙĦÙħØ²Ø§Ø±Ø¹": 7703,
      "ĠØ§ÙĦÙħØ¯Ø±": 7704,
      "ĠØ³ÙĬØ§Ø±Ø©": 7705,
      "ĠØ£Ø«Ø§Ø±": 7706,
      "ĠÙħÙĨØ¸": 7707,
      "ĠÙĨØ¹": 7708,
      "ĠÙĪÙĥØ§ÙĦØ©": 7709,
      "ÙĬÙĤØ§Ùģ": 7710,
      "ĠØ§ÙĦØ´ÙĬØ¡": 7711,
      "ÙĬÙģÙĬ": 7712,
      "ÙĤÙĪØ³": 7713,
      "ĠÙĨØ§Ø´": 7714,
      "ĠØµÙĦØ§Ø©": 7715,
      "ĠØ°Ø§ØªÙĩØ§": 7716,
      "ĠØ¥Ø³ÙĦØ§ÙħÙĬØ©": 7717,
      "ĠØ§ÙĦØ®Ø²": 7718,
      "ĠØ§ÙĦÙĤØ±ÙĬØ¨Ø©": 7719,
      "ĠØ¨Ø§ÙĦØªØ¹": 7720,
      "ĠØ§ÙĦÙħØ³Ø§ÙģØ©": 7721,
      "ĠÙħØ¨Ø§Ø±Ùĥ": 7722,
      "ĠØ§ÙĦØªÙħÙĬÙĬØ²": 7723,
      "ĠÙĪÙĬÙĤØ§ÙĦ": 7724,
      "ĠØ§ÙĦØ´ÙĬÙĪØ¹ÙĬØ©": 7725,
      "ĠØªØŃØªØ§Ø¬": 7726,
      "Ġ37": 7727,
      "ĠØ§ÙĦÙĦÙĩØ¬Ø©": 7728,
      "66": 7729,
      "ÙĪÙĩÙħ": 7730,
      "Ø§ÙĬØ¯Ø©": 7731,
      "ÙĪØ§ÙĦØ¯": 7732,
      "ĠÙĪØ§Ø²": 7733,
      "ĠÙĥØ§ØªØ¨": 7734,
      "ĠÙĨØ§Ø¦": 7735,
      "ØŃÙĩØ§": 7736,
      "ĠØ§ÙĦØŃØ±ÙĪÙģ": 7737,
      "ĠÙĬØ¬Ø±ÙĬ": 7738,
      "ÙĪÙħÙĨÙĬÙĪÙħ": 7739,
      "ĠØ§ÙĦÙħÙĨØ·": 7740,
      "ĠÙģÙħØ«ÙĦØ§": 7741,
      "ĠÙĪØ§Ø³Ùħ": 7742,
      "ĠØ§ÙĦØ³Ø§Ø¯Ø§Øª": 7743,
      "ÙĬÙĦÙĩ": 7744,
      "âĢı": 7745,
      "ĠØ¨Ø£ÙĥÙħÙĦ": 7746,
      "ĠØ§ÙĦØ±ØŃÙĦØ©": 7747,
      "ĠÙĪØ·Ø±": 7748,
      "ĠØ¬Ø¨": 7749,
      "ĠÙĪØªØ®": 7750,
      "ĠØ£Ø¨ÙĬØ¶": 7751,
      "ĠØ§ÙĦÙĪØ²ÙĨ": 7752,
      "Ø¨ÙĦÙĪÙħØ§Ø³ÙĬØ©": 7753,
      "ĠÙĪØ§Ø³ØªØ®Ø¯Ø§Ùħ": 7754,
      "Ġ1934": 7755,
      "ĠØ§ÙĦÙĬÙħÙĬÙĨ": 7756,
      "ĠØ§ÙĦØŃÙĥÙĪÙħØ§Øª": 7757,
      "Ø¯ÙĬØ§Ø¯": 7758,
      "ĠØ§ÙĦØ¥Ø¹Ø¯Ø§Ùħ": 7759,
      "ĠÙĪÙĥØ£Ø³": 7760,
      "ĠØ§ÙĦØ£Ø³ÙĪØ§ÙĤ": 7761,
      "Ø§ÙĨÙī": 7762,
      "ĠÙĪØ§ÙĦØ§ØªØŃØ§Ø¯": 7763,
      "ĠØ§ØªÙģØ§ÙĤÙĬØ§Øª": 7764,
      "91": 7765,
      "ĠØ´ÙħÙĦØª": 7766,
      "Ø£ÙĨÙĩ": 7767,
      "ĠÙħØ±Ø§Ø¯": 7768,
      "ĠÙĪØ§ÙĦØ«Ø§ÙĨÙĬ": 7769,
      "ĠÙħØ³ÙĬØŃÙĬ": 7770,
      "ĠØ§ÙĦØµØ§ÙĦØŃ": 7771,
      "Ġ2022": 7772,
      "83": 7773,
      "ĠØªØ±Ø¨": 7774,
      "ĠÙħØ¹Ø§ÙĦØ¬Ø©": 7775,
      "ĠØªØŃÙĦÙĬÙĦ": 7776,
      "ĠØ§ÙĦÙĤÙĬØ§Ø³ÙĬ": 7777,
      "ĠØ¹ÙĨÙĩÙħ": 7778,
      "ĠØ¨ÙĨØ¸Ø§Ùħ": 7779,
      "ĠØ§ÙĦØ·ÙĦØ¨": 7780,
      "ĠØºÙĬØ±Ùĩ": 7781,
      "ĠØ§Ø²Ø¯Ø§Ø¯": 7782,
      "ĠØªØ§Ø¨Ø¹": 7783,
      "ĠÙĪÙĥÙħØ§": 7784,
      "ĠØ§ÙĦØªØ´Ø±ÙĬØ¹ÙĬØ©": 7785,
      "Ø²ÙĬÙĦÙĨØ¯Ø§": 7786,
      "ĠØ§ÙĦØŃØ±Ùģ": 7787,
      "ĠØ§ÙĦØ¬ÙĩØ§Ø¯": 7788,
      "ĠØ§ÙĦØ£ÙħÙĬØ±Ø©": 7789,
      "ĠØ§ÙĦØ¥Ø¯Ø§Ø±ÙĬ": 7790,
      "ĠØ§ÙĦØ£ÙĪØ±Ø§ÙĤ": 7791,
      "ĠÙħØ§ÙĬÙĥØ±ÙĪØ³ÙĪÙģØª": 7792,
      "ĠØ§ÙĦØ¥ÙĨÙĥÙĦÙĬ": 7793,
      "ĠØªØ´ØªÙĩØ±": 7794,
      "Ø±ÙĬØ±": 7795,
      "Ø¯Ø§Øª": 7796,
      "ĠØ²Ø±Ø§Ø¹": 7797,
      "ĠÙĪØ£ØŃÙĬØ§ÙĨØ§": 7798,
      "ĠÙĬØ±Ø¨Ø·": 7799,
      "ĠØ¬Ø³": 7800,
      "Â²": 7801,
      "ĠØ§Ø¹ØªÙħ": 7802,
      "ĠØ§ÙĦÙģÙĬØ¯ÙĬÙĪ": 7803,
      "ĠÙĪØ§Øµ": 7804,
      "ÙĬÙģØ±": 7805,
      "ĠÙĨÙĬØ³Ø§ÙĨ": 7806,
      "ĠØ§ÙĦÙĤØ·Ø¹": 7807,
      "ĠØµØŃØ©": 7808,
      "ĠØ§ÙĦÙħØªÙĪ": 7809,
      "ĠÙħØ³Ø§Ø±": 7810,
      "97": 7811,
      "Ø·Ø±ÙĬØ©": 7812,
      "ĠÙħÙĦÙĥÙĬØ©": 7813,
      "ĠØ£ÙħØ±Ø§": 7814,
      "ÙĨØµØ±": 7815,
      "ĠØ§Ø®ØªØ¨Ø§Ø±": 7816,
      "ĠØ¨ÙĬÙĪ": 7817,
      "ĠØ£Ø³Ø§Ø¨ÙĬØ¹": 7818,
      "ĠØ§ÙĨØ¶ÙħØª": 7819,
      "ÙĪØ±Ùĩ": 7820,
      "Ø¯ÙĬÙĪÙĬ": 7821,
      "ÙĦÙģØª": 7822,
      "ĠØ¹Ø¯Ø¯ÙĩÙħ": 7823,
      "ĠØ§ÙĦÙĤØ±Ø§Ø¡Ø©": 7824,
      "ĠØ§ÙĦØ¥ÙħØ§Ø±Ø©": 7825,
      "ĠØ§ÙĦÙĪØ²ÙĬØ±": 7826,
      "ĠØ´ÙĬØ¯": 7827,
      "ĠØ¶ÙħØª": 7828,
      "ĠÙĦØªØ£": 7829,
      "ĠÙħÙĦØ§ØŃØ¸Ø©": 7830,
      "ĠØ¯Ø±Ø§Ø³Ø§Øª": 7831,
      "ĠÙĬØ³ÙĥÙĨ": 7832,
      "ĠØ§ÙĦÙħØ¹Ø§Ø±Ùĥ": 7833,
      "Ø¨Ø·Ø§ÙĦ": 7834,
      "ĠØŃÙħØ¯": 7835,
      "Ø§Ø¶ÙĬØ¹": 7836,
      "ĠÙĪØ§ÙĦÙĦØºØ©": 7837,
      "ÙĥØ´Ùģ": 7838,
      "ĠÙĪÙĬØ³ØªØ®Ø¯Ùħ": 7839,
      "ĠØ¯Ø§ÙĪØ¯": 7840,
      "ĠÙĥØ§ÙģÙĬØ©": 7841,
      "Ø²ÙĬØ§": 7842,
      "ĠØ·Ø§ÙĦØª": 7843,
      "ĠØ£Ø¯Ø®ÙĦ": 7844,
      "ĠÙĨØ³Ø®": 7845,
      "ĠØ§Ø³ÙĥØªÙĦÙĨØ¯Ø§": 7846,
      "ØŃØ±Ø²": 7847,
      "ØºØ±Ø§ÙģÙĬØ§": 7848,
      "ĠØ§Ø¬ØªÙħØ§Ø¹ÙĬØ©": 7849,
      "ØµÙĬ": 7850,
      "ĠØ§ÙĦÙħØ¯Ùī": 7851,
      "ÙĬØ§ÙĥÙĦ": 7852,
      "ÙĩØ±Ø§ÙĨ": 7853,
      "ĠØ£Ø¨ÙĨ": 7854,
      "Ġ1944": 7855,
      "ĠØ§ÙĦØ£Ø²Ø±ÙĤ": 7856,
      ")ØĽ": 7857,
      "ĠÙĪØ¹Ø¶": 7858,
      "ĠØ£Ø®Ø±": 7859,
      "ĠØ§ÙĦØ¥Ø¬Ø±Ø§Ø¡": 7860,
      "ĠØ·ÙģÙĦ": 7861,
      "ØªØ±Ø§Ùħ": 7862,
      "ĠØ§ÙĦÙħÙĨØ§ÙģØ³Ø©": 7863,
      "ĠØ¶ÙĪØ¡": 7864,
      "ĠØªØ¯ÙģÙĤ": 7865,
      "ĠØ§ÙĦÙħØ³Ø±ØŃÙĬØ©": 7866,
      "ĠÙĪØ§Ø¹ØªØ¨Ø±": 7867,
      "ĠÙħÙĬØ«": 7868,
      "Ø¶Ø¹Ùģ": 7869,
      "ĠØ±Ø£Ø³Ùĩ": 7870,
      "ÙĪØ§ÙĨÙĬ": 7871,
      "ĠØ§ÙĦÙħØ´Ø±ÙĤ": 7872,
      "ĠÙħØ¤Ø´Ø±": 7873,
      "ĠÙĪÙĬØ¹ÙĪØ¯": 7874,
      "ĠØ§ÙĦØ§Ø³ØªÙĤØ±Ø§Ø±": 7875,
      "ÙĪØ±ÙĬØ³": 7876,
      "ĠØ§ÙĦØ¨ÙĤØ§Ø¡": 7877,
      "ĠØ°Ø±Ø§Øª": 7878,
      "ĠØ§ÙĦØ¨ØŃØ§Ø±": 7879,
      "ĠÙĥØŃ": 7880,
      "Ø¯Ø±Ø§Ø³Ø§Øª": 7881,
      "ĠØ£ØºÙĦØ¨ÙĬØ©": 7882,
      "ĠÙĦØ£Ø³": 7883,
      "Ø¶Ø§Ø©": 7884,
      "ĠÙĪØ³ÙĪØ±ÙĬØ§": 7885,
      "ĠÙĦØ¨ÙĨØ§Ø¡": 7886,
      "Ø§Ø¶Ø·Ø±Ø§Ø¨": 7887,
      "ĠÙĪØ±ÙĬ": 7888,
      "ÙĪÙĩÙĪ": 7889,
      "ĠÙģØ§Øª": 7890,
      "Ø§ÙĩØ²": 7891,
      "ĠÙĦØ£Ø³Ø¨Ø§Ø¨": 7892,
      "ĠÙħÙħÙĥÙĨ": 7893,
      "ĠØ§ÙĦÙĦØ¨ÙĨØ§ÙĨÙĬ": 7894,
      "ĠÙĥØ³": 7895,
      "ĠØŃØ¯ÙĬØ¯": 7896,
      "ĠÙĤØ±ÙĬØ¨Ø©": 7897,
      "ĠØ¨Ø§ÙĦØ³ÙĬ": 7898,
      "ĠØ£ÙĪÙĦØ§Ø¯": 7899,
      "ĠÙĥÙĬÙħÙĬØ§Ø¦ÙĬ": 7900,
      "ĠÙĦØ§Ùħ": 7901,
      "ĠÙĦÙĦØªÙĤ": 7902,
      "ĠØ§ÙĦÙħØªØŃÙģ": 7903,
      "ĠÙĪØ§ÙĨØªÙĤÙĦ": 7904,
      "ĠÙĦÙĦÙħÙĦÙĥ": 7905,
      "ĠØ§ÙĦÙĬØ§Ø¨Ø§ÙĨÙĬ": 7906,
      "ĠØ§Ø¬ØªÙħØ§Ø¹": 7907,
      "ÙĥØ±Ø§ÙĨÙĬØ§": 7908,
      "ØªØ¯Ø§Ø¨": 7909,
      "ĠÙĦØ§ØŃØ¸": 7910,
      "ĠØ£Ø¹Ø§Ø¯": 7911,
      "ĠØ³ÙĪÙĬØ³Ø±Ø§": 7912,
      "ÙĪÙĬØ¨": 7913,
      "ĠØ§ÙĦÙĩØ§ÙħØ©": 7914,
      "ĠØ£ÙĨÙĩÙī": 7915,
      "Ġ1933": 7916,
      "ĠØ§ÙĦÙħØ¹ÙħØ§Ø±ÙĬ": 7917,
      "ØºÙĪØ±": 7918,
      "ĠØ£Ø¨ØŃØ§Ø«": 7919,
      "ĠØ§ÙĦÙĤØ¯ÙħØ§Ø¡": 7920,
      "ĠÙĦÙĦØºØ©": 7921,
      "ĠØ§ÙĦØ¬ÙĦÙĬØ¯": 7922,
      "ĠØ§ÙĦØ¹Ø§ÙħÙĦØ©": 7923,
      "ĠØªØ±Ø¬ÙħØ©": 7924,
      "ĠÙĤØ¶Ø§Ø¡": 7925,
      "ĠØ§ÙĦÙĤØ§Ø·ÙĨÙĬÙĨ": 7926,
      "ĠØ´Ø®ØµÙĬØ§Øª": 7927,
      "ĠØªÙĦØ¹Ø¨": 7928,
      "ĠØ§ÙĦØ³ÙĦÙħ": 7929,
      "ĠØªÙĪÙĤÙĬØ¹": 7930,
      "ĠÂ».": 7931,
      "ag": 7932,
      "ÙĬÙĦÙĬÙĨ": 7933,
      "ĠÙĪØ§ÙĦØ£Ø±Ø¨Ø¹ÙĬÙĨ": 7934,
      "ĠØ§ÙĦØ³Ø§Ø¦Ø¯": 7935,
      "ĠØ§ÙĦØ¬ÙĩØ¯": 7936,
      "ĠÙĬØ¹Ø§Ø¯ÙĦ": 7937,
      "Ø¬Ø§Ø²Ø§Øª": 7938,
      "ĠØ§ÙĦØ³ÙĪØ¨Ø±": 7939,
      "ĠØ£ÙĪØ±Ø§ÙĤ": 7940,
      "ĠØ§ÙĦÙħØ¬ÙħÙĪØ¹": 7941,
      "ÙħØ¶": 7942,
      "ĠÙĦÙĦÙħØ¤": 7943,
      "ØºØ·ÙĬØ©": 7944,
      "ĠØªÙĪØ³Ø¹": 7945,
      "ĠØ±ÙĪØ¨": 7946,
      "ĠØ§ÙĦÙĨÙħÙĪØ°Ø¬": 7947,
      "ĠØ§ÙĦÙħÙĤØ§Ø¨ÙĦ": 7948,
      "Ġ55": 7949,
      "ĠØ´Ùĩ": 7950,
      "ĠØ§ÙĦØ¶Ø®ÙħØ©": 7951,
      "ĠØ¥ØµØ§Ø¨Ø©": 7952,
      "Ø±ÙĤØ§Ø¡": 7953,
      "Ø±Ø¨ÙĬÙĨ": 7954,
      "ĠØ§ÙĦØ¨ÙĥØªÙĬØ±ÙĬØ§": 7955,
      "Ø´Ùħ": 7956,
      "ĠØ§ÙĦØµÙĬÙĨÙĬ": 7957,
      "ĠØ§ÙĦØ¥ØºØ±ÙĬÙĤÙĬØ©": 7958,
      "Ġof": 7959,
      "ĠØ¹ÙĪØ¯ØªÙĩ": 7960,
      "ĠÙģÙĩØ¯": 7961,
      "ĠØ§ÙĦØ£Ø¬Ø§ÙĨØ¨": 7962,
      "ĠØªÙĩØ¯Ùģ": 7963,
      "Â»)": 7964,
      "ĠØ§ÙĦÙħØŃÙĦØ©": 7965,
      "ĠØªØµÙĨÙģ": 7966,
      "ri": 7967,
      "ĠÙĦØ¯Ø±Ø¬Ø©": 7968,
      "ĠØ§ÙĦØ³Ø·": 7969,
      "ĠØ§ÙĦÙħÙĨØµÙĪØ±": 7970,
      "ĠÙħØ³Ø£ÙĦØ©": 7971,
      "ĠÙĦÙĤØ§Ø¡": 7972,
      "ĠÙĪÙĬØ±Ø¬Ø¹": 7973,
      "ĠØ§ÙĦÙģØŃÙħ": 7974,
      "ĠØ§ÙĦØµÙĬØºØ©": 7975,
      "ĠØ§ÙĦÙħØ³Ø§Ø¹Ø¯Ø©": 7976,
      "ĠØ¨ÙĪÙģ": 7977,
      "ĠØ§ÙĦØ¹Ø¶ÙĦØ©": 7978,
      "ĠØ§ÙĦØ¥Ø¶": 7979,
      "ĠÙĪØ§ÙĦØ¹Ø§ÙĦÙħ": 7980,
      "Ø±Ø²": 7981,
      "ĠØ§ÙĦØ£Ø·Ø¨Ø§Ø¡": 7982,
      "Ø±ÙĬØ¹": 7983,
      "ĠÙĪÙģÙĦ": 7984,
      "ĠÙħÙĨØ´": 7985,
      "ĠØ§ÙĦØ£Ø³ØªØ±": 7986,
      "ĠÙħØªØ¹Ø¯Ø¯": 7987,
      "Ø¨ÙĬÙĪÙĨ": 7988,
      "ĠØªØ¹Ø¯ÙĬÙĦ": 7989,
      "ĠÙĦÙĦÙĨØ§Ø¯ÙĬ": 7990,
      "Ø§ÙĤØªÙĩ": 7991,
      "ĠØ²Ø±Ø§Ø¹Ø©": 7992,
      "ĠØ§ÙĦØµÙĦØ¨Ø©": 7993,
      "ĠØ£ÙĪØº": 7994,
      "ĠØ¹Ø±Ø´": 7995,
      "ĠØŃØ±Ø©": 7996,
      "ĠØ³ÙĬØ¨": 7997,
      "ĠØ§ÙĦØ¬Ø§Ùĩ": 7998,
      "ÙĤØ¯Ø§Ùħ": 7999,
      "ĠÙĪÙĨØ¸Ø±Ø§": 8000,
      "ĠØ§ÙĦØ³ÙĥÙĨÙĬØ©": 8001,
      "Ø§Ø¯Ø±Ø§Øª": 8002,
      "ĠÙħØ¹Ø§ÙĦÙħ": 8003,
      "ĠØªØ¹Ø²ÙĬØ²": 8004,
      "ĠØ¢Ø°Ø§Ø±": 8005,
      "Ø³ÙģÙĬØ©": 8006,
      "ĠØ§ÙĦÙħÙĤØ±": 8007,
      "ĠÙĪØ§ÙĦØ¹Ø±Ø§ÙĤ": 8008,
      "ĠØ§ÙĦÙĤØ§Ø¯Ø±": 8009,
      "ÙģÙĬØ¶": 8010,
      "ĠØ§ÙĦÙħØ¹Ø§ÙĦÙħ": 8011,
      "ĠØ§ÙĥØªØ³Ø¨": 8012,
      "ĠØ§ÙĦØªØ¯Ø±ÙĬØ¨": 8013,
      "ĠØ§ÙĦØ¥ÙĦÙĥØªØ±ÙĪÙĨÙĬØ©": 8014,
      "ĠØ§ØºØªÙĬØ§ÙĦ": 8015,
      "ĠØ§ÙĦØ¨Ø³ÙĬØ·Ø©": 8016,
      "Ø§ÙĦØ®": 8017,
      "ĠØ¹Ø§ÙĦÙĬ": 8018,
      "ĠØ§ÙĦØ£ÙĤØ§ÙĦÙĬÙħ": 8019,
      "ĠØ§ÙĦØ³ÙĪØ¯Ø§Ø¡": 8020,
      "ĠØŃØ²ÙĬØ±Ø§ÙĨ": 8021,
      "ÙĦÙĩØ§": 8022,
      "ĠÙĦÙĬØ´": 8023,
      "ÙĬÙĦÙĪ": 8024,
      "ĠØ§ÙĨØ·ÙĦØ§ÙĤ": 8025,
      "ĠÙħÙĦØŃÙĪØ¸": 8026,
      "ĠØ§ÙĦÙĨØ³ÙĬØ¬": 8027,
      "ÙĪÙĥÙĪ": 8028,
      "Ø®ÙĦØ§ÙģØ©": 8029,
      "ĠØ¥Ø¯Ø®Ø§ÙĦ": 8030,
      "ĠÙĪØ§ÙĦØ§Ø¬ØªÙħØ§Ø¹ÙĬØ©": 8031,
      "ĠØ§ÙĦÙĨØ³Ø¨Ø©": 8032,
      "ĠØ§ÙĦØ°Ø±Ø§Øª": 8033,
      "ĠØ§ÙĦÙħØ¨Ø§Ø±ÙĬØ§Øª": 8034,
      "ĠÙĤØ¯ÙĬÙħ": 8035,
      "ØªÙĬÙħ": 8036,
      "ĠÙĦØ§Ø³ØªØ®Ø¯Ø§Ùħ": 8037,
      "Ġ1951": 8038,
      "ĠÙģÙĦØ³Ø·": 8039,
      "ĠØ¬ÙĬÙĪØ´": 8040,
      "Ġ600": 8041,
      "Ġ1923": 8042,
      "ĠØ£Ø¨Ø±Ø²ÙĩØ§": 8043,
      "ĠÙĨÙĬÙĪØªÙĨ": 8044,
      "ĠØ§ÙĬ": 8045,
      "ĠØ§ÙĦÙĥØ§Ø±": 8046,
      "ĠØ¥ÙĨØ³Ø§ÙĨ": 8047,
      "ĠØªØªØ¹ÙĦÙĤ": 8048,
      "Ø¯ÙĩØ±Øª": 8049,
      "ĠØ¨Ø£Ø³": 8050,
      "ĠÙĪØ¹Ø´Ø±ÙĬÙĨ": 8051,
      "ĠØ§ÙĦØªØ¬Ø§Ø±": 8052,
      "ĠØ¹ÙħØ±ÙĩØ§": 8053,
      "ØªÙĨØ§Ùħ": 8054,
      "ĠØ¨ÙģØ¹ÙĦ": 8055,
      "ĠØŃÙĥØ§Ùħ": 8056,
      "ĠØ§ÙĦØ±ØŃÙħ": 8057,
      "ĠØ§ÙĦØ´ÙħØ³ÙĬØ©": 8058,
      "ĠØ§ÙĦØ§ØªÙģØ§ÙĤÙĬØ©": 8059,
      "ĠÙĥÙĪÙĥØ¨": 8060,
      "ĠØ¯Ø§Ø¦Ùħ": 8061,
      "ĠØ§Ø³ØªØ¹Ø§Ø¯Ø©": 8062,
      "ĠØ§ÙĦØ£ØºÙĦØ¨ÙĬØ©": 8063,
      "ĠØ§ÙĦØºØ°Ø§Ø¡": 8064,
      "ĠÙĨØ§ÙĦ": 8065,
      "ĠØ«ÙĨØ§Ø¦ÙĬØ©": 8066,
      "ĠÙĦÙħÙĨØ¹": 8067,
      "ĠÙĪØ¹ÙĦ": 8068,
      "ĠØ§ÙĦØ£ÙĨØ´Ø·Ø©": 8069,
      "ÙĤØ¯Ø§Ø±": 8070,
      "ĠÙĦÙĦØŃÙĥÙĪÙħØ©": 8071,
      "89": 8072,
      "ĠØ£Ø·Ø±Ø§Ùģ": 8073,
      "Ø§ÙĩÙĨ": 8074,
      "ĠÙĬØŃØ¶Ø±": 8075,
      "ĠØ±ÙģÙĬ": 8076,
      "ĠØ§ÙĦØ±Ø£": 8077,
      "ĠØ§ÙĦØµØŃØ±": 8078,
      "Ø§Ø¶Ø¹": 8079,
      "ĠØ§ÙĦÙĤÙĬÙħ": 8080,
      "ĠØ§ÙĦØªÙĪØ±": 8081,
      "ĠÙĬÙħØ§Ø±Ø³": 8082,
      "ĠÙħØ¤Ø®Ø±Ø§": 8083,
      "ĠØ£ÙĪÙĨ": 8084,
      "ĠØ§ÙĦØ¬ØºØ±Ø§ÙģÙĬ": 8085,
      "og": 8086,
      "ÙĪÙĦÙĨØ¯Ø§": 8087,
      "Ø³ØªØ§ÙĨÙĬ": 8088,
      "ĠØ§ÙĦØªÙĩ": 8089,
      "ĠØ¨ÙĦØ¬ÙĬÙĥØ§": 8090,
      "ĠÙĥØ´Ùģ": 8091,
      "ĠØ´Ø¬Ø±Ø©": 8092,
      "ØŃØ«": 8093,
      "ÙĪÙĩÙĬ": 8094,
      "ĠØ§ÙĦÙĨÙĤØ§Ø¯": 8095,
      "Ø§Ø¬ÙĤØ©": 8096,
      "ĠØ§ÙĦÙħØ¤ÙĤØª": 8097,
      "ĠÙĦÙĪØµÙģ": 8098,
      "ĠØ³ÙģÙĬÙĨØ©": 8099,
      "ĠÙĪØ§ÙĦÙĬ": 8100,
      "ĠØŃØµØ§Ø±": 8101,
      "ÙĤØªØ§ÙĦ": 8102,
      "ĠØ£ÙĦÙĪØ§ÙĨ": 8103,
      "ĠØ²ÙĪØ¬Ø©": 8104,
      "ĠÙĬØ·ÙĦØ¨": 8105,
      "ĠÙĬØ³ØªÙħØ±": 8106,
      "ĠØ§ÙĦÙħØ£ÙħÙĪÙĨ": 8107,
      "ĠØ§ÙĦÙħØ³ØªØ¹ÙħØ±Ø§Øª": 8108,
      "ĠØ§ÙĦÙĤÙĪÙħ": 8109,
      "ĠØ§ÙħØªØ¯Ø§Ø¯": 8110,
      "ĠÙĦÙĪØ²": 8111,
      "ÙĪØ¨Ø§ÙĨ": 8112,
      "ĠØªÙħÙĬ": 8113,
      "ĠÙħØŃØ¯ÙĪØ¯Ø©": 8114,
      "ĠØ§ÙĦØªØ¯Ø®ÙĦ": 8115,
      "ĠØ¨Ø¨Ø·ÙĪÙĦØ©": 8116,
      "Ø°Ùī": 8117,
      "ĠÙĩØ´Ø§Ùħ": 8118,
      "ĠÙĪÙĨØ§Ø¯ÙĬ": 8119,
      "ĠØ§ÙĦÙģØ±Ø§Øº": 8120,
      "ĠÙħÙĤØ¯ÙħØ©": 8121,
      "ĠØ§ÙĦØ¢ÙĦØ§Ùģ": 8122,
      "ĠØ§ÙĦØ³ÙĦØ©": 8123,
      "Ø§Ø¹Ø¯Ùĩ": 8124,
      "ab": 8125,
      "Ġ34": 8126,
      "ĠØ§ÙĦØ³ÙĬØ§ØŃØ©": 8127,
      "ĠØ§ÙĦØ´Ø§Ø¦Ø¹Ø©": 8128,
      "ĠØ§ÙĦØ¢ÙĦØ§Øª": 8129,
      "ĠÙĪØ§ÙĨØ¶Ùħ": 8130,
      "ØŃØ§ÙĪÙĦØ©": 8131,
      "ĠØ§ÙĦØµÙĦØ¨": 8132,
      "ĠØ§ÙĦÙħØ³ØªÙħØ±": 8133,
      "ĠÙħØ¹Ø§Ø±Ùĥ": 8134,
      "ĠØµØ¯Ø§Ùħ": 8135,
      "ĠØ§ÙĦØ¨Ø§ÙĦ": 8136,
      "ĠÙĤØ±ÙĬØ¨": 8137,
      "Ø¯ÙĬØ¨": 8138,
      "ĠØ§ÙĦØ¬Ø§ÙĨ": 8139,
      "ĠØ§ÙĦÙħØ¨ÙĥØ±": 8140,
      "ĠØ§ÙĦØµØŃÙģ": 8141,
      "Ú¤": 8142,
      "Ø§Ø³Ùĥ": 8143,
      "Ø§ÙĨÙĬØ§Øª": 8144,
      "ĠØ§ÙĦÙĬÙĪØ±Ø§ÙĨÙĬÙĪÙħ": 8145,
      "ĠÙĬÙĪÙħÙĬØ§": 8146,
      "ĠØ§ÙĦØ¨Ø±ÙĪØªØ³ØªØ§ÙĨØªÙĬØ©": 8147,
      "ĠØŃØ§Ø¬Ø©": 8148,
      "ĠØ§ÙĦÙĨØ§Ø²ÙĬØ©": 8149,
[...]
